unsigned char output_model_quantized_int8_io_tflite[] = {
  0x1c, 0x00, 0x00, 0x00, 0x54, 0x46, 0x4c, 0x33, 0x14, 0x00, 0x20, 0x00,
  0x1c, 0x00, 0x18, 0x00, 0x14, 0x00, 0x10, 0x00, 0x0c, 0x00, 0x00, 0x00,
  0x08, 0x00, 0x04, 0x00, 0x14, 0x00, 0x00, 0x00, 0x1c, 0x00, 0x00, 0x00,
  0x8c, 0x00, 0x00, 0x00, 0xe4, 0x00, 0x00, 0x00, 0x18, 0x2f, 0x00, 0x00,
  0x28, 0x2f, 0x00, 0x00, 0x6c, 0x9b, 0x00, 0x00, 0x03, 0x00, 0x00, 0x00,
  0x01, 0x00, 0x00, 0x00, 0x10, 0x00, 0x00, 0x00, 0x00, 0x00, 0x0a, 0x00,
  0x10, 0x00, 0x0c, 0x00, 0x08, 0x00, 0x04, 0x00, 0x0a, 0x00, 0x00, 0x00,
  0x0c, 0x00, 0x00, 0x00, 0x1c, 0x00, 0x00, 0x00, 0x3c, 0x00, 0x00, 0x00,
  0x0f, 0x00, 0x00, 0x00, 0x73, 0x65, 0x72, 0x76, 0x69, 0x6e, 0x67, 0x5f,
  0x64, 0x65, 0x66, 0x61, 0x75, 0x6c, 0x74, 0x00, 0x01, 0x00, 0x00, 0x00,
  0x04, 0x00, 0x00, 0x00, 0x9c, 0xff, 0xff, 0xff, 0x47, 0x00, 0x00, 0x00,
  0x04, 0x00, 0x00, 0x00, 0x08, 0x00, 0x00, 0x00, 0x6f, 0x75, 0x74, 0x70,
  0x75, 0x74, 0x5f, 0x30, 0x00, 0x00, 0x00, 0x00, 0x01, 0x00, 0x00, 0x00,
  0x04, 0x00, 0x00, 0x00, 0x7e, 0xd0, 0xff, 0xff, 0x04, 0x00, 0x00, 0x00,
  0x01, 0x00, 0x00, 0x00, 0x78, 0x00, 0x00, 0x00, 0x02, 0x00, 0x00, 0x00,
  0x34, 0x00, 0x00, 0x00, 0x04, 0x00, 0x00, 0x00, 0xdc, 0xff, 0xff, 0xff,
  0x4a, 0x00, 0x00, 0x00, 0x04, 0x00, 0x00, 0x00, 0x13, 0x00, 0x00, 0x00,
  0x43, 0x4f, 0x4e, 0x56, 0x45, 0x52, 0x53, 0x49, 0x4f, 0x4e, 0x5f, 0x4d,
  0x45, 0x54, 0x41, 0x44, 0x41, 0x54, 0x41, 0x00, 0x08, 0x00, 0x0c, 0x00,
  0x08, 0x00, 0x04, 0x00, 0x08, 0x00, 0x00, 0x00, 0x49, 0x00, 0x00, 0x00,
  0x04, 0x00, 0x00, 0x00, 0x13, 0x00, 0x00, 0x00, 0x6d, 0x69, 0x6e, 0x5f,
  0x72, 0x75, 0x6e, 0x74, 0x69, 0x6d, 0x65, 0x5f, 0x76, 0x65, 0x72, 0x73,
  0x69, 0x6f, 0x6e, 0x00, 0x4b, 0x00, 0x00, 0x00, 0x30, 0x2e, 0x00, 0x00,
  0x28, 0x2e, 0x00, 0x00, 0xf8, 0x2d, 0x00, 0x00, 0xdc, 0x2d, 0x00, 0x00,
  0x6c, 0x2d, 0x00, 0x00, 0xdc, 0x2c, 0x00, 0x00, 0xcc, 0x26, 0x00, 0x00,
  0xfc, 0x25, 0x00, 0x00, 0x6c, 0x24, 0x00, 0x00, 0x3c, 0x24, 0x00, 0x00,
  0xac, 0x22, 0x00, 0x00, 0xdc, 0x21, 0x00, 0x00, 0x1c, 0x20, 0x00, 0x00,
  0x4c, 0x1f, 0x00, 0x00, 0xbc, 0x1d, 0x00, 0x00, 0x8c, 0x1d, 0x00, 0x00,
  0xfc, 0x1b, 0x00, 0x00, 0x2c, 0x1b, 0x00, 0x00, 0x6c, 0x19, 0x00, 0x00,
  0x9c, 0x18, 0x00, 0x00, 0x0c, 0x17, 0x00, 0x00, 0xdc, 0x16, 0x00, 0x00,
  0x4c, 0x15, 0x00, 0x00, 0x7c, 0x14, 0x00, 0x00, 0xbc, 0x12, 0x00, 0x00,
  0xec, 0x11, 0x00, 0x00, 0x5c, 0x10, 0x00, 0x00, 0x2c, 0x10, 0x00, 0x00,
  0x9c, 0x0e, 0x00, 0x00, 0xcc, 0x0d, 0x00, 0x00, 0x0c, 0x0c, 0x00, 0x00,
  0x3c, 0x0b, 0x00, 0x00, 0xac, 0x09, 0x00, 0x00, 0x7c, 0x09, 0x00, 0x00,
  0xec, 0x07, 0x00, 0x00, 0x1c, 0x07, 0x00, 0x00, 0x5c, 0x05, 0x00, 0x00,
  0x8c, 0x04, 0x00, 0x00, 0xfc, 0x02, 0x00, 0x00, 0xcc, 0x02, 0x00, 0x00,
  0x7c, 0x02, 0x00, 0x00, 0x4c, 0x02, 0x00, 0x00, 0xf4, 0x01, 0x00, 0x00,
  0xc4, 0x01, 0x00, 0x00, 0x6c, 0x01, 0x00, 0x00, 0x64, 0x01, 0x00, 0x00,
  0x5c, 0x01, 0x00, 0x00, 0x54, 0x01, 0x00, 0x00, 0x4c, 0x01, 0x00, 0x00,
  0x44, 0x01, 0x00, 0x00, 0x3c, 0x01, 0x00, 0x00, 0x34, 0x01, 0x00, 0x00,
  0x2c, 0x01, 0x00, 0x00, 0x24, 0x01, 0x00, 0x00, 0x1c, 0x01, 0x00, 0x00,
  0x14, 0x01, 0x00, 0x00, 0x0c, 0x01, 0x00, 0x00, 0x04, 0x01, 0x00, 0x00,
  0xfc, 0x00, 0x00, 0x00, 0xf4, 0x00, 0x00, 0x00, 0xec, 0x00, 0x00, 0x00,
  0xe4, 0x00, 0x00, 0x00, 0xdc, 0x00, 0x00, 0x00, 0xd4, 0x00, 0x00, 0x00,
  0xcc, 0x00, 0x00, 0x00, 0xc4, 0x00, 0x00, 0x00, 0xbc, 0x00, 0x00, 0x00,
  0xb4, 0x00, 0x00, 0x00, 0xac, 0x00, 0x00, 0x00, 0xa4, 0x00, 0x00, 0x00,
  0x9c, 0x00, 0x00, 0x00, 0x94, 0x00, 0x00, 0x00, 0x8c, 0x00, 0x00, 0x00,
  0x6c, 0x00, 0x00, 0x00, 0x04, 0x00, 0x00, 0x00, 0x1a, 0xd2, 0xff, 0xff,
  0x04, 0x00, 0x00, 0x00, 0x58, 0x00, 0x00, 0x00, 0x0c, 0x00, 0x00, 0x00,
  0x08, 0x00, 0x0e, 0x00, 0x08, 0x00, 0x04, 0x00, 0x08, 0x00, 0x00, 0x00,
  0x10, 0x00, 0x00, 0x00, 0x28, 0x00, 0x00, 0x00, 0x00, 0x00, 0x06, 0x00,
  0x08, 0x00, 0x04, 0x00, 0x06, 0x00, 0x00, 0x00, 0x04, 0x00, 0x00, 0x00,
  0x01, 0x00, 0x00, 0x00, 0xeb, 0x03, 0x00, 0x00, 0x00, 0x00, 0x0a, 0x00,
  0x10, 0x00, 0x0c, 0x00, 0x08, 0x00, 0x04, 0x00, 0x0a, 0x00, 0x00, 0x00,
  0x03, 0x00, 0x00, 0x00, 0x02, 0x00, 0x00, 0x00, 0x04, 0x00, 0x00, 0x00,
  0x06, 0x00, 0x00, 0x00, 0x32, 0x2e, 0x31, 0x30, 0x2e, 0x30, 0x00, 0x00,
  0x7e, 0xd2, 0xff, 0xff, 0x04, 0x00, 0x00, 0x00, 0x10, 0x00, 0x00, 0x00,
  0x31, 0x2e, 0x31, 0x34, 0x2e, 0x30, 0x00, 0x00, 0x00, 0x00, 0x00, 0x00,
  0x00, 0x00, 0x00, 0x00, 0xe8, 0x67, 0xff, 0xff, 0xec, 0x67, 0xff, 0xff,
  0xf0, 0x67, 0xff, 0xff, 0xf4, 0x67, 0xff, 0xff, 0xf8, 0x67, 0xff, 0xff,
  0xfc, 0x67, 0xff, 0xff, 0x00, 0x68, 0xff, 0xff, 0x04, 0x68, 0xff, 0xff,
  0x08, 0x68, 0xff, 0xff, 0x0c, 0x68, 0xff, 0xff, 0x10, 0x68, 0xff, 0xff,
  0x14, 0x68, 0xff, 0xff, 0x18, 0x68, 0xff, 0xff, 0x1c, 0x68, 0xff, 0xff,
  0x20, 0x68, 0xff, 0xff, 0x24, 0x68, 0xff, 0xff, 0x28, 0x68, 0xff, 0xff,
  0x2c, 0x68, 0xff, 0xff, 0x30, 0x68, 0xff, 0xff, 0x34, 0x68, 0xff, 0xff,
  0x38, 0x68, 0xff, 0xff, 0x3c, 0x68, 0xff, 0xff, 0x40, 0x68, 0xff, 0xff,
  0x44, 0x68, 0xff, 0xff, 0x48, 0x68, 0xff, 0xff, 0x4c, 0x68, 0xff, 0xff,
  0x50, 0x68, 0xff, 0xff, 0x54, 0x68, 0xff, 0xff, 0x0a, 0xd3, 0xff, 0xff,
  0x04, 0x00, 0x00, 0x00, 0x48, 0x00, 0x00, 0x00, 0xc8, 0x32, 0x08, 0x81,
  0x78, 0xff, 0xd6, 0x2d, 0xff, 0x39, 0x7f, 0x24, 0xbb, 0xb1, 0xd5, 0x06,
  0xd6, 0x04, 0x1d, 0x1b, 0xd1, 0x32, 0x44, 0x81, 0x14, 0x20, 0xc6, 0x29,
  0x34, 0x14, 0x34, 0x49, 0x19, 0xb0, 0x81, 0xc6, 0x03, 0xcb, 0x30, 0x0f,
  0x81, 0x70, 0x04, 0xdb, 0x20, 0x02, 0xc8, 0x00, 0x00, 0x7f, 0x02, 0x01,
  0xb6, 0xff, 0x11, 0xbd, 0xf7, 0xeb, 0x81, 0xf6, 0xec, 0xc5, 0x07, 0x29,
  0x81, 0x1b, 0xf3, 0x04, 0xf7, 0xf2, 0x4d, 0xf9, 0x5e, 0xd3, 0xff, 0xff,
  0x04, 0x00, 0x00, 0x00, 0x20, 0x00, 0x00, 0x00, 0xa4, 0x30, 0x00, 0x00,
  0xc2, 0x18, 0x00, 0x00, 0xf6, 0x03, 0x00, 0x00, 0x32, 0x38, 0x00, 0x00,
  0x4a, 0x05, 0x00, 0x00, 0xa0, 0x1a, 0x00, 0x00, 0xae, 0x22, 0x01, 0x00,
  0x62, 0xf2, 0xff, 0xff, 0x8a, 0xd3, 0xff, 0xff, 0x04, 0x00, 0x00, 0x00,
  0x48, 0x00, 0x00, 0x00, 0x00, 0x06, 0x0b, 0x1b, 0x01, 0xfc, 0x0a, 0x3a,
  0xff, 0x09, 0xd3, 0x7f, 0xed, 0xfe, 0xfe, 0x1c, 0xf7, 0x05, 0x0d, 0x27,
  0xf1, 0x02, 0xfd, 0x16, 0xff, 0xfa, 0x7f, 0xec, 0x7f, 0x04, 0x93, 0x25,
  0x7f, 0x81, 0x94, 0x1a, 0xb9, 0x7f, 0xf4, 0x81, 0xe4, 0xfb, 0x1a, 0xf2,
  0xf6, 0x01, 0x7f, 0x19, 0x01, 0xfd, 0x05, 0x09, 0xf9, 0xff, 0x12, 0x24,
  0xfa, 0x02, 0xd9, 0x00, 0x01, 0x03, 0xfa, 0x92, 0xfd, 0x03, 0xf7, 0x16,
  0x04, 0x02, 0xfe, 0x24, 0xde, 0xd3, 0xff, 0xff, 0x04, 0x00, 0x00, 0x00,
  0x20, 0x00, 0x00, 0x00, 0x32, 0xdd, 0xff, 0xff, 0x4e, 0x2c, 0x00, 0x00,
  0xd8, 0xfd, 0xff, 0xff, 0xbe, 0xa8, 0xff, 0xff, 0xe6, 0xfe, 0xff, 0xff,
  0x60, 0xc8, 0xff, 0xff, 0x28, 0xff, 0xff, 0xff, 0x67, 0x00, 0x00, 0x00,
  0x0a, 0xd4, 0xff, 0xff, 0x04, 0x00, 0x00, 0x00, 0x40, 0x00, 0x00, 0x00,
  0xe6, 0xfa, 0xcc, 0xda, 0xfb, 0x29, 0x81, 0xe9, 0x12, 0x4a, 0xfe, 0x7f,
  0x06, 0xff, 0xfa, 0xe2, 0x7f, 0xf7, 0xdd, 0xbd, 0x9d, 0x2e, 0x6b, 0xd6,
  0x0b, 0x81, 0x25, 0xcb, 0x25, 0xc1, 0x19, 0x2a, 0x7f, 0xf8, 0xcd, 0xfe,
  0x2e, 0xfd, 0x86, 0xe1, 0x00, 0xe5, 0x03, 0x20, 0x04, 0x81, 0xfe, 0x02,
  0x7f, 0xe3, 0x62, 0x00, 0x5c, 0xed, 0xf1, 0x1a, 0x81, 0xf1, 0x9e, 0x09,
  0x96, 0x0d, 0x26, 0x12, 0x56, 0xd4, 0xff, 0xff, 0x04, 0x00, 0x00, 0x00,
  0x20, 0x00, 0x00, 0x00, 0x96, 0x12, 0x00, 0x00, 0x5a, 0xeb, 0xff, 0xff,
  0x48, 0x00, 0x00, 0x00, 0xe8, 0x0a, 0x00, 0x00, 0x60, 0x04, 0x00, 0x00,
  0xa6, 0x02, 0x00, 0x00, 0x7b, 0xf3, 0xff, 0xff, 0x04, 0x0c, 0x00, 0x00,
  0x82, 0xd4, 0xff, 0xff, 0x04, 0x00, 0x00, 0x00, 0x80, 0x01, 0x00, 0x00,
  0xa2, 0x81, 0x01, 0x84, 0xb6, 0x04, 0xfd, 0x04, 0x81, 0x00, 0x62, 0x0f,
  0xee, 0xfa, 0x12, 0xf7, 0x14, 0xee, 0x0d, 0x7f, 0x0c, 0xfb, 0xe6, 0x0a,
  0x97, 0xa5, 0xd7, 0xe2, 0x30, 0x7f, 0xd6, 0xe2, 0xfd, 0xd7, 0xf9, 0xff,
  0xf6, 0x11, 0x81, 0xba, 0x00, 0xd2, 0x02, 0xfb, 0xfa, 0x05, 0x81, 0xae,
  0x7f, 0x09, 0x0f, 0xee, 0xb6, 0x13, 0x03, 0xfb, 0x81, 0xed, 0xec, 0x02,
  0x4e, 0x0b, 0x0b, 0xf5, 0x13, 0x26, 0xf5, 0xfe, 0xde, 0x81, 0x1f, 0x15,
  0x43, 0x21, 0xf4, 0xf6, 0xe6, 0x02, 0xf6, 0x7f, 0x7d, 0xf1, 0x85, 0x05,
  0xab, 0xfa, 0x21, 0x7f, 0x8e, 0x7f, 0xdb, 0x00, 0x62, 0xb6, 0x2b, 0x09,
  0x7f, 0xf0, 0xa7, 0x16, 0x42, 0xf3, 0x03, 0xd6, 0x7f, 0x0c, 0x14, 0xff,
  0xe9, 0x09, 0x01, 0xf8, 0x8d, 0xa2, 0x56, 0xd1, 0x54, 0xe5, 0xdb, 0x81,
  0x18, 0x51, 0x02, 0xed, 0xfd, 0x81, 0xf0, 0x0c, 0xf2, 0xc0, 0x0b, 0xfe,
  0x09, 0x7f, 0x0a, 0x07, 0x28, 0x8f, 0xb6, 0x0f, 0xcb, 0x7f, 0xc2, 0xfa,
  0x42, 0xf9, 0xed, 0xd8, 0xf6, 0x09, 0x7f, 0xee, 0xfc, 0x06, 0xf9, 0x81,
  0xf0, 0x12, 0xf8, 0xfd, 0xc9, 0xd2, 0x43, 0xf0, 0x2e, 0x3c, 0xf9, 0x81,
  0xe1, 0xf9, 0x0d, 0xcf, 0xf2, 0xff, 0x81, 0xb6, 0x33, 0xfd, 0xfa, 0x7f,
  0xf1, 0xf8, 0x2e, 0x1d, 0x7e, 0xf8, 0x81, 0xe6, 0x2a, 0xd2, 0x02, 0x02,
  0xd9, 0x34, 0x16, 0x31, 0x05, 0x0f, 0x81, 0xac, 0x7f, 0x0c, 0xa9, 0x14,
  0x14, 0xff, 0x17, 0x0d, 0x06, 0x35, 0xe5, 0x81, 0xe6, 0x13, 0xff, 0x05,
  0x7f, 0xf5, 0x9d, 0xf6, 0xa7, 0x29, 0x03, 0x52, 0x81, 0xef, 0xea, 0x13,
  0x41, 0x07, 0xfe, 0x21, 0x05, 0x91, 0xe2, 0x81, 0xf8, 0x15, 0xe5, 0xee,
  0x0e, 0x7f, 0x72, 0x37, 0x21, 0xa1, 0x76, 0x2c, 0xb9, 0xfd, 0x82, 0x38,
  0x03, 0xe0, 0x47, 0x7f, 0xfb, 0x8e, 0x05, 0x81, 0xf9, 0x08, 0xf8, 0xeb,
  0x09, 0x81, 0x0c, 0xa1, 0x08, 0x0e, 0x0e, 0xdc, 0xe9, 0xc7, 0x22, 0x9a,
  0x21, 0xc4, 0x7f, 0x51, 0x81, 0x05, 0x39, 0x13, 0xb2, 0xf8, 0x2e, 0x4f,
  0x81, 0xfc, 0x73, 0xe3, 0xb4, 0x0c, 0xd1, 0x33, 0x7f, 0x13, 0xfb, 0x03,
  0xac, 0x11, 0x00, 0x16, 0xcb, 0x0e, 0x4e, 0x42, 0x4f, 0xb3, 0x1b, 0x7f,
  0x81, 0xf6, 0x51, 0xf6, 0xca, 0xf6, 0x0a, 0xed, 0x0f, 0x28, 0x1a, 0xfd,
  0x18, 0xef, 0x7f, 0x1a, 0x7f, 0xf9, 0xca, 0x09, 0x2c, 0x03, 0x0b, 0xef,
  0xef, 0x81, 0x2d, 0xed, 0x0f, 0xff, 0xfc, 0xf0, 0x0d, 0x63, 0x7f, 0xe6,
  0x3d, 0x99, 0x3d, 0x0c, 0x09, 0xfa, 0xfd, 0x6f, 0x07, 0x81, 0xfd, 0xfe,
  0x7f, 0xd6, 0x2f, 0xf5, 0xc2, 0x5f, 0x00, 0x07, 0x0e, 0x7f, 0xf1, 0x66,
  0x08, 0x61, 0x19, 0x21, 0xff, 0x42, 0x0a, 0xfe, 0x17, 0xf6, 0x7f, 0x57,
  0x0e, 0xd6, 0xff, 0xff, 0x04, 0x00, 0x00, 0x00, 0xc0, 0x00, 0x00, 0x00,
  0xb1, 0x2e, 0x00, 0x00, 0x4b, 0x0f, 0x00, 0x00, 0x6d, 0x07, 0x00, 0x00,
  0x15, 0x0e, 0x00, 0x00, 0xf1, 0x14, 0x00, 0x00, 0xb8, 0x16, 0x00, 0x00,
  0xde, 0xef, 0xff, 0xff, 0x46, 0x10, 0x00, 0x00, 0xc9, 0x0b, 0x00, 0x00,
  0x31, 0xf4, 0xff, 0xff, 0x75, 0xf4, 0xff, 0xff, 0x04, 0x11, 0x00, 0x00,
  0xb9, 0xee, 0xff, 0xff, 0x09, 0xed, 0xff, 0xff, 0xb9, 0x24, 0x00, 0x00,
  0xb8, 0x09, 0x00, 0x00, 0xf6, 0xf8, 0xff, 0xff, 0xff, 0x07, 0x00, 0x00,
  0x1c, 0xf9, 0xff, 0xff, 0x3e, 0x11, 0x00, 0x00, 0x02, 0x07, 0x00, 0x00,
  0xfc, 0x1b, 0x00, 0x00, 0xc3, 0x03, 0x00, 0x00, 0xf5, 0xf8, 0xff, 0xff,
  0x45, 0xf8, 0xff, 0xff, 0x6e, 0xe8, 0xff, 0xff, 0xda, 0x0b, 0x00, 0x00,
  0xd1, 0xf5, 0xff, 0xff, 0x69, 0x0e, 0x00, 0x00, 0xe6, 0x1d, 0x00, 0x00,
  0x52, 0xfa, 0xff, 0xff, 0x80, 0xff, 0xff, 0xff, 0x2b, 0x1c, 0x00, 0x00,
  0x76, 0x2b, 0x00, 0x00, 0x9b, 0x25, 0x00, 0x00, 0x37, 0x0c, 0x00, 0x00,
  0xc7, 0x1f, 0x00, 0x00, 0xd9, 0xeb, 0xff, 0xff, 0x4b, 0xfe, 0xff, 0xff,
  0xc9, 0x14, 0x00, 0x00, 0x64, 0xf7, 0xff, 0xff, 0xca, 0xec, 0xff, 0xff,
  0x61, 0x12, 0x00, 0x00, 0x57, 0x17, 0x00, 0x00, 0x2d, 0x01, 0x00, 0x00,
  0x54, 0xe8, 0xff, 0xff, 0x9e, 0xcf, 0xff, 0xff, 0x02, 0x07, 0x00, 0x00,
  0xda, 0xd6, 0xff, 0xff, 0x04, 0x00, 0x00, 0x00, 0xb0, 0x01, 0x00, 0x00,
  0x04, 0x8d, 0xb8, 0x35, 0xa6, 0x06, 0xed, 0xbc, 0x35, 0x16, 0x2b, 0xe0,
  0xe1, 0x01, 0x92, 0xbd, 0x39, 0xb1, 0x29, 0xdb, 0xd5, 0xa1, 0xdb, 0xb3,
  0x6c, 0x4a, 0x07, 0x81, 0x17, 0xa7, 0x3b, 0x1c, 0x2b, 0x30, 0x50, 0x27,
  0x46, 0x53, 0xf0, 0x15, 0xba, 0xd5, 0xfb, 0x33, 0xf6, 0xed, 0xe2, 0x9e,
  0x5c, 0xde, 0x2c, 0x39, 0x81, 0x29, 0xcf, 0x0f, 0x41, 0x62, 0x7f, 0x36,
  0xdb, 0xca, 0x81, 0x81, 0x5e, 0xf1, 0x7f, 0xac, 0x81, 0x7f, 0x7f, 0x1f,
  0x7f, 0x5d, 0x22, 0xb6, 0xb8, 0xc6, 0x9d, 0x7f, 0x4a, 0x7f, 0x7f, 0x6d,
  0xf5, 0x38, 0x24, 0xa4, 0xb9, 0xa6, 0x22, 0xd0, 0xe5, 0x2d, 0xf5, 0x43,
  0x49, 0xf7, 0x54, 0x30, 0xa8, 0x05, 0xe6, 0x01, 0x17, 0x3c, 0x68, 0xd8,
  0xd1, 0x0f, 0xac, 0xcf, 0x12, 0x47, 0x43, 0xda, 0xbc, 0xee, 0xa8, 0x54,
  0x27, 0xf0, 0x14, 0xe5, 0xf7, 0xaa, 0x21, 0x0d, 0x27, 0x63, 0x09, 0x44,
  0x05, 0xeb, 0x43, 0xe5, 0xd8, 0x12, 0x09, 0x0b, 0xfd, 0x6b, 0xf3, 0xf3,
  0x2c, 0x81, 0x7f, 0x5a, 0x5a, 0xb1, 0xb3, 0x81, 0x7d, 0x4d, 0x61, 0xc9,
  0xf9, 0xf0, 0x94, 0xcc, 0x40, 0x7f, 0x2a, 0xb0, 0xc6, 0x72, 0x15, 0x81,
  0x60, 0x7f, 0x7b, 0xb6, 0xfc, 0x8f, 0xcd, 0x33, 0x5f, 0x07, 0x61, 0x3c,
  0x16, 0x7f, 0x2c, 0x04, 0x0e, 0xd6, 0x4c, 0x65, 0x90, 0x02, 0x85, 0x66,
  0x7f, 0xef, 0x12, 0x7f, 0x7e, 0x81, 0x81, 0x06, 0x7f, 0x7f, 0x6b, 0x27,
  0xc2, 0x81, 0xce, 0xd3, 0x7f, 0x38, 0x7f, 0x81, 0xbf, 0x83, 0xa4, 0x47,
  0x12, 0x78, 0x7f, 0xa6, 0x81, 0x9d, 0x7f, 0x5d, 0x7f, 0x1d, 0x64, 0x7f,
  0xff, 0x73, 0x7f, 0x81, 0x11, 0x81, 0x7f, 0xac, 0x81, 0x7f, 0xc0, 0x81,
  0x2c, 0xd5, 0x99, 0x0e, 0x55, 0xc2, 0xd3, 0xf3, 0x13, 0x0f, 0x49, 0xf8,
  0x81, 0x00, 0xca, 0xfe, 0x1a, 0x9b, 0x38, 0xc3, 0xce, 0x0e, 0x43, 0x3a,
  0x03, 0xf6, 0xff, 0xee, 0xce, 0xa3, 0xd9, 0x23, 0x32, 0xfb, 0x2e, 0x66,
  0x0d, 0x38, 0x76, 0xdf, 0x09, 0x0a, 0x4f, 0xf9, 0xae, 0x02, 0xab, 0x16,
  0x41, 0x93, 0xfc, 0x29, 0xfd, 0x3a, 0xc1, 0xc9, 0x07, 0x67, 0x45, 0x36,
  0x01, 0x0e, 0xd9, 0xdd, 0x1b, 0xd1, 0xf4, 0xb1, 0xdd, 0x0e, 0xfb, 0xb6,
  0x18, 0x48, 0x49, 0xe0, 0x13, 0xbd, 0x07, 0x06, 0x4c, 0xa9, 0x2f, 0x1a,
  0x81, 0x34, 0xd2, 0xfd, 0x43, 0xd8, 0x4d, 0x81, 0xd4, 0xf2, 0x8c, 0xe4,
  0x3a, 0xf3, 0xfa, 0x47, 0x00, 0x5a, 0xce, 0xf7, 0x0e, 0x2a, 0x4a, 0x81,
  0xd7, 0xc4, 0xfd, 0xde, 0x0d, 0xe5, 0x05, 0x90, 0xe1, 0xf1, 0xed, 0x15,
  0x0a, 0x4d, 0x49, 0xbf, 0x95, 0x81, 0xda, 0x0b, 0x4f, 0xa6, 0x33, 0x03,
  0x18, 0x33, 0x51, 0xac, 0x7f, 0xc9, 0x6f, 0x49, 0xbf, 0x13, 0x81, 0x01,
  0xdb, 0xd5, 0x1d, 0x02, 0xec, 0x28, 0xff, 0xf1, 0x02, 0xc3, 0xf2, 0x29,
  0xda, 0x03, 0xf2, 0xe8, 0xfb, 0x0a, 0x1d, 0xf5, 0xd3, 0x1d, 0x11, 0x08,
  0xee, 0x18, 0x18, 0xec, 0xe7, 0xea, 0x0f, 0xe3, 0x28, 0xca, 0x04, 0x22,
  0x07, 0x9e, 0x3d, 0xf9, 0x4e, 0x0e, 0x41, 0xf4, 0x00, 0xe5, 0xcb, 0xf3,
  0x96, 0xd8, 0xff, 0xff, 0x04, 0x00, 0x00, 0x00, 0xc0, 0x00, 0x00, 0x00,
  0x96, 0xf6, 0xff, 0xff, 0xb7, 0x2f, 0x00, 0x00, 0x9b, 0xe4, 0xff, 0xff,
  0x4d, 0xf2, 0xff, 0xff, 0x15, 0x02, 0x00, 0x00, 0x33, 0x03, 0x00, 0x00,
  0xed, 0x0f, 0x00, 0x00, 0x6c, 0x14, 0x00, 0x00, 0x64, 0x0e, 0x00, 0x00,
  0x56, 0xf1, 0xff, 0xff, 0xee, 0xfa, 0xff, 0xff, 0xb0, 0x00, 0x00, 0x00,
  0x4f, 0x1f, 0x00, 0x00, 0x5f, 0x0c, 0x00, 0x00, 0x35, 0x54, 0x00, 0x00,
  0xea, 0x30, 0x00, 0x00, 0xbf, 0xfc, 0xff, 0xff, 0x7f, 0xff, 0xff, 0xff,
  0xb4, 0x0a, 0x00, 0x00, 0x72, 0x29, 0x00, 0x00, 0xdd, 0x49, 0x00, 0x00,
  0x90, 0xfa, 0xff, 0xff, 0x7a, 0x00, 0x00, 0x00, 0x4b, 0x01, 0x00, 0x00,
  0x35, 0x22, 0x00, 0x00, 0x03, 0x0e, 0x00, 0x00, 0x74, 0x00, 0x00, 0x00,
  0xb2, 0x3c, 0x00, 0x00, 0xbe, 0x17, 0x00, 0x00, 0x28, 0x38, 0x00, 0x00,
  0xed, 0xfd, 0xff, 0xff, 0x37, 0x04, 0x00, 0x00, 0x71, 0xfc, 0xff, 0xff,
  0x63, 0xf1, 0xff, 0xff, 0x8f, 0xea, 0xff, 0xff, 0x3e, 0x04, 0x00, 0x00,
  0xf6, 0xfe, 0xff, 0xff, 0x8b, 0x00, 0x00, 0x00, 0x4d, 0xff, 0xff, 0xff,
  0x77, 0x18, 0x00, 0x00, 0x0b, 0x0a, 0x00, 0x00, 0x05, 0x10, 0x00, 0x00,
  0x80, 0xe5, 0xff, 0xff, 0x22, 0x05, 0x00, 0x00, 0x61, 0xf6, 0xff, 0xff,
  0xa7, 0xfe, 0xff, 0xff, 0xac, 0x22, 0x00, 0x00, 0x15, 0x0d, 0x00, 0x00,
  0x62, 0xd9, 0xff, 0xff, 0x04, 0x00, 0x00, 0x00, 0x80, 0x01, 0x00, 0x00,
  0x2f, 0x67, 0xeb, 0x37, 0x08, 0xfd, 0xf0, 0x07, 0x34, 0xce, 0x06, 0xe2,
  0xf7, 0x10, 0xdd, 0xda, 0xfa, 0xeb, 0x22, 0x13, 0xcd, 0xe8, 0xe5, 0x04,
  0x06, 0x07, 0x16, 0xfc, 0x15, 0xf7, 0xef, 0x0a, 0xcb, 0xfd, 0x6d, 0x81,
  0xe3, 0x13, 0xdb, 0x67, 0xd3, 0x10, 0x05, 0xf4, 0xfc, 0x22, 0x22, 0xd7,
  0xf2, 0xd2, 0x2b, 0x39, 0xf6, 0xed, 0xfc, 0xf2, 0x31, 0xb7, 0x5a, 0x3f,
  0x00, 0x04, 0xb5, 0x92, 0x71, 0x3d, 0x0e, 0x0c, 0xa8, 0x32, 0x30, 0x06,
  0xad, 0x81, 0xe1, 0xe0, 0xf6, 0xa8, 0x32, 0xcd, 0x09, 0xea, 0x0b, 0xf1,
  0x10, 0xe3, 0x51, 0xcb, 0xe3, 0x1a, 0xb6, 0x1e, 0x4c, 0x35, 0x2a, 0x2c,
  0x50, 0xe7, 0xfd, 0xe4, 0x5f, 0x65, 0x3b, 0x43, 0xdf, 0x02, 0x11, 0xe6,
  0xfe, 0x27, 0x3b, 0x17, 0xe3, 0xed, 0x35, 0xcf, 0xde, 0xd0, 0xdf, 0x33,
  0xa8, 0x97, 0x73, 0x0f, 0x2f, 0xb0, 0xbf, 0x10, 0x9e, 0x5b, 0x7f, 0x18,
  0x00, 0xfe, 0x0a, 0x12, 0x14, 0x41, 0x10, 0xbb, 0xf6, 0x12, 0x37, 0xdd,
  0x48, 0xe0, 0x0d, 0xfa, 0x72, 0x72, 0x16, 0x2a, 0xe2, 0xe3, 0x04, 0x14,
  0x85, 0x2e, 0x2e, 0x15, 0xfc, 0xfc, 0x3c, 0x81, 0x98, 0x04, 0x0b, 0x33,
  0x0e, 0xeb, 0x33, 0x24, 0x25, 0xbf, 0xfd, 0xe0, 0x8b, 0x2f, 0xb7, 0x84,
  0x0c, 0xdd, 0x1f, 0xbd, 0x27, 0xa8, 0x9b, 0xe1, 0xbc, 0x23, 0xe3, 0x40,
  0x1e, 0x2b, 0xe2, 0xde, 0xeb, 0xf2, 0xf0, 0xf9, 0x0e, 0x09, 0x00, 0xf2,
  0xeb, 0xea, 0x45, 0x35, 0xe0, 0xde, 0xdc, 0x39, 0x29, 0xf3, 0xf5, 0x02,
  0xd7, 0xe1, 0xfb, 0x24, 0xf8, 0x1b, 0xea, 0x24, 0xd9, 0xff, 0x14, 0x81,
  0xea, 0x27, 0x1a, 0x35, 0x1c, 0xf6, 0xf9, 0xe9, 0x2b, 0x03, 0x56, 0xeb,
  0x3e, 0x30, 0xa4, 0x39, 0x0a, 0x00, 0x02, 0x20, 0xb8, 0xc1, 0xba, 0xf7,
  0x1d, 0x14, 0x1d, 0x1d, 0x29, 0xca, 0x3a, 0x7f, 0xb5, 0xd9, 0xd2, 0x3d,
  0x0c, 0xe5, 0xe4, 0x54, 0x1f, 0x2a, 0xc0, 0x05, 0x02, 0xee, 0xd6, 0xfb,
  0xf8, 0x13, 0xe2, 0x36, 0xfd, 0x4b, 0x04, 0xd3, 0x6b, 0x19, 0x21, 0xc6,
  0xdf, 0xb6, 0x1c, 0xd1, 0xd9, 0xd8, 0xbf, 0xbe, 0xe7, 0xc9, 0x8c, 0x25,
  0xbe, 0xd6, 0x54, 0x51, 0x81, 0xfe, 0x17, 0xe5, 0x06, 0x40, 0x49, 0x0b,
  0xef, 0xf6, 0xc0, 0x56, 0xb2, 0xd9, 0x25, 0x32, 0x0b, 0xc3, 0x4e, 0x1c,
  0x16, 0x23, 0xe6, 0xa7, 0xe8, 0xbc, 0xde, 0x10, 0xd0, 0xdc, 0xff, 0x43,
  0x3f, 0x07, 0xe7, 0x29, 0x15, 0x08, 0x0c, 0x05, 0x46, 0xfc, 0xf3, 0xef,
  0x3a, 0x0d, 0xfd, 0xf5, 0xd7, 0xfd, 0xde, 0x01, 0x06, 0xe3, 0xec, 0xe2,
  0x40, 0x81, 0x0e, 0xf7, 0xf2, 0x5e, 0xe4, 0x1e, 0xac, 0x0a, 0xb8, 0xd4,
  0xf1, 0x0a, 0x17, 0x0f, 0x10, 0x41, 0xdf, 0xe6, 0xdb, 0x14, 0x23, 0xde,
  0xee, 0xda, 0xff, 0xff, 0x04, 0x00, 0x00, 0x00, 0x20, 0x00, 0x00, 0x00,
  0x86, 0xdb, 0xff, 0xff, 0xcb, 0x11, 0x00, 0x00, 0xf4, 0xc4, 0xff, 0xff,
  0x9e, 0x28, 0x00, 0x00, 0xaf, 0xfd, 0xff, 0xff, 0x3b, 0xef, 0xff, 0xff,
  0x46, 0x36, 0x00, 0x00, 0x69, 0x0d, 0x00, 0x00, 0x1a, 0xdb, 0xff, 0xff,
  0x04, 0x00, 0x00, 0x00, 0x80, 0x01, 0x00, 0x00, 0xcb, 0x38, 0x0a, 0x86,
  0xd1, 0xfb, 0x25, 0x7f, 0x4b, 0xfc, 0x00, 0x13, 0xb0, 0x14, 0x7f, 0x07,
  0xd7, 0x7a, 0xd1, 0xdc, 0xf0, 0x7f, 0xa5, 0x9f, 0x38, 0xbf, 0xad, 0x7f,
  0xc2, 0xe2, 0x02, 0xf6, 0x14, 0xea, 0x1f, 0xd7, 0x81, 0x19, 0x32, 0x16,
  0xf0, 0x39, 0x01, 0xa6, 0x81, 0x00, 0xe1, 0xff, 0x42, 0x0f, 0x25, 0xf6,
  0x7f, 0xe7, 0xd9, 0x85, 0x18, 0x2d, 0x06, 0x7f, 0x18, 0xee, 0x0f, 0x13,
  0x1d, 0x25, 0x20, 0xda, 0x27, 0x7f, 0x21, 0xeb, 0x67, 0x46, 0xf0, 0x1e,
  0xbd, 0xc7, 0x7f, 0x2c, 0x12, 0x46, 0xbe, 0xe4, 0xee, 0x7f, 0x62, 0xac,
  0xf2, 0xe7, 0x81, 0x5b, 0xd5, 0x2e, 0xe2, 0x35, 0xa5, 0xa2, 0x45, 0x45,
  0x08, 0x81, 0xd8, 0x0f, 0x29, 0x19, 0x23, 0x44, 0xbc, 0x7f, 0x21, 0xd1,
  0xce, 0x9e, 0xd1, 0xdf, 0xbe, 0xe3, 0x9f, 0x7f, 0xad, 0x3a, 0x00, 0x06,
  0x78, 0x01, 0x81, 0xd9, 0x64, 0x50, 0x90, 0x90, 0x11, 0x73, 0x7f, 0x20,
  0xa4, 0x65, 0x81, 0x4c, 0xdc, 0xcf, 0x34, 0x9d, 0x29, 0xfa, 0x8f, 0x7f,
  0xfa, 0xd9, 0xdf, 0xc9, 0x75, 0x06, 0x02, 0x47, 0xbc, 0x34, 0x7f, 0x34,
  0x21, 0xca, 0xab, 0x7f, 0x13, 0xd5, 0xeb, 0xcd, 0xfc, 0x4a, 0x7f, 0x89,
  0x37, 0xc8, 0x2e, 0x90, 0xac, 0xda, 0xbd, 0x46, 0xf3, 0x1d, 0xed, 0x7f,
  0x53, 0x19, 0x1d, 0x20, 0x90, 0x7f, 0x24, 0xde, 0xf2, 0xfd, 0x81, 0x44,
  0xe2, 0x2a, 0x34, 0x2f, 0x17, 0xf4, 0xb7, 0x7f, 0x16, 0xf5, 0xfa, 0xfb,
  0xc4, 0x4f, 0x7f, 0x8c, 0xfe, 0x16, 0x31, 0xe5, 0x95, 0x76, 0x7f, 0x0c,
  0x13, 0xed, 0x75, 0x3c, 0xdf, 0x94, 0x13, 0x81, 0xf9, 0x1a, 0xfb, 0xeb,
  0xbc, 0xaf, 0xf7, 0x7f, 0xc9, 0x8c, 0x03, 0x16, 0xdb, 0x2f, 0x7f, 0x00,
  0x0c, 0x15, 0x3a, 0xec, 0xbb, 0x38, 0x49, 0x81, 0xda, 0x10, 0x22, 0x38,
  0xc2, 0x7f, 0x74, 0xa8, 0xe7, 0x08, 0x33, 0x6d, 0x29, 0x7f, 0xe2, 0x4a,
  0x18, 0x1b, 0x97, 0xcd, 0x3e, 0x32, 0x43, 0x97, 0x90, 0x81, 0x5f, 0x9e,
  0x7b, 0xf0, 0x06, 0x78, 0x7f, 0xdf, 0x17, 0x8f, 0x2d, 0x51, 0x7a, 0x81,
  0x19, 0xcd, 0x3a, 0x85, 0xce, 0xc6, 0x4f, 0x5a, 0x07, 0x85, 0x7f, 0xfa,
  0x76, 0xe5, 0x7f, 0x4d, 0x0e, 0x96, 0x6f, 0x24, 0x39, 0xb5, 0xed, 0x04,
  0x81, 0x12, 0x6a, 0x19, 0xc9, 0x11, 0x91, 0x7f, 0xa8, 0x1b, 0xa7, 0x54,
  0x81, 0xd8, 0xb7, 0xf6, 0x59, 0xe4, 0xa8, 0x05, 0xc9, 0x23, 0xf7, 0xc9,
  0x69, 0x30, 0x81, 0xe4, 0x78, 0x56, 0x0c, 0x76, 0xf3, 0x81, 0x2c, 0x50,
  0xe6, 0x18, 0x3f, 0x11, 0xfd, 0x81, 0x05, 0xe5, 0xf1, 0xb3, 0x7f, 0x57,
  0xd6, 0xe6, 0x9e, 0x04, 0x29, 0xaa, 0x81, 0x1a, 0xb5, 0xf8, 0xe4, 0x08,
  0x81, 0xe2, 0x37, 0xdc, 0x2e, 0x05, 0xa8, 0xfe, 0xa6, 0xdc, 0xff, 0xff,
  0x04, 0x00, 0x00, 0x00, 0xc0, 0x00, 0x00, 0x00, 0xef, 0x0e, 0x00, 0x00,
  0x04, 0x08, 0x00, 0x00, 0x0c, 0xb8, 0x00, 0x00, 0x43, 0xf9, 0xff, 0xff,
  0x51, 0xfb, 0xff, 0xff, 0x3c, 0x17, 0x00, 0x00, 0x0b, 0xf7, 0xff, 0xff,
  0xf0, 0x04, 0x00, 0x00, 0x84, 0x0c, 0x00, 0x00, 0xb0, 0xfe, 0xff, 0xff,
  0x29, 0x1e, 0x00, 0x00, 0x06, 0x02, 0x00, 0x00, 0xfb, 0x06, 0x00, 0x00,
  0xb4, 0x0e, 0x00, 0x00, 0xdc, 0x0c, 0x00, 0x00, 0x4c, 0x10, 0x00, 0x00,
  0xc7, 0x0c, 0x00, 0x00, 0xd1, 0x0f, 0x00, 0x00, 0xf4, 0xfc, 0xff, 0xff,
  0x9e, 0x10, 0x00, 0x00, 0x21, 0x02, 0x00, 0x00, 0xf2, 0xff, 0xff, 0xff,
  0x30, 0x05, 0x00, 0x00, 0x8d, 0x36, 0x00, 0x00, 0xc0, 0x73, 0x00, 0x00,
  0x0b, 0x09, 0x00, 0x00, 0xe3, 0x0e, 0x00, 0x00, 0x82, 0xfc, 0xff, 0xff,
  0xb5, 0xff, 0xff, 0xff, 0x2a, 0x1a, 0x00, 0x00, 0x56, 0x11, 0x00, 0x00,
  0x64, 0x0f, 0x00, 0x00, 0x95, 0x1a, 0x00, 0x00, 0x3e, 0x1d, 0x00, 0x00,
  0xc1, 0x16, 0x00, 0x00, 0x01, 0xfe, 0xff, 0xff, 0x16, 0x02, 0x00, 0x00,
  0x4c, 0x05, 0x00, 0x00, 0x34, 0x2c, 0x00, 0x00, 0x00, 0x1f, 0x00, 0x00,
  0x29, 0x01, 0x00, 0x00, 0x3b, 0x2b, 0x00, 0x00, 0x46, 0x33, 0x00, 0x00,
  0x60, 0x0e, 0x00, 0x00, 0x21, 0x13, 0x00, 0x00, 0xc4, 0x05, 0x00, 0x00,
  0xa5, 0x08, 0x00, 0x00, 0x7e, 0x01, 0x00, 0x00, 0x72, 0xdd, 0xff, 0xff,
  0x04, 0x00, 0x00, 0x00, 0xb0, 0x01, 0x00, 0x00, 0x18, 0xc4, 0x29, 0xe1,
  0x54, 0xf3, 0x01, 0xf5, 0xcb, 0x3f, 0x1d, 0xf5, 0x62, 0x0e, 0x51, 0xcd,
  0xe0, 0x27, 0x21, 0xf6, 0x01, 0xf7, 0xc1, 0x0a, 0x81, 0x2c, 0x5e, 0xbb,
  0xf5, 0x11, 0xff, 0xf9, 0xc6, 0xf7, 0x11, 0x1a, 0x50, 0x16, 0x21, 0xfe,
  0x4b, 0x01, 0xf7, 0xf3, 0x81, 0xd3, 0xb6, 0xdd, 0x12, 0x92, 0xb1, 0xfd,
  0xd2, 0xfb, 0x2c, 0x12, 0x2b, 0x03, 0x4f, 0x7f, 0x10, 0x24, 0xae, 0x7f,
  0xc7, 0x24, 0x17, 0xde, 0xc3, 0x81, 0xa1, 0x43, 0xb7, 0xb7, 0x20, 0x7f,
  0x24, 0x11, 0x7f, 0xff, 0x81, 0x90, 0xca, 0x1f, 0x7f, 0x81, 0x6f, 0x01,
  0x41, 0xec, 0xf0, 0x00, 0xd2, 0xb7, 0x45, 0xfd, 0x0a, 0xdb, 0xe3, 0x7f,
  0x10, 0x10, 0xd0, 0x08, 0xbb, 0xe3, 0xf1, 0xdd, 0x28, 0xfc, 0xa6, 0xcb,
  0x03, 0x27, 0x16, 0x03, 0xfd, 0xed, 0xe9, 0x04, 0xfa, 0xc1, 0xd6, 0x51,
  0xf7, 0x2a, 0xcc, 0xfa, 0x0b, 0x40, 0x23, 0x04, 0x08, 0x3b, 0x8b, 0xf9,
  0xe2, 0xf1, 0xfe, 0x2b, 0x8c, 0xe5, 0xc1, 0x33, 0xa3, 0xba, 0x7f, 0xf9,
  0xf9, 0xc9, 0x4f, 0x15, 0x08, 0x7e, 0x2d, 0x0d, 0x0b, 0x2f, 0x7f, 0x14,
  0xd4, 0x81, 0x7f, 0x30, 0x70, 0xf9, 0x36, 0xd4, 0xe2, 0xf7, 0x5b, 0xbe,
  0x17, 0x2b, 0x30, 0x31, 0x19, 0xb6, 0x0d, 0x7f, 0xf8, 0x3c, 0xdd, 0x96,
  0x17, 0x4a, 0xf3, 0x8e, 0x11, 0x81, 0xa5, 0x15, 0x7f, 0xbe, 0xab, 0xc4,
  0xde, 0x81, 0x7f, 0x7f, 0x7f, 0x15, 0x7f, 0xd3, 0x81, 0x03, 0xd9, 0xcc,
  0x7f, 0xc3, 0x7d, 0x7f, 0x7f, 0x54, 0x7f, 0x81, 0xf7, 0xe8, 0x7e, 0xf7,
  0x7f, 0x5f, 0xa0, 0x7f, 0x15, 0xbc, 0x7f, 0x93, 0xb1, 0x60, 0x9f, 0x70,
  0x81, 0x81, 0x7f, 0x81, 0x70, 0x85, 0x7f, 0x9b, 0xf0, 0x91, 0xff, 0x39,
  0xcb, 0x01, 0xf0, 0x1e, 0xc9, 0x81, 0xda, 0x33, 0x3a, 0x0c, 0xae, 0x2a,
  0x05, 0xfd, 0xfa, 0x13, 0xf3, 0xd3, 0x1b, 0xda, 0x0d, 0x0f, 0x81, 0x2b,
  0xb5, 0x1b, 0x69, 0x10, 0xe2, 0xd7, 0xf8, 0xbf, 0x32, 0x21, 0x7f, 0x08,
  0xe8, 0x26, 0xd9, 0x07, 0x27, 0xea, 0xa3, 0x7f, 0xfa, 0x5f, 0x16, 0xcc,
  0x7f, 0x00, 0xf2, 0x04, 0xfb, 0x16, 0xfe, 0xf6, 0x12, 0x33, 0x69, 0xfa,
  0x8b, 0xd5, 0x1c, 0xdb, 0x18, 0x2f, 0x0a, 0x0a, 0xe6, 0xf9, 0x10, 0xff,
  0xc4, 0x81, 0x00, 0x02, 0xfe, 0xed, 0xe7, 0x18, 0xaa, 0x49, 0x16, 0x60,
  0x09, 0x08, 0xff, 0xed, 0x25, 0xfc, 0xd4, 0xe8, 0xff, 0x4b, 0xd5, 0xec,
  0x20, 0xca, 0x20, 0x20, 0x33, 0x12, 0x0e, 0xd8, 0x10, 0x7f, 0xa1, 0xa0,
  0xbe, 0xcb, 0x6f, 0xc2, 0xed, 0x6d, 0xe1, 0x2e, 0x43, 0x7f, 0x26, 0x7d,
  0xb6, 0x82, 0xe8, 0x09, 0x47, 0x81, 0xab, 0xf8, 0xb3, 0xc1, 0xe7, 0x81,
  0x45, 0xdd, 0xcc, 0x3b, 0x56, 0x14, 0xed, 0x0d, 0x0f, 0x7f, 0xec, 0x13,
  0x15, 0x03, 0xe5, 0x14, 0xee, 0xe5, 0xff, 0xf3, 0x21, 0xfc, 0x94, 0xf1,
  0xc9, 0xf6, 0xf6, 0xe9, 0xf4, 0x29, 0xee, 0xf7, 0xed, 0x29, 0xee, 0xeb,
  0x18, 0xaa, 0x1a, 0x00, 0xef, 0x23, 0xf8, 0xeb, 0xb6, 0x4d, 0x1b, 0xfc,
  0xc4, 0xf5, 0x01, 0xf0, 0x04, 0xfc, 0xd7, 0x1c, 0x2e, 0xdf, 0xff, 0xff,
  0x04, 0x00, 0x00, 0x00, 0xc0, 0x00, 0x00, 0x00, 0xf5, 0xf6, 0xff, 0xff,
  0xde, 0x0f, 0x00, 0x00, 0x33, 0x0f, 0x00, 0x00, 0xd2, 0x00, 0x00, 0x00,
  0x9b, 0x03, 0x00, 0x00, 0x0b, 0x2d, 0x00, 0x00, 0x55, 0xfd, 0xff, 0xff,
  0x69, 0xe9, 0xff, 0xff, 0x7b, 0xec, 0xff, 0xff, 0x83, 0xf8, 0xff, 0xff,
  0x9c, 0xd4, 0xff, 0xff, 0xf6, 0x00, 0x00, 0x00, 0x8b, 0xfc, 0xff, 0xff,
  0x75, 0xea, 0xff, 0xff, 0xa5, 0x00, 0x00, 0x00, 0x76, 0x0d, 0x00, 0x00,
  0xfe, 0xff, 0xff, 0xff, 0x0a, 0x27, 0x00, 0x00, 0xc9, 0xe6, 0xff, 0xff,
  0x2a, 0xf9, 0xff, 0xff, 0xf2, 0xf5, 0xff, 0xff, 0x52, 0xfb, 0xff, 0xff,
  0x33, 0xfe, 0xff, 0xff, 0x81, 0x0b, 0x00, 0x00, 0xf6, 0x35, 0x00, 0x00,
  0xc6, 0xfd, 0xff, 0xff, 0x4a, 0xe7, 0xff, 0xff, 0x65, 0xfc, 0xff, 0xff,
  0xf8, 0x00, 0x00, 0x00, 0x42, 0x0c, 0x00, 0x00, 0x29, 0xee, 0xff, 0xff,
  0x45, 0xe9, 0xff, 0xff, 0xbb, 0x0d, 0x00, 0x00, 0x21, 0x30, 0x00, 0x00,
  0x55, 0xfe, 0xff, 0xff, 0x94, 0x38, 0x00, 0x00, 0x9f, 0x0b, 0x00, 0x00,
  0x2c, 0xfa, 0xff, 0xff, 0x03, 0xf8, 0xff, 0xff, 0xe0, 0x01, 0x00, 0x00,
  0x7d, 0xf1, 0xff, 0xff, 0xf8, 0x0b, 0x00, 0x00, 0x5e, 0x08, 0x00, 0x00,
  0xae, 0x1d, 0x00, 0x00, 0x9e, 0xfe, 0xff, 0xff, 0xe9, 0x3d, 0x00, 0x00,
  0x31, 0x15, 0x00, 0x00, 0x5b, 0xf0, 0xff, 0xff, 0xfa, 0xdf, 0xff, 0xff,
  0x04, 0x00, 0x00, 0x00, 0x80, 0x01, 0x00, 0x00, 0x24, 0xd3, 0x54, 0x5d,
  0x2c, 0xe8, 0x11, 0x14, 0xee, 0x2f, 0xd0, 0x0f, 0xcf, 0xb1, 0x1d, 0xf4,
  0x83, 0x3c, 0xc9, 0x46, 0xc9, 0x5d, 0xf1, 0xf4, 0x03, 0xb1, 0x4e, 0xea,
  0xed, 0x1e, 0xff, 0x6b, 0xdc, 0x01, 0xdd, 0xae, 0xc3, 0xdb, 0xeb, 0xeb,
  0xea, 0x25, 0x81, 0x08, 0x21, 0x16, 0x17, 0x3e, 0xc0, 0xd7, 0x40, 0x06,
  0xfa, 0x27, 0xc9, 0xef, 0x2e, 0xe8, 0xf0, 0xed, 0xe5, 0x18, 0x07, 0x0d,
  0xf0, 0x1d, 0xfe, 0x0a, 0xca, 0xfb, 0xb8, 0xf5, 0x19, 0xd6, 0xef, 0xdc,
  0x18, 0xbb, 0x0a, 0x81, 0xfc, 0xd5, 0x9e, 0xc5, 0xc3, 0xb2, 0xf2, 0x09,
  0x34, 0xe7, 0x50, 0x99, 0xcd, 0xf6, 0xe6, 0x01, 0xcb, 0x73, 0xff, 0x49,
  0x19, 0x14, 0x10, 0xdb, 0x3d, 0xb8, 0x2e, 0x52, 0x79, 0x02, 0x2a, 0xcf,
  0x4a, 0xf5, 0x07, 0x2c, 0xea, 0x30, 0x16, 0x7c, 0x95, 0xce, 0x16, 0xe1,
  0xfe, 0x45, 0xe6, 0x9d, 0xf6, 0x08, 0x06, 0xad, 0xd6, 0x0a, 0xe0, 0xe2,
  0x66, 0x90, 0x1a, 0x04, 0x0f, 0x81, 0xf3, 0x0e, 0x2e, 0x0f, 0xb9, 0x2c,
  0x55, 0xc2, 0xf6, 0xa3, 0xd7, 0xe3, 0xb7, 0xa8, 0xd8, 0x7f, 0xf4, 0xfe,
  0xbd, 0xed, 0xaf, 0xc2, 0x0f, 0x55, 0xe7, 0xc3, 0x5e, 0x19, 0x31, 0xc3,
  0x0c, 0x9a, 0x37, 0xc2, 0x2d, 0x46, 0x3e, 0xcb, 0xc7, 0x08, 0x07, 0x11,
  0x09, 0x25, 0xcc, 0x1f, 0xea, 0x25, 0xf2, 0x26, 0xcd, 0x0d, 0xca, 0x26,
  0x56, 0xd5, 0x23, 0xc1, 0xd4, 0xfa, 0xdb, 0x1e, 0xbd, 0xea, 0xed, 0xbe,
  0x1a, 0x2d, 0xe8, 0xd1, 0xda, 0x20, 0xd4, 0xc1, 0x1e, 0x0b, 0x12, 0xc9,
  0x35, 0xd5, 0xc9, 0x41, 0xfb, 0x32, 0xd8, 0xab, 0xe5, 0xae, 0xde, 0x05,
  0x38, 0xcb, 0x7f, 0x2d, 0x26, 0x69, 0xc6, 0xc8, 0x28, 0xed, 0x52, 0x04,
  0xfa, 0x13, 0x3a, 0x21, 0x7f, 0x01, 0x50, 0xeb, 0x2f, 0x55, 0x0e, 0xa7,
  0xec, 0x1f, 0x13, 0xbc, 0xbd, 0xb5, 0x01, 0x31, 0x15, 0xea, 0x1b, 0x2f,
  0xe3, 0xe0, 0x16, 0xf0, 0xdd, 0x41, 0xce, 0x36, 0x3a, 0xff, 0xeb, 0xbc,
  0xd9, 0x4b, 0x17, 0x2a, 0xf4, 0x06, 0x46, 0xfb, 0xd8, 0xc1, 0x0b, 0x10,
  0x3c, 0xf5, 0xe6, 0x12, 0xac, 0xf2, 0x42, 0x13, 0x4b, 0x3b, 0xe0, 0x29,
  0x4b, 0x81, 0xbf, 0xcd, 0xdb, 0xd5, 0x94, 0x25, 0xa6, 0x4c, 0xb7, 0xe6,
  0xfb, 0xb1, 0x3f, 0xc6, 0x72, 0x2e, 0x85, 0x05, 0x9f, 0x12, 0x57, 0xe6,
  0x43, 0xa1, 0x0c, 0xa3, 0x85, 0x16, 0xa8, 0x0d, 0xe8, 0xe3, 0xe3, 0xd8,
  0x0e, 0x59, 0xf0, 0xf9, 0xf6, 0xd5, 0x81, 0x9a, 0x3c, 0x22, 0xcd, 0xd0,
  0xd5, 0x18, 0x45, 0x02, 0xe4, 0x9d, 0x2f, 0xfa, 0x63, 0xe8, 0xa1, 0x4b,
  0xcb, 0xf6, 0xdd, 0xad, 0xc3, 0x3f, 0x1f, 0x5e, 0x30, 0xc9, 0xf6, 0xd3,
  0xea, 0x00, 0x1f, 0xf4, 0xf8, 0xdf, 0xf0, 0xd3, 0x86, 0xe1, 0xff, 0xff,
  0x04, 0x00, 0x00, 0x00, 0x20, 0x00, 0x00, 0x00, 0xec, 0x25, 0x00, 0x00,
  0xbf, 0x3e, 0x00, 0x00, 0xc5, 0x17, 0x00, 0x00, 0x99, 0x15, 0x00, 0x00,
  0x08, 0x10, 0x00, 0x00, 0xbd, 0xd7, 0xff, 0xff, 0xcf, 0x30, 0x00, 0x00,
  0xb1, 0x02, 0x00, 0x00, 0xb2, 0xe1, 0xff, 0xff, 0x04, 0x00, 0x00, 0x00,
  0x80, 0x01, 0x00, 0x00, 0xfc, 0x37, 0x8e, 0xf4, 0xdc, 0x50, 0x81, 0x41,
  0xf7, 0xc9, 0x81, 0xf0, 0xfd, 0xd7, 0x7f, 0xab, 0x81, 0xbc, 0xc5, 0xbf,
  0xcb, 0x5a, 0x82, 0xff, 0xbb, 0xe4, 0x0b, 0xf8, 0xf1, 0x9a, 0x81, 0xf6,
  0xd4, 0x81, 0xcc, 0x2f, 0x32, 0x1e, 0xdd, 0xbf, 0x4f, 0xba, 0x3b, 0x29,
  0x81, 0x30, 0xab, 0x8b, 0x23, 0x81, 0xd6, 0xea, 0xeb, 0x3b, 0xdb, 0xb2,
  0xca, 0x9e, 0xb1, 0xc2, 0x5e, 0x81, 0xf7, 0x12, 0x23, 0x4c, 0x49, 0x3b,
  0x20, 0xbd, 0xfc, 0x7f, 0xd1, 0xc8, 0xb5, 0x06, 0x31, 0xf7, 0x7f, 0x00,
  0xe1, 0x22, 0x96, 0x2c, 0x27, 0x36, 0x78, 0x81, 0xf8, 0xdb, 0xd1, 0xf8,
  0x81, 0x16, 0x0a, 0x30, 0x4d, 0x2e, 0xc4, 0x25, 0xdc, 0x7f, 0x32, 0x0d,
  0xbe, 0xf4, 0x2e, 0xe7, 0x16, 0x81, 0x02, 0x5a, 0xb2, 0xc8, 0x00, 0x1c,
  0x19, 0x55, 0x81, 0x89, 0x35, 0x5d, 0x36, 0x2e, 0xa7, 0x05, 0x7f, 0xd3,
  0xee, 0xcd, 0x26, 0x74, 0xe4, 0xc3, 0x1f, 0x81, 0xce, 0x7f, 0x32, 0xf3,
  0xd3, 0xe8, 0xa4, 0x95, 0x5e, 0x7f, 0x9a, 0xcd, 0x44, 0x5c, 0xbd, 0xd1,
  0xda, 0x32, 0xdf, 0xff, 0x81, 0x11, 0xde, 0xc4, 0x81, 0x0a, 0x06, 0x03,
  0x21, 0x13, 0x7c, 0x34, 0xdd, 0xfa, 0x21, 0x19, 0xdb, 0xb0, 0x81, 0x0b,
  0x0d, 0xf0, 0xee, 0xd9, 0x81, 0x0a, 0x0d, 0x40, 0x55, 0x03, 0xf0, 0x02,
  0x7f, 0x4e, 0xa6, 0x5b, 0x7f, 0x0d, 0xeb, 0x07, 0xba, 0x0f, 0x13, 0xe7,
  0x25, 0x84, 0x37, 0x7f, 0xce, 0x86, 0xfc, 0x51, 0x16, 0x74, 0xfd, 0x61,
  0x7f, 0xd9, 0x1e, 0xea, 0x8c, 0x68, 0x3c, 0xef, 0x7f, 0xb2, 0xec, 0x51,
  0xb0, 0xb4, 0xbb, 0xd4, 0x69, 0x81, 0xfe, 0xef, 0xbb, 0xdd, 0x14, 0x35,
  0x7f, 0xb5, 0x99, 0x63, 0x7f, 0x26, 0xc3, 0xad, 0xba, 0xb2, 0xb4, 0xb9,
  0x2b, 0x0e, 0x42, 0x4e, 0x81, 0x05, 0x2f, 0xfc, 0x6f, 0x28, 0x40, 0x42,
  0xeb, 0xcf, 0x7f, 0x41, 0x7f, 0x2a, 0xb1, 0x05, 0x85, 0xa9, 0x33, 0x40,
  0x38, 0xfb, 0x05, 0x15, 0xdb, 0x7f, 0xf5, 0xa4, 0x73, 0xfa, 0x0b, 0xe2,
  0x0c, 0x81, 0x0b, 0x5b, 0xe5, 0xbe, 0x4d, 0xb5, 0xe3, 0xdc, 0x40, 0x81,
  0x4c, 0xb8, 0x2d, 0x33, 0x7a, 0xeb, 0x0e, 0x81, 0x52, 0x7f, 0xff, 0xeb,
  0xef, 0x13, 0x15, 0x4c, 0xfd, 0x16, 0xc0, 0x2f, 0xf9, 0xd9, 0xa8, 0x7f,
  0xea, 0xd9, 0xfb, 0xdc, 0x20, 0x81, 0x0a, 0x3a, 0xe4, 0x33, 0x81, 0xdc,
  0x5c, 0x77, 0x3d, 0x84, 0xeb, 0xd5, 0xa3, 0x14, 0x45, 0x7f, 0x19, 0x52,
  0xe0, 0x04, 0xdd, 0xf5, 0x81, 0xbb, 0x39, 0xe0, 0x81, 0xe5, 0xf5, 0xdf,
  0x4a, 0x4a, 0x8a, 0xcb, 0xe0, 0x44, 0xce, 0x1a, 0x2a, 0xf8, 0xb0, 0x7f,
  0xcc, 0x15, 0x7f, 0xf9, 0xa1, 0xc2, 0xd2, 0x44, 0x9b, 0xad, 0xf2, 0xab,
  0x7f, 0x55, 0xf4, 0x4d, 0x3e, 0xe3, 0xff, 0xff, 0x04, 0x00, 0x00, 0x00,
  0xc0, 0x00, 0x00, 0x00, 0x82, 0xf8, 0xff, 0xff, 0xcc, 0x25, 0x00, 0x00,
  0xc7, 0x18, 0x00, 0x00, 0x54, 0xfc, 0xff, 0xff, 0xdd, 0x00, 0x00, 0x00,
  0xfe, 0x1f, 0x00, 0x00, 0xe4, 0x12, 0x00, 0x00, 0xd3, 0x09, 0x00, 0x00,
  0xa9, 0x45, 0x00, 0x00, 0x3c, 0x04, 0x00, 0x00, 0x6f, 0xf8, 0xff, 0xff,
  0xd2, 0x07, 0x00, 0x00, 0xc3, 0x0f, 0x00, 0x00, 0x42, 0x06, 0x00, 0x00,
  0xbd, 0xfd, 0xff, 0xff, 0xd5, 0x02, 0x00, 0x00, 0x3d, 0xf5, 0xff, 0xff,
  0x67, 0x1d, 0x00, 0x00, 0xfc, 0xea, 0xff, 0xff, 0xd7, 0xfe, 0xff, 0xff,
  0x4e, 0x01, 0x00, 0x00, 0xd5, 0x03, 0x00, 0x00, 0x8c, 0x01, 0x00, 0x00,
  0x20, 0x01, 0x00, 0x00, 0x67, 0x00, 0x00, 0x00, 0xaf, 0x0e, 0x00, 0x00,
  0xa7, 0xf8, 0xff, 0xff, 0xef, 0xf8, 0xff, 0xff, 0x26, 0xfc, 0xff, 0xff,
  0xc1, 0xf2, 0xff, 0xff, 0x76, 0x19, 0x00, 0x00, 0x5e, 0x0e, 0x00, 0x00,
  0x87, 0x03, 0x00, 0x00, 0xce, 0x04, 0x00, 0x00, 0xd2, 0xfd, 0xff, 0xff,
  0x0a, 0x0b, 0x00, 0x00, 0xc5, 0x01, 0x00, 0x00, 0x1a, 0x18, 0x00, 0x00,
  0xad, 0x05, 0x00, 0x00, 0x6c, 0x02, 0x00, 0x00, 0xd7, 0x14, 0x00, 0x00,
  0x6f, 0xf7, 0xff, 0xff, 0x00, 0x02, 0x00, 0x00, 0x8d, 0x04, 0x00, 0x00,
  0x95, 0xf6, 0xff, 0xff, 0xd6, 0xf2, 0xff, 0xff, 0x62, 0x5e, 0x00, 0x00,
  0x18, 0x10, 0x00, 0x00, 0x0a, 0xe4, 0xff, 0xff, 0x04, 0x00, 0x00, 0x00,
  0xb0, 0x01, 0x00, 0x00, 0x44, 0xda, 0xe5, 0xfc, 0x4c, 0x14, 0xe0, 0xa7,
  0x17, 0x25, 0x5c, 0xf6, 0xba, 0x52, 0x7f, 0x7f, 0x35, 0xc2, 0x3a, 0x4a,
  0xd8, 0xc2, 0x1a, 0xf0, 0xf1, 0xf5, 0x52, 0x69, 0x70, 0x3f, 0xb6, 0x44,
  0x75, 0xe6, 0xd6, 0xa7, 0x4e, 0x8c, 0x24, 0xfb, 0x96, 0x3e, 0x24, 0x15,
  0x7f, 0x6e, 0x2e, 0x81, 0x4a, 0xf1, 0xb1, 0x24, 0x7f, 0x32, 0xea, 0xc7,
  0x28, 0x30, 0x7f, 0xa3, 0x81, 0x68, 0x62, 0x54, 0x46, 0xb4, 0x7f, 0x37,
  0xd4, 0xa2, 0x33, 0xe6, 0xbc, 0xc7, 0x32, 0x7f, 0x7d, 0x57, 0xac, 0x5d,
  0x4e, 0x81, 0x81, 0xeb, 0x7f, 0x83, 0x2c, 0x30, 0x94, 0x6a, 0x2d, 0xef,
  0x74, 0x7f, 0x2f, 0xc8, 0xda, 0xf9, 0xae, 0x0b, 0x3a, 0x01, 0xf9, 0x00,
  0x17, 0x19, 0x2b, 0xfe, 0xc0, 0x38, 0x29, 0x38, 0xdf, 0xee, 0x23, 0x08,
  0xd0, 0xe1, 0x0f, 0xb4, 0xd4, 0x19, 0xfa, 0x16, 0x1c, 0xfe, 0xce, 0x18,
  0x37, 0xba, 0xd1, 0xcf, 0x1e, 0xdd, 0xef, 0x1b, 0xd7, 0x39, 0x16, 0xd9,
  0x53, 0x46, 0xd7, 0xdd, 0x7f, 0x90, 0xd6, 0x7f, 0x63, 0x38, 0xae, 0x81,
  0x59, 0x57, 0x6b, 0xd2, 0xba, 0x54, 0x51, 0x60, 0x7f, 0xa4, 0x2f, 0x7f,
  0x9c, 0x8b, 0x51, 0x7f, 0xa4, 0x81, 0x7f, 0x4b, 0x73, 0x7f, 0xc9, 0x79,
  0x69, 0xd2, 0xc5, 0xe2, 0x39, 0x8a, 0x7f, 0x42, 0x81, 0x7f, 0x4c, 0x81,
  0x69, 0x35, 0x21, 0x90, 0x5f, 0x9a, 0x81, 0x74, 0x6b, 0x7f, 0x81, 0xb2,
  0x7f, 0x7f, 0x58, 0x81, 0x9c, 0x7f, 0x3e, 0x3f, 0x4c, 0x81, 0x5f, 0x6e,
  0x9f, 0x81, 0x7f, 0x6c, 0x81, 0x98, 0x67, 0x67, 0x7f, 0x58, 0x81, 0x7f,
  0x7f, 0xb2, 0xde, 0x81, 0x47, 0x81, 0x71, 0x7f, 0x82, 0x61, 0x7f, 0x9f,
  0x78, 0x4b, 0x33, 0xa1, 0x10, 0x8b, 0x9b, 0x41, 0x4a, 0x0c, 0xbe, 0xe0,
  0x27, 0x01, 0x19, 0xca, 0xc9, 0x2a, 0x2e, 0x56, 0x31, 0xe2, 0x2e, 0xfd,
  0xb0, 0xf0, 0x0b, 0x1e, 0xe8, 0xe0, 0xfa, 0x2b, 0x64, 0x2e, 0xe4, 0x32,
  0x63, 0xaa, 0xad, 0x93, 0x5a, 0xc9, 0x08, 0x2d, 0xdc, 0xf1, 0x22, 0xdf,
  0x47, 0xf8, 0xe0, 0xc6, 0xdf, 0x94, 0xed, 0x1f, 0x0a, 0x08, 0xde, 0xfd,
  0xb3, 0x46, 0x29, 0xa2, 0xfa, 0x47, 0x35, 0x63, 0x5e, 0xa9, 0x9d, 0x2e,
  0x81, 0xa7, 0x43, 0x4a, 0x9f, 0xd8, 0x6a, 0x3c, 0xf6, 0x6b, 0xff, 0x26,
  0x46, 0xc0, 0xe4, 0x77, 0x1f, 0xdd, 0x07, 0x6d, 0xc6, 0x40, 0x3e, 0xac,
  0xe3, 0xdd, 0x94, 0xb4, 0xb2, 0x81, 0xbc, 0x40, 0x11, 0x22, 0xd2, 0x28,
  0xcc, 0x45, 0x7a, 0xa5, 0xbe, 0x42, 0x1d, 0x4b, 0x5d, 0xec, 0x89, 0x31,
  0xee, 0xaf, 0x44, 0x19, 0xc2, 0x16, 0x64, 0x05, 0x65, 0x20, 0xf0, 0x2d,
  0x3d, 0xa2, 0xeb, 0x1a, 0x0e, 0xd4, 0x03, 0x4e, 0xd6, 0x58, 0x2f, 0xd7,
  0x2c, 0xde, 0x81, 0xcd, 0xe2, 0xca, 0xad, 0x05, 0xf9, 0x05, 0x21, 0x05,
  0xaf, 0x38, 0xfc, 0xdd, 0xfd, 0x11, 0x32, 0x52, 0x2a, 0x13, 0xbb, 0x00,
  0xca, 0x26, 0x0c, 0xe4, 0xfc, 0x1a, 0xf3, 0xda, 0x07, 0xff, 0x14, 0x11,
  0x15, 0xf2, 0xe0, 0x48, 0x2e, 0xd9, 0xd4, 0x2a, 0x05, 0xdc, 0x04, 0x0d,
  0xed, 0xdf, 0x9d, 0xd6, 0xc6, 0xe5, 0xff, 0xff, 0x04, 0x00, 0x00, 0x00,
  0xc0, 0x00, 0x00, 0x00, 0x01, 0xfd, 0xff, 0xff, 0x9d, 0x7e, 0x00, 0x00,
  0xe1, 0x74, 0x00, 0x00, 0xb7, 0xf9, 0xff, 0xff, 0xb9, 0x07, 0x00, 0x00,
  0x36, 0xe6, 0xff, 0xff, 0x30, 0x31, 0x00, 0x00, 0x41, 0x2b, 0x00, 0x00,
  0x2b, 0xd1, 0xff, 0xff, 0x37, 0x0f, 0x00, 0x00, 0x4a, 0xfb, 0xff, 0xff,
  0x16, 0x39, 0x00, 0x00, 0x80, 0x48, 0x00, 0x00, 0xb1, 0xc3, 0xff, 0xff,
  0xa9, 0xdc, 0xff, 0xff, 0x5d, 0xdc, 0xff, 0xff, 0xd9, 0xff, 0xff, 0xff,
  0x22, 0x60, 0x00, 0x00, 0x7e, 0xfb, 0xff, 0xff, 0x6f, 0xfd, 0xff, 0xff,
  0xd1, 0x9a, 0x00, 0x00, 0xbc, 0x2e, 0x00, 0x00, 0x5b, 0xdf, 0xff, 0xff,
  0x43, 0xf8, 0xff, 0xff, 0x27, 0x38, 0x00, 0x00, 0x93, 0x2d, 0x00, 0x00,
  0x65, 0xf4, 0xff, 0xff, 0x94, 0xfd, 0xff, 0xff, 0x55, 0xe5, 0xff, 0xff,
  0x15, 0x00, 0x00, 0x00, 0xe8, 0x5a, 0x00, 0x00, 0x92, 0xee, 0xff, 0xff,
  0x1e, 0xdd, 0xff, 0xff, 0x54, 0x24, 0x00, 0x00, 0xdd, 0x25, 0x00, 0x00,
  0x89, 0x1a, 0x00, 0x00, 0xf6, 0xf0, 0xff, 0xff, 0x0e, 0xfc, 0x00, 0x00,
  0x7d, 0xfb, 0xff, 0xff, 0xf9, 0xf2, 0xff, 0xff, 0x36, 0x6f, 0x00, 0x00,
  0x05, 0x02, 0x00, 0x00, 0x85, 0xf7, 0xff, 0xff, 0x76, 0x26, 0x00, 0x00,
  0x0d, 0xfd, 0xff, 0xff, 0xf2, 0xfb, 0xff, 0xff, 0xf0, 0x0d, 0x00, 0x00,
  0x1a, 0x3a, 0x00, 0x00, 0x92, 0xe6, 0xff, 0xff, 0x04, 0x00, 0x00, 0x00,
  0x80, 0x01, 0x00, 0x00, 0xe8, 0xd2, 0x34, 0xcd, 0x39, 0x41, 0x41, 0x55,
  0x64, 0xe1, 0xda, 0x2f, 0xe2, 0xe4, 0x06, 0xed, 0x34, 0x36, 0x0f, 0xd1,
  0xd7, 0x0b, 0xa3, 0xcd, 0x21, 0xe9, 0x0f, 0xbd, 0xe4, 0x14, 0x31, 0x19,
  0x1a, 0x28, 0x3d, 0x22, 0x70, 0xcc, 0xb8, 0x12, 0xad, 0xb1, 0xea, 0xf3,
  0xbf, 0xa3, 0x81, 0x31, 0xf0, 0xf8, 0xdf, 0x23, 0x02, 0x01, 0xe2, 0xfd,
  0xc9, 0x2c, 0x07, 0x4b, 0xef, 0xfc, 0xd8, 0x7f, 0x35, 0x41, 0x01, 0xe2,
  0xbf, 0xeb, 0xad, 0x15, 0x14, 0xf1, 0xe9, 0xb0, 0x31, 0xf7, 0xde, 0xc6,
  0x44, 0xe0, 0xf1, 0xd8, 0x17, 0x20, 0x30, 0xd5, 0xff, 0x35, 0x38, 0xdc,
  0xf7, 0xd3, 0xcb, 0xf2, 0xf9, 0xc4, 0x00, 0xec, 0xe3, 0x00, 0x1c, 0x28,
  0x67, 0x1e, 0xfb, 0xf3, 0xde, 0xa2, 0x21, 0x10, 0x08, 0xc5, 0xf3, 0xf6,
  0x99, 0x35, 0xe9, 0x17, 0x00, 0x41, 0xe1, 0xdf, 0xef, 0xd2, 0x30, 0xcf,
  0xaf, 0x15, 0xd3, 0x42, 0xc0, 0x23, 0x00, 0xd6, 0x7f, 0xf9, 0x0a, 0x25,
  0x12, 0x15, 0xc1, 0xef, 0xd4, 0x92, 0x46, 0x34, 0x1e, 0x95, 0xfb, 0xf8,
  0x91, 0x7f, 0x33, 0xcb, 0x33, 0x0e, 0xf1, 0x0c, 0x35, 0x19, 0xe0, 0x31,
  0x2c, 0x4c, 0x18, 0xbf, 0x10, 0x48, 0x2b, 0x28, 0xf2, 0xbe, 0x1c, 0x0a,
  0xe1, 0xf9, 0x44, 0x12, 0xe6, 0xc1, 0xde, 0x2d, 0xe4, 0xf9, 0x19, 0xc8,
  0xc4, 0x13, 0x03, 0x0a, 0x00, 0x3e, 0xe9, 0x46, 0x32, 0x09, 0x05, 0x03,
  0xd7, 0x3f, 0x3e, 0x4c, 0xf3, 0x10, 0x4e, 0x08, 0x05, 0x9d, 0x06, 0xf9,
  0x5b, 0xf9, 0xb0, 0x4c, 0x39, 0xfa, 0x23, 0x27, 0x26, 0x25, 0xf4, 0xc7,
  0xc8, 0x7f, 0xf8, 0x18, 0x31, 0xec, 0x10, 0x25, 0xff, 0x40, 0x0a, 0xfe,
  0x0f, 0xdf, 0xe6, 0x0b, 0xeb, 0xfe, 0xed, 0xbb, 0x84, 0xff, 0x6b, 0x10,
  0x0b, 0x47, 0xd7, 0xdf, 0x99, 0xfd, 0x46, 0xca, 0xab, 0x33, 0xd3, 0xa0,
  0xf1, 0x58, 0xf1, 0x22, 0x7f, 0x28, 0xed, 0xf7, 0xf5, 0xf3, 0x73, 0xba,
  0xe6, 0x5e, 0x60, 0x54, 0xcd, 0x48, 0x55, 0x33, 0xdf, 0xdd, 0xf4, 0x27,
  0xbd, 0x1f, 0x1e, 0x2c, 0x0e, 0xee, 0x07, 0x19, 0xc2, 0xcb, 0x1a, 0x0d,
  0x23, 0xe5, 0x18, 0x19, 0xd5, 0xe2, 0x10, 0x46, 0xff, 0xc5, 0x08, 0xb4,
  0x5b, 0xf1, 0xec, 0xf0, 0x18, 0xf5, 0x1c, 0x30, 0x1e, 0x08, 0x13, 0x7f,
  0x45, 0x04, 0xf3, 0x19, 0xfe, 0xe9, 0x1d, 0x00, 0x08, 0x16, 0xd5, 0xd7,
  0xf8, 0xe7, 0xf1, 0x40, 0xe0, 0xe5, 0xdb, 0xf3, 0xf6, 0xe8, 0xfa, 0x09,
  0x24, 0x0a, 0x0e, 0xed, 0xea, 0xfb, 0xf8, 0x09, 0x17, 0xf8, 0x11, 0xf2,
  0xc1, 0x05, 0xff, 0xdb, 0xfa, 0xf5, 0xba, 0xe6, 0xe6, 0xe7, 0x14, 0x29,
  0x13, 0xf2, 0x16, 0x0c, 0xf2, 0x7f, 0xf6, 0xcd, 0xd3, 0xfe, 0xce, 0xc5,
  0x0e, 0x3a, 0xb4, 0xf9, 0x1e, 0xe8, 0xff, 0xff, 0x04, 0x00, 0x00, 0x00,
  0x20, 0x00, 0x00, 0x00, 0xde, 0x1d, 0x00, 0x00, 0x50, 0xfc, 0xff, 0xff,
  0xb7, 0x32, 0x00, 0x00, 0x5a, 0xe6, 0xff, 0xff, 0x0d, 0xc0, 0xff, 0xff,
  0x73, 0xd1, 0xff, 0xff, 0x96, 0xe1, 0xff, 0xff, 0x7e, 0x10, 0x00, 0x00,
  0x4a, 0xe8, 0xff, 0xff, 0x04, 0x00, 0x00, 0x00, 0x80, 0x01, 0x00, 0x00,
  0xb1, 0x81, 0xe2, 0x05, 0xef, 0xfa, 0x1d, 0xc6, 0x01, 0x7f, 0x1a, 0xc8,
  0xef, 0xb5, 0xd2, 0x69, 0x81, 0xaf, 0x2a, 0xf8, 0x35, 0xdf, 0x11, 0xf0,
  0x02, 0xf5, 0x81, 0xd1, 0x11, 0xdb, 0xd4, 0x3e, 0xc1, 0xa8, 0x74, 0xee,
  0x7f, 0x9d, 0x12, 0xe8, 0x02, 0x34, 0x52, 0x85, 0x7f, 0x03, 0xca, 0x64,
  0x83, 0x7f, 0x64, 0x49, 0xd4, 0xff, 0x11, 0x84, 0x2f, 0x03, 0x31, 0xfc,
  0x1b, 0x81, 0x27, 0x6d, 0x0d, 0x3d, 0xf9, 0xf3, 0x04, 0x60, 0x7f, 0xce,
  0x56, 0x7f, 0xec, 0xf5, 0xad, 0x90, 0xdb, 0x5d, 0xfc, 0xf2, 0x34, 0xf4,
  0xf0, 0x37, 0x81, 0xba, 0xa7, 0x00, 0xb3, 0xbf, 0x7f, 0x1f, 0x14, 0x1a,
  0x6d, 0x2f, 0xcd, 0x0a, 0x7f, 0x5f, 0xe6, 0x06, 0x86, 0x90, 0xe0, 0x4d,
  0x81, 0x35, 0x68, 0x0f, 0xf8, 0x63, 0x9d, 0x47, 0xc5, 0x7f, 0xea, 0x1f,
  0xd3, 0x9e, 0xdf, 0x81, 0x6a, 0x34, 0xe7, 0x56, 0x30, 0xa6, 0xff, 0x1c,
  0x26, 0xf7, 0x1a, 0x81, 0xbb, 0xbd, 0x81, 0x72, 0xf6, 0x51, 0x52, 0xb5,
  0x53, 0x0e, 0x4a, 0x2f, 0xf0, 0x81, 0xdc, 0xc6, 0xfd, 0x6d, 0x0d, 0x0c,
  0x55, 0x81, 0xde, 0xe3, 0xe1, 0xf5, 0x81, 0xc2, 0x23, 0xdb, 0x09, 0xfa,
  0xdd, 0x05, 0x41, 0x23, 0xc8, 0xbe, 0x7f, 0xd1, 0x10, 0xe7, 0x81, 0xe3,
  0xe5, 0xe7, 0xd8, 0x36, 0x8a, 0x1a, 0x78, 0xd7, 0x81, 0x1c, 0xd3, 0x9e,
  0xa0, 0x3a, 0x0f, 0x6d, 0x7f, 0x46, 0xfe, 0xac, 0x28, 0x81, 0xb2, 0x19,
  0xad, 0x17, 0x69, 0xf3, 0x76, 0x7f, 0xd8, 0xfe, 0x8f, 0x0c, 0xc4, 0x32,
  0x46, 0x26, 0x83, 0xf5, 0x81, 0x37, 0xc1, 0xe8, 0xe6, 0x1e, 0x0d, 0xd2,
  0x44, 0x52, 0x81, 0xaa, 0x54, 0x10, 0x07, 0x9c, 0xa3, 0x02, 0x2e, 0x81,
  0x82, 0xf7, 0x3a, 0x7f, 0x41, 0x13, 0xd2, 0xe4, 0xf2, 0xbc, 0xdd, 0x88,
  0x81, 0x66, 0xb0, 0x83, 0x81, 0x1b, 0x17, 0xf1, 0xf3, 0xcc, 0x1c, 0x3a,
  0x17, 0xd4, 0xa2, 0x81, 0xe2, 0x31, 0xc0, 0x1e, 0x3c, 0x73, 0x7f, 0x3d,
  0x92, 0xdf, 0x1f, 0xe1, 0x40, 0x07, 0xff, 0x0a, 0xbe, 0xe5, 0x81, 0xcc,
  0x7f, 0xfe, 0x52, 0xd1, 0x2e, 0xfa, 0x47, 0x2a, 0x64, 0x50, 0x12, 0xf3,
  0x3f, 0x37, 0x81, 0x34, 0xff, 0x7f, 0x39, 0x6a, 0xcf, 0x0f, 0x34, 0xc2,
  0x1b, 0x1a, 0x72, 0xab, 0x7f, 0xab, 0xf5, 0xed, 0x7f, 0x50, 0x36, 0x41,
  0x8f, 0x9c, 0x11, 0xdb, 0xf6, 0xc3, 0x03, 0x7f, 0xfe, 0x2c, 0xf5, 0x2b,
  0xfb, 0xab, 0x7f, 0xda, 0x7e, 0xe2, 0x4f, 0x16, 0xf2, 0xc0, 0x8e, 0xc7,
  0x7f, 0x3b, 0xa7, 0x6b, 0x58, 0xfc, 0x7f, 0xef, 0xf9, 0x28, 0xc4, 0x11,
  0xfc, 0x30, 0x0e, 0x01, 0xa3, 0xa1, 0x14, 0x7f, 0xe3, 0x55, 0x4b, 0x11,
  0x08, 0xde, 0x1d, 0x81, 0xf6, 0xf8, 0xff, 0x7f, 0xf5, 0xb5, 0x09, 0x4b,
  0xd6, 0xe9, 0xff, 0xff, 0x04, 0x00, 0x00, 0x00, 0xc0, 0x00, 0x00, 0x00,
  0xcd, 0xff, 0xff, 0xff, 0xa9, 0x29, 0x00, 0x00, 0x77, 0xe1, 0xff, 0xff,
  0xcf, 0x0d, 0x00, 0x00, 0xcd, 0x0f, 0x00, 0x00, 0x3c, 0x0f, 0x00, 0x00,
  0x44, 0x0d, 0x00, 0x00, 0xff, 0x2c, 0x00, 0x00, 0xaa, 0x20, 0x00, 0x00,
  0x8f, 0x3b, 0x00, 0x00, 0x0a, 0xf6, 0xff, 0xff, 0xac, 0xfb, 0xff, 0xff,
  0xa2, 0x01, 0x00, 0x00, 0xa5, 0x0f, 0x00, 0x00, 0x69, 0x09, 0x00, 0x00,
  0x9f, 0xf8, 0xff, 0xff, 0x45, 0xff, 0xff, 0xff, 0x2d, 0x1d, 0x00, 0x00,
  0xed, 0x2b, 0x00, 0x00, 0xf0, 0xff, 0xff, 0xff, 0x6a, 0x14, 0x00, 0x00,
  0x01, 0x18, 0x00, 0x00, 0xbd, 0x06, 0x00, 0x00, 0x2c, 0x13, 0x00, 0x00,
  0xad, 0x32, 0x00, 0x00, 0x65, 0x29, 0x00, 0x00, 0x2a, 0x01, 0x00, 0x00,
  0xf1, 0x15, 0x00, 0x00, 0xe5, 0x03, 0x00, 0x00, 0x24, 0x0f, 0x00, 0x00,
  0x26, 0xef, 0xff, 0xff, 0xbe, 0x2b, 0x00, 0x00, 0x03, 0x08, 0x00, 0x00,
  0xb2, 0x14, 0x00, 0x00, 0x86, 0x1a, 0x00, 0x00, 0xd0, 0x0d, 0x00, 0x00,
  0x3b, 0x10, 0x01, 0x00, 0xee, 0x1d, 0x00, 0x00, 0x91, 0x10, 0x00, 0x00,
  0xd0, 0x47, 0x00, 0x00, 0x40, 0x0e, 0x00, 0x00, 0x12, 0x05, 0x00, 0x00,
  0xc5, 0x11, 0x00, 0x00, 0xb6, 0x04, 0x00, 0x00, 0x7d, 0x0e, 0x00, 0x00,
  0x82, 0x0b, 0x00, 0x00, 0x26, 0x0f, 0x00, 0x00, 0xf6, 0x05, 0x00, 0x00,
  0xa2, 0xea, 0xff, 0xff, 0x04, 0x00, 0x00, 0x00, 0xb0, 0x01, 0x00, 0x00,
  0x07, 0xc9, 0x57, 0x07, 0x7f, 0x16, 0xf9, 0xf4, 0xe1, 0x2e, 0xcf, 0xe4,
  0xe2, 0xf1, 0xb2, 0x00, 0x50, 0xcc, 0xfd, 0x39, 0xc0, 0x01, 0x06, 0xdf,
  0xef, 0x18, 0x22, 0xd7, 0xfa, 0x78, 0xe7, 0xeb, 0xe1, 0x7f, 0x66, 0xc7,
  0x10, 0xca, 0xa5, 0xd4, 0x1e, 0xe6, 0x0e, 0xbd, 0xf5, 0xe3, 0x81, 0xff,
  0xeb, 0x78, 0x16, 0x3d, 0xe0, 0x9c, 0x7f, 0xf6, 0x47, 0x2b, 0xd1, 0x5b,
  0x0b, 0x7f, 0xb3, 0x0e, 0x75, 0xa2, 0x14, 0x7f, 0xe8, 0xe4, 0x7f, 0xce,
  0x0c, 0x08, 0xe3, 0x2b, 0xfb, 0x81, 0x70, 0xb6, 0x81, 0xcb, 0x47, 0x90,
  0xc2, 0xc6, 0x81, 0x10, 0x0d, 0xec, 0x15, 0x81, 0x0b, 0x81, 0x03, 0x2a,
  0x20, 0xdf, 0xfb, 0x00, 0x2f, 0xfb, 0x04, 0xfd, 0x12, 0x27, 0xb9, 0xbd,
  0xfd, 0xe8, 0x87, 0x18, 0x07, 0xce, 0x02, 0x45, 0xbf, 0x26, 0xe7, 0xfc,
  0xfb, 0x03, 0x10, 0xb2, 0xf4, 0x1b, 0xbd, 0xfe, 0x3b, 0x0e, 0x7f, 0xd3,
  0x14, 0x01, 0xd3, 0xe7, 0x27, 0xe4, 0xfc, 0x9e, 0xe8, 0xc8, 0x88, 0xcf,
  0x81, 0x7f, 0xce, 0xac, 0x04, 0xce, 0xed, 0xfa, 0xf4, 0x28, 0x7f, 0x64,
  0x1f, 0x3e, 0xc0, 0x00, 0x7f, 0xb7, 0x14, 0x15, 0x07, 0xc6, 0x95, 0xca,
  0x81, 0xf7, 0xde, 0x18, 0x03, 0xfe, 0x04, 0xf5, 0xe7, 0x68, 0xdb, 0xb5,
  0x30, 0xd0, 0x1f, 0x2b, 0x91, 0x05, 0xc0, 0x43, 0xee, 0xbb, 0xe0, 0xb4,
  0xdf, 0x7b, 0x7f, 0x7f, 0xcf, 0x54, 0x92, 0x7f, 0x7f, 0x81, 0xc5, 0x7f,
  0x7f, 0x1b, 0x7f, 0x8a, 0xae, 0x96, 0x7f, 0x10, 0x81, 0x7f, 0x6a, 0xf8,
  0x44, 0x45, 0x4a, 0x7f, 0x7f, 0xb5, 0x7f, 0x1e, 0xdc, 0x9f, 0x33, 0x81,
  0x7f, 0x7f, 0x30, 0x2d, 0xe3, 0x7f, 0xdc, 0x77, 0x7f, 0xdd, 0x15, 0x81,
  0xa4, 0x36, 0xbb, 0xd4, 0xc2, 0x81, 0x04, 0xdf, 0x0b, 0x1a, 0x04, 0x54,
  0x6d, 0x1b, 0xc6, 0x67, 0x2b, 0x81, 0x0d, 0x19, 0x6e, 0xb5, 0xba, 0xdd,
  0x0c, 0xef, 0xfa, 0x20, 0x07, 0xf3, 0x02, 0xfe, 0x17, 0xdb, 0xd0, 0xb6,
  0x21, 0xe6, 0x12, 0x81, 0xe2, 0xfb, 0x7f, 0x2c, 0xdb, 0xaf, 0xf7, 0x6b,
  0xe9, 0x1c, 0xeb, 0xed, 0x17, 0xcd, 0x09, 0x14, 0xd8, 0x3a, 0x71, 0x30,
  0x0b, 0x0e, 0x15, 0x7f, 0x1d, 0xb7, 0xd9, 0x29, 0xd2, 0x08, 0xdf, 0x2b,
  0xe4, 0xd3, 0x0d, 0xfe, 0x02, 0x4a, 0xd8, 0xd9, 0x35, 0x00, 0x9b, 0x69,
  0xe2, 0xf2, 0x25, 0xe7, 0x6e, 0xdb, 0x1c, 0xdc, 0xca, 0x0e, 0x03, 0xcb,
  0xc1, 0x60, 0xf8, 0xfe, 0xb7, 0x98, 0x42, 0xbb, 0x22, 0x33, 0x0f, 0xd0,
  0xf8, 0xee, 0xde, 0x6e, 0x52, 0x1b, 0xff, 0x4e, 0x91, 0x21, 0x31, 0x7f,
  0x13, 0x81, 0x7f, 0x13, 0x13, 0xda, 0x3b, 0x81, 0x24, 0xb4, 0xa6, 0xec,
  0xc1, 0x01, 0x15, 0x31, 0x7f, 0x1e, 0xe5, 0xf9, 0xdd, 0xdf, 0xe5, 0xe0,
  0x67, 0x38, 0x09, 0x09, 0x03, 0xb1, 0x01, 0x0c, 0xf7, 0x31, 0x68, 0x1f,
  0x27, 0x2f, 0xf0, 0x46, 0x0d, 0xdf, 0xe0, 0xe8, 0xf3, 0xfc, 0xbe, 0x40,
  0x11, 0xe7, 0xfd, 0xe4, 0x07, 0xdd, 0xe5, 0xbc, 0x1b, 0xdf, 0xd7, 0x34,
  0xe6, 0xfc, 0x17, 0x08, 0x61, 0xef, 0x33, 0xbe, 0xcf, 0xf9, 0x09, 0x16,
  0x5e, 0xec, 0xff, 0xff, 0x04, 0x00, 0x00, 0x00, 0xc0, 0x00, 0x00, 0x00,
  0x20, 0x36, 0x00, 0x00, 0xd1, 0xb8, 0xff, 0xff, 0x8d, 0xfc, 0xff, 0xff,
  0xd5, 0x0b, 0x00, 0x00, 0xdc, 0x01, 0x00, 0x00, 0x46, 0x20, 0x00, 0x00,
  0xfd, 0x0b, 0x00, 0x00, 0x89, 0xfc, 0xff, 0xff, 0xf8, 0xf5, 0xff, 0xff,
  0x1b, 0xf2, 0xff, 0xff, 0xba, 0xfe, 0xff, 0xff, 0xae, 0xed, 0xff, 0xff,
  0xfd, 0xe8, 0xff, 0xff, 0xe7, 0xe3, 0xff, 0xff, 0x42, 0x10, 0x00, 0x00,
  0x89, 0x05, 0x00, 0x00, 0x13, 0xea, 0xff, 0xff, 0xfd, 0x5e, 0x00, 0x00,
  0x47, 0xee, 0xff, 0xff, 0x4f, 0xe0, 0xff, 0xff, 0xe7, 0x32, 0x00, 0x00,
  0x06, 0xf8, 0xff, 0xff, 0x9b, 0xfb, 0xff, 0xff, 0x04, 0xf5, 0xff, 0xff,
  0xcd, 0x05, 0x00, 0x00, 0xbf, 0x0a, 0x00, 0x00, 0xc6, 0xe6, 0xff, 0xff,
  0x52, 0xee, 0xff, 0xff, 0x80, 0xf7, 0xff, 0xff, 0x9e, 0x0f, 0x00, 0x00,
  0x20, 0x02, 0x00, 0x00, 0x50, 0x2b, 0x00, 0x00, 0x0a, 0x19, 0x00, 0x00,
  0xc1, 0x01, 0x00, 0x00, 0xfd, 0xf4, 0xff, 0xff, 0xbf, 0x28, 0x00, 0x00,
  0x6a, 0xed, 0xff, 0xff, 0x3d, 0x14, 0x00, 0x00, 0xe8, 0x09, 0x00, 0x00,
  0x9d, 0x0a, 0x00, 0x00, 0x22, 0xde, 0xff, 0xff, 0x9e, 0xef, 0xff, 0xff,
  0x69, 0xf0, 0xff, 0xff, 0xd2, 0x18, 0x00, 0x00, 0xab, 0x20, 0x00, 0x00,
  0x8f, 0x4f, 0x00, 0x00, 0x21, 0x29, 0x00, 0x00, 0x92, 0xf6, 0xff, 0xff,
  0x2a, 0xed, 0xff, 0xff, 0x04, 0x00, 0x00, 0x00, 0x80, 0x01, 0x00, 0x00,
  0x1f, 0x25, 0xa4, 0x38, 0x0a, 0x11, 0x93, 0xe8, 0x08, 0xdb, 0xfe, 0xe1,
  0xe5, 0x08, 0x20, 0x07, 0x31, 0xd6, 0x3b, 0xdc, 0x07, 0xcc, 0x41, 0xf5,
  0x0a, 0xcf, 0xe8, 0x0b, 0xf2, 0x05, 0xdc, 0xf5, 0x23, 0x17, 0x18, 0x1c,
  0x7f, 0x47, 0x29, 0xe0, 0x0c, 0xf4, 0xf5, 0xdf, 0x4d, 0x19, 0x0e, 0xca,
  0x34, 0x0f, 0x08, 0xec, 0x34, 0x61, 0x08, 0xdb, 0x25, 0x49, 0xc5, 0xc9,
  0x72, 0xfe, 0xf3, 0x14, 0x16, 0x1b, 0x05, 0x9f, 0x7f, 0xd2, 0x25, 0x31,
  0x0f, 0x09, 0x1a, 0x0a, 0x19, 0xcf, 0x22, 0x4f, 0x43, 0x58, 0xfb, 0x65,
  0x31, 0x2c, 0x23, 0xff, 0x5c, 0x22, 0x0f, 0x17, 0x18, 0x20, 0x36, 0xb7,
  0xea, 0x04, 0x50, 0x61, 0xea, 0x20, 0x2b, 0x26, 0x3d, 0x68, 0xef, 0xb3,
  0xd0, 0x7f, 0xf9, 0x0f, 0xa2, 0x97, 0x39, 0xef, 0x24, 0x33, 0xcb, 0xae,
  0xd8, 0xc4, 0x28, 0xeb, 0x83, 0x22, 0xeb, 0x02, 0xea, 0xe4, 0x8c, 0xcf,
  0xff, 0x25, 0xbc, 0xdb, 0x08, 0xdd, 0xcf, 0x02, 0x44, 0x9e, 0xac, 0x1a,
  0xf5, 0x2e, 0xaf, 0xea, 0x10, 0xce, 0x1f, 0x31, 0x7d, 0xd7, 0xae, 0xfe,
  0x0b, 0xeb, 0xf6, 0x21, 0x03, 0x0a, 0xee, 0xcb, 0x03, 0x05, 0xa0, 0x13,
  0xe5, 0xcd, 0x33, 0xdc, 0x39, 0xe3, 0x0b, 0xda, 0x34, 0xe9, 0xcd, 0xdb,
  0x81, 0xf4, 0xad, 0x02, 0xdc, 0xd8, 0x06, 0xe5, 0xe3, 0x12, 0xe8, 0xe6,
  0x2c, 0xec, 0x18, 0xf1, 0xd4, 0x39, 0x0a, 0x4b, 0x94, 0xd1, 0x30, 0x21,
  0x38, 0xbf, 0xe3, 0xcf, 0x48, 0x3f, 0x54, 0x02, 0x03, 0xbb, 0xe6, 0x05,
  0xf4, 0x1d, 0xdc, 0x81, 0xbc, 0xd6, 0x70, 0x11, 0x38, 0x0c, 0x7d, 0x42,
  0x58, 0x37, 0x1e, 0x13, 0xff, 0x32, 0xd2, 0xe5, 0x66, 0x4e, 0x4f, 0xe1,
  0x13, 0x4b, 0x10, 0x66, 0x32, 0x0f, 0xb3, 0xb8, 0x9f, 0x1a, 0xe5, 0x11,
  0x15, 0x37, 0x15, 0xbd, 0x55, 0x63, 0xf9, 0x2b, 0xee, 0xc3, 0x14, 0xa0,
  0xa7, 0xb7, 0xe6, 0x32, 0x06, 0x2e, 0xcb, 0x37, 0xf7, 0xa5, 0x47, 0xfc,
  0xe6, 0x7f, 0xd9, 0x8b, 0x06, 0xef, 0xe4, 0xd9, 0x0f, 0xf7, 0xbd, 0x55,
  0x62, 0x29, 0x15, 0x60, 0xa0, 0x24, 0xf9, 0x17, 0x1b, 0xc6, 0x4b, 0x5d,
  0x5a, 0xd9, 0xde, 0xc4, 0x25, 0x14, 0xa6, 0xe2, 0x4c, 0xdd, 0xd4, 0x19,
  0x06, 0x3e, 0xd1, 0xf7, 0x2f, 0xbf, 0x36, 0x38, 0x29, 0xdd, 0xf7, 0x6d,
  0x5c, 0xd0, 0x0f, 0x14, 0xcd, 0x33, 0xaf, 0x3e, 0x2c, 0x4f, 0x7f, 0xc9,
  0x12, 0x0f, 0x73, 0x23, 0xdc, 0x34, 0x92, 0x12, 0xea, 0x56, 0xed, 0xef,
  0x15, 0x55, 0xeb, 0xf1, 0xc9, 0xe2, 0xc2, 0xe5, 0xff, 0x17, 0xf8, 0xcd,
  0xe5, 0x08, 0x4b, 0xd5, 0xf5, 0x02, 0xe9, 0xf0, 0x81, 0xf0, 0x34, 0x26,
  0x57, 0xe6, 0x3d, 0xf3, 0xf4, 0xeb, 0xb5, 0xb1, 0x00, 0xd2, 0x06, 0x07,
  0xb6, 0xee, 0xff, 0xff, 0x04, 0x00, 0x00, 0x00, 0x20, 0x00, 0x00, 0x00,
  0xc8, 0xda, 0xff, 0xff, 0xc0, 0x8c, 0xff, 0xff, 0x08, 0x0e, 0x00, 0x00,
  0xe6, 0x21, 0x00, 0x00, 0xff, 0xc2, 0xff, 0xff, 0x14, 0x02, 0x00, 0x00,
  0xe4, 0xa4, 0xff, 0xff, 0x17, 0x1d, 0x00, 0x00, 0xe2, 0xee, 0xff, 0xff,
  0x04, 0x00, 0x00, 0x00, 0x80, 0x01, 0x00, 0x00, 0x81, 0x18, 0xdc, 0xd2,
  0x43, 0x44, 0x13, 0xce, 0x16, 0xe4, 0xf5, 0x0d, 0xcb, 0x81, 0x0c, 0x0e,
  0xda, 0x37, 0xef, 0xc4, 0xe4, 0x2c, 0xdd, 0x7f, 0x28, 0x06, 0x1c, 0xec,
  0xc6, 0x81, 0x22, 0x01, 0x09, 0x18, 0xbe, 0x0c, 0x81, 0x48, 0x27, 0x21,
  0xb9, 0x43, 0x39, 0xe8, 0x8e, 0x81, 0xbb, 0xff, 0xcf, 0x7f, 0x3b, 0xea,
  0xbf, 0xb4, 0x40, 0xa2, 0xf6, 0xf8, 0x2e, 0x2b, 0x08, 0x81, 0xef, 0x2d,
  0x7f, 0x06, 0xd5, 0x3a, 0xcf, 0xe9, 0x83, 0xf8, 0x4a, 0xe9, 0xda, 0xd3,
  0xf2, 0xe1, 0xf5, 0x7f, 0xbb, 0xff, 0xfe, 0x49, 0x2d, 0x7f, 0x04, 0x93,
  0x1c, 0x22, 0x40, 0x08, 0x05, 0x7f, 0x56, 0x63, 0x9a, 0xba, 0x13, 0x81,
  0x46, 0x9e, 0x0b, 0x45, 0xeb, 0xe6, 0xf7, 0x26, 0x1a, 0x81, 0x27, 0x45,
  0x17, 0x36, 0x5a, 0x25, 0x21, 0x81, 0xda, 0x02, 0xec, 0x43, 0x7f, 0x26,
  0x04, 0x19, 0x1d, 0xb6, 0xd5, 0xfe, 0x0f, 0xe0, 0x7f, 0x10, 0xc7, 0xe9,
  0x2b, 0xe8, 0xe6, 0x0e, 0xfa, 0x7f, 0xe1, 0x2f, 0xf4, 0x67, 0x3a, 0xd3,
  0xf4, 0x1f, 0x7f, 0x87, 0x27, 0x7f, 0x44, 0x69, 0xea, 0x13, 0x29, 0x02,
  0x0f, 0xd3, 0x52, 0x81, 0xb9, 0x19, 0x0f, 0xc8, 0xba, 0x67, 0x23, 0x81,
  0x74, 0x43, 0x6c, 0x04, 0x68, 0xf0, 0x95, 0x69, 0x28, 0xd6, 0xad, 0x7f,
  0x2b, 0xb6, 0x90, 0xda, 0x3a, 0x04, 0xbc, 0x7f, 0x20, 0xf4, 0x8e, 0x0b,
  0xe0, 0x2b, 0x81, 0x54, 0xf2, 0xdc, 0x60, 0x0e, 0x7e, 0xf9, 0x81, 0xe7,
  0x29, 0x7f, 0x75, 0xed, 0xd9, 0xf0, 0x14, 0xb4, 0xdd, 0x07, 0x7f, 0xcd,
  0x23, 0xe7, 0x37, 0xb0, 0x1a, 0xff, 0x5b, 0x7f, 0x39, 0xe3, 0x12, 0x60,
  0x46, 0x44, 0x62, 0x2c, 0xad, 0x42, 0x81, 0x69, 0x41, 0xd0, 0x9f, 0x45,
  0x81, 0xa6, 0xfe, 0x3c, 0x06, 0x7f, 0x42, 0xdc, 0xcf, 0x30, 0x40, 0xa1,
  0x33, 0x18, 0x03, 0x12, 0x50, 0x7f, 0x08, 0xdf, 0x03, 0xd5, 0x98, 0xf7,
  0xfa, 0xe5, 0xc8, 0x7f, 0x30, 0xc4, 0x00, 0x81, 0x07, 0x3a, 0xf6, 0x0d,
  0xd3, 0x14, 0x7f, 0x17, 0x01, 0x9c, 0xf6, 0xe9, 0x0a, 0x13, 0xeb, 0x81,
  0xf8, 0xf3, 0x0e, 0xd1, 0x5f, 0xf0, 0xe2, 0x86, 0xa9, 0x7f, 0xb0, 0x9f,
  0x58, 0xd3, 0xf0, 0x52, 0x2c, 0x0a, 0xf6, 0x7f, 0x7f, 0x5a, 0x31, 0x3f,
  0xf8, 0x6e, 0xd0, 0x08, 0x39, 0x81, 0xac, 0x1f, 0xde, 0xfa, 0xc1, 0x67,
  0xf8, 0xce, 0x81, 0xc9, 0xe0, 0x93, 0xf9, 0xf1, 0x4f, 0x64, 0x5c, 0x7f,
  0xae, 0xe8, 0x0b, 0x3a, 0x6a, 0xc2, 0xa2, 0x81, 0xcc, 0xeb, 0xfe, 0x56,
  0xd8, 0x7f, 0x50, 0x03, 0x9e, 0x0d, 0x27, 0xdd, 0xfb, 0xfb, 0x81, 0x21,
  0xde, 0x17, 0x07, 0x51, 0x6c, 0x03, 0xb8, 0x81, 0x0a, 0xd1, 0xd7, 0x40,
  0x6e, 0xa1, 0x7f, 0xce, 0x57, 0xd5, 0x2b, 0xf4, 0x6e, 0xf0, 0xff, 0xff,
  0x04, 0x00, 0x00, 0x00, 0xc0, 0x00, 0x00, 0x00, 0x93, 0xa3, 0x00, 0x00,
  0x10, 0x2d, 0x00, 0x00, 0x78, 0x03, 0x00, 0x00, 0xab, 0x06, 0x00, 0x00,
  0xe9, 0x12, 0x00, 0x00, 0x33, 0x16, 0x00, 0x00, 0x96, 0x1f, 0x00, 0x00,
  0x51, 0x13, 0x00, 0x00, 0x71, 0x0a, 0x00, 0x00, 0x41, 0xf5, 0xff, 0xff,
  0xa9, 0x32, 0x00, 0x00, 0x99, 0x00, 0x00, 0x00, 0xc4, 0x2d, 0x00, 0x00,
  0xfd, 0x07, 0x00, 0x00, 0x4e, 0x1d, 0x00, 0x00, 0x87, 0x07, 0x00, 0x00,
  0xaa, 0x14, 0x00, 0x00, 0x6f, 0xfd, 0xff, 0xff, 0x8e, 0x40, 0x00, 0x00,
  0x02, 0x00, 0x00, 0x00, 0x2a, 0x0c, 0x00, 0x00, 0x3f, 0xf9, 0xff, 0xff,
  0xed, 0x19, 0x00, 0x00, 0x12, 0x13, 0x00, 0x00, 0xbb, 0x10, 0x00, 0x00,
  0xe7, 0xe9, 0xff, 0xff, 0x30, 0x12, 0x00, 0x00, 0xe6, 0x32, 0x00, 0x00,
  0x2b, 0x02, 0x00, 0x00, 0x7f, 0x3f, 0x00, 0x00, 0x2d, 0x0c, 0x00, 0x00,
  0xa2, 0x23, 0x00, 0x00, 0x0d, 0x04, 0x00, 0x00, 0x5a, 0x1a, 0x00, 0x00,
  0x63, 0xfe, 0xff, 0xff, 0x7f, 0xfa, 0xff, 0xff, 0xd1, 0x0c, 0x00, 0x00,
  0xb0, 0x0b, 0x00, 0x00, 0x8c, 0x03, 0x00, 0x00, 0xb9, 0x06, 0x00, 0x00,
  0xf8, 0x31, 0x00, 0x00, 0x4a, 0xff, 0xff, 0xff, 0x10, 0x4a, 0x00, 0x00,
  0x0b, 0x12, 0x00, 0x00, 0x5c, 0x03, 0x00, 0x00, 0xb4, 0x1e, 0x00, 0x00,
  0x8e, 0x0d, 0x00, 0x00, 0x75, 0xfa, 0xff, 0xff, 0x3a, 0xf1, 0xff, 0xff,
  0x04, 0x00, 0x00, 0x00, 0xb0, 0x01, 0x00, 0x00, 0x64, 0x2f, 0xeb, 0xfb,
  0x1e, 0x02, 0xb6, 0x10, 0x1b, 0xdb, 0x13, 0xe0, 0x0f, 0x8b, 0xe6, 0x1f,
  0x7f, 0xdf, 0xad, 0x04, 0x5e, 0xff, 0xf6, 0x08, 0x4e, 0x09, 0x0f, 0xf7,
  0xd7, 0xec, 0xf8, 0xc1, 0x7f, 0x18, 0x45, 0x16, 0xf4, 0x28, 0x7f, 0xfd,
  0xb6, 0x42, 0xa7, 0xc6, 0x0b, 0xd4, 0xf4, 0x25, 0x7f, 0x7f, 0xba, 0x7f,
  0x0d, 0x3b, 0xc0, 0x81, 0x22, 0xfb, 0x7f, 0x41, 0xd5, 0xb6, 0x0b, 0xfc,
  0xd1, 0x7f, 0x81, 0x32, 0x4a, 0x7f, 0x37, 0xda, 0x44, 0x0b, 0x13, 0x7f,
  0xac, 0x0e, 0xe3, 0x84, 0x51, 0xf3, 0x1a, 0x7f, 0xd0, 0x7f, 0x6c, 0x13,
  0x81, 0xf1, 0x21, 0x00, 0x12, 0x0b, 0x81, 0x63, 0x51, 0x26, 0x06, 0xea,
  0x1c, 0x1a, 0xd9, 0x26, 0x0e, 0x34, 0x24, 0xdb, 0x12, 0xd3, 0xfe, 0xe2,
  0x66, 0xed, 0xf4, 0xf3, 0x5b, 0xfc, 0xd4, 0x32, 0x36, 0x20, 0x05, 0xe9,
  0xc7, 0xf7, 0xe3, 0xdb, 0x54, 0x31, 0x72, 0x28, 0x05, 0x30, 0x41, 0x37,
  0xe6, 0x30, 0x24, 0x35, 0x0b, 0x7f, 0xf4, 0x13, 0xfc, 0xc4, 0x93, 0x52,
  0x23, 0x2c, 0x49, 0xcb, 0x13, 0x56, 0xd2, 0x7f, 0x70, 0xe3, 0xf0, 0xb8,
  0xea, 0x25, 0x3c, 0xed, 0xb6, 0x3a, 0x2e, 0xad, 0x22, 0x29, 0x06, 0x01,
  0x10, 0x50, 0xf2, 0x44, 0x54, 0x72, 0x4f, 0x2e, 0xa6, 0xdf, 0xcf, 0x4b,
  0x35, 0x1f, 0x45, 0x82, 0x02, 0xd1, 0xef, 0x7f, 0x4a, 0xb1, 0xc2, 0xa8,
  0x7f, 0x0e, 0x7f, 0x9a, 0x81, 0x7f, 0x04, 0x5f, 0x81, 0x7b, 0x7f, 0xf7,
  0x93, 0x1a, 0xf7, 0x7f, 0x56, 0xff, 0x7f, 0xec, 0x81, 0x7f, 0x12, 0x9e,
  0x86, 0x2d, 0x81, 0x7f, 0x75, 0x81, 0x60, 0x6f, 0x7f, 0x5a, 0x1f, 0x54,
  0x37, 0xde, 0xc7, 0xf6, 0x65, 0xe0, 0xea, 0x65, 0x0c, 0xe5, 0xfb, 0x37,
  0x04, 0x7f, 0x31, 0xe5, 0x24, 0x5a, 0xe4, 0x62, 0x09, 0x12, 0xee, 0xf7,
  0xa5, 0x39, 0x78, 0xda, 0xac, 0x2d, 0x99, 0x7f, 0x08, 0xff, 0x11, 0x34,
  0x00, 0x11, 0x12, 0x2d, 0xfa, 0x09, 0xe7, 0xc1, 0xd3, 0xd0, 0xfc, 0x21,
  0x40, 0x56, 0xcd, 0x7f, 0x04, 0x5c, 0xd9, 0x51, 0xf8, 0xe6, 0xf0, 0x2b,
  0xfb, 0xd9, 0xf3, 0x11, 0x16, 0xbf, 0x02, 0x14, 0x19, 0x81, 0xd5, 0x0e,
  0x56, 0x14, 0x04, 0x0f, 0x94, 0x43, 0xfe, 0xde, 0x25, 0xfd, 0xea, 0x29,
  0x0c, 0x19, 0x19, 0x0d, 0x20, 0xe5, 0x7f, 0x07, 0xe9, 0x70, 0x22, 0x3e,
  0x2f, 0x28, 0x5c, 0xed, 0xd5, 0xbb, 0xfe, 0xf3, 0x9b, 0xfb, 0x81, 0x30,
  0x8c, 0xe2, 0xcc, 0xfd, 0x13, 0x3e, 0xb6, 0x4b, 0xe9, 0xea, 0xe8, 0x7f,
  0xac, 0x45, 0x85, 0xef, 0x8e, 0x3e, 0xf9, 0xcb, 0xfd, 0x33, 0x81, 0xcf,
  0x81, 0x7f, 0x38, 0x1a, 0xfb, 0xc0, 0x4a, 0xe9, 0xdc, 0x58, 0xec, 0x7f,
  0xd7, 0x81, 0x81, 0xcd, 0x81, 0x1e, 0xb5, 0x69, 0xff, 0xde, 0xf0, 0x1a,
  0x0c, 0xcb, 0xf5, 0x15, 0x1b, 0xc5, 0x08, 0x44, 0xff, 0xaf, 0xf4, 0x0b,
  0x51, 0x29, 0x5d, 0x15, 0x81, 0xe8, 0xf8, 0xf8, 0x21, 0xf5, 0x07, 0x22,
  0xf2, 0x20, 0x1b, 0xfe, 0xfa, 0x02, 0x78, 0x10, 0x03, 0x50, 0x61, 0x20,
  0x3f, 0x25, 0xb4, 0x56, 0xf2, 0x08, 0x17, 0xe4, 0xf6, 0xf2, 0xff, 0xff,
  0x04, 0x00, 0x00, 0x00, 0xc0, 0x00, 0x00, 0x00, 0x69, 0xc8, 0xff, 0xff,
  0x72, 0xfe, 0xff, 0xff, 0x9a, 0x34, 0x00, 0x00, 0x61, 0x01, 0x00, 0x00,
  0xf9, 0xef, 0xff, 0xff, 0x9f, 0xf3, 0xff, 0xff, 0xa7, 0xf8, 0xff, 0xff,
  0xb8, 0x35, 0x00, 0x00, 0x55, 0x1a, 0x00, 0x00, 0xdd, 0xe9, 0xff, 0xff,
  0x63, 0xea, 0xff, 0xff, 0xa9, 0xd8, 0xff, 0xff, 0x8b, 0x00, 0x00, 0x00,
  0x2e, 0x55, 0x00, 0x00, 0xd3, 0x17, 0x00, 0x00, 0xb4, 0xfe, 0xff, 0xff,
  0xf8, 0x1a, 0x00, 0x00, 0x3a, 0xe5, 0xff, 0xff, 0x15, 0x2b, 0x00, 0x00,
  0xb4, 0xf5, 0xff, 0xff, 0x91, 0x47, 0x00, 0x00, 0x87, 0xf0, 0xff, 0xff,
  0xaf, 0xfb, 0xff, 0xff, 0x3a, 0x04, 0x00, 0x00, 0xb1, 0x10, 0x00, 0x00,
  0x25, 0xed, 0xff, 0xff, 0x56, 0x09, 0x00, 0x00, 0x12, 0xf5, 0xff, 0xff,
  0x50, 0x37, 0x00, 0x00, 0x28, 0xad, 0xff, 0xff, 0x3e, 0xfb, 0xff, 0xff,
  0x0f, 0xfb, 0xff, 0xff, 0xfb, 0xec, 0xff, 0xff, 0xf5, 0x01, 0x00, 0x00,
  0x07, 0xec, 0xff, 0xff, 0x2e, 0xf3, 0xff, 0xff, 0xa4, 0x2d, 0x00, 0x00,
  0x40, 0xdd, 0xff, 0xff, 0x48, 0xee, 0xff, 0xff, 0x83, 0xc4, 0xff, 0xff,
  0x68, 0xfa, 0xff, 0xff, 0x5c, 0x44, 0x00, 0x00, 0x93, 0x0d, 0x00, 0x00,
  0x81, 0xff, 0xff, 0xff, 0x56, 0x09, 0x00, 0x00, 0x7c, 0xef, 0xff, 0xff,
  0x8a, 0x28, 0x00, 0x00, 0xff, 0xe1, 0xff, 0xff, 0xc2, 0xf3, 0xff, 0xff,
  0x04, 0x00, 0x00, 0x00, 0x80, 0x01, 0x00, 0x00, 0x7e, 0xe7, 0x14, 0xcd,
  0x02, 0x21, 0x0b, 0x2a, 0x7f, 0x90, 0x2e, 0x0e, 0xca, 0x3b, 0x09, 0xd3,
  0x18, 0xf0, 0xf0, 0xe8, 0x11, 0xbd, 0xf9, 0xe8, 0xcd, 0xd5, 0xcf, 0xd1,
  0xed, 0x56, 0x01, 0x2a, 0x19, 0xc0, 0x03, 0xd8, 0x46, 0xb9, 0xc4, 0xff,
  0x13, 0xd6, 0xb0, 0x08, 0x3f, 0xde, 0x3d, 0xc6, 0x22, 0x0e, 0xee, 0x49,
  0x39, 0x27, 0x0d, 0x1f, 0x37, 0xb9, 0xf8, 0x16, 0x2e, 0xfc, 0xda, 0xff,
  0xf0, 0xe9, 0xc9, 0x06, 0x1a, 0xc8, 0x2b, 0x4d, 0xf6, 0xc5, 0xea, 0x05,
  0xe3, 0x3d, 0xce, 0x7f, 0xdf, 0x25, 0xe3, 0xe3, 0xbf, 0xfc, 0xfb, 0x00,
  0xc1, 0xed, 0xe3, 0x2a, 0x09, 0xe8, 0x05, 0xae, 0xef, 0x0e, 0xb1, 0x32,
  0xb4, 0xd5, 0xe5, 0x2d, 0xb3, 0xdf, 0xbb, 0xf6, 0x00, 0x06, 0xaa, 0x0d,
  0x3a, 0xde, 0x11, 0xe9, 0x7f, 0x40, 0xf0, 0x09, 0x1c, 0x4a, 0xec, 0x89,
  0xdd, 0x0a, 0x46, 0xee, 0xe2, 0x1b, 0x32, 0xbf, 0x20, 0x05, 0x3c, 0x4a,
  0xc9, 0x4e, 0x18, 0x05, 0xa2, 0x1a, 0xdd, 0x42, 0x0c, 0x00, 0xe7, 0x0f,
  0xf8, 0x0c, 0x09, 0x30, 0x63, 0x6c, 0x81, 0x09, 0x2b, 0xfb, 0xf1, 0x42,
  0xc6, 0x00, 0xfe, 0x4b, 0xe0, 0x06, 0x52, 0x23, 0x08, 0xf6, 0xd3, 0x36,
  0xbc, 0x38, 0xc1, 0xde, 0x01, 0x22, 0x24, 0x18, 0x43, 0x0c, 0x24, 0x27,
  0xb7, 0x58, 0x57, 0x41, 0x35, 0x02, 0xe5, 0xd1, 0xfe, 0xc4, 0x0d, 0xda,
  0xea, 0x5f, 0xd7, 0xc6, 0x01, 0xc2, 0x46, 0x13, 0xd0, 0xf6, 0xfb, 0x0a,
  0x32, 0xee, 0xea, 0x2f, 0xb0, 0xf4, 0x57, 0xe6, 0xb9, 0xd3, 0x12, 0x36,
  0x0b, 0xf4, 0xfe, 0x21, 0xcf, 0x2c, 0xf0, 0x24, 0xdd, 0x1b, 0xec, 0x17,
  0xfb, 0x27, 0xe3, 0x20, 0x7f, 0x3a, 0xfa, 0xf6, 0xca, 0xdb, 0x36, 0x81,
  0xe2, 0x0c, 0xe7, 0xd3, 0xfd, 0x3b, 0xda, 0x55, 0xbc, 0x1c, 0x2d, 0xf4,
  0x4e, 0x4a, 0x4f, 0x03, 0x1c, 0x05, 0x03, 0xbe, 0x0f, 0xb3, 0x07, 0xc9,
  0xe8, 0xf5, 0x09, 0xa5, 0xf8, 0xb8, 0x3a, 0xfa, 0xdd, 0x37, 0x16, 0x52,
  0x50, 0x03, 0x20, 0x02, 0xf9, 0x03, 0xd7, 0x2b, 0xb8, 0xc9, 0x21, 0x40,
  0xee, 0xd6, 0xf1, 0xc0, 0x9d, 0x31, 0x81, 0x1c, 0x10, 0xbd, 0x2c, 0x2c,
  0xd0, 0x12, 0x07, 0x68, 0xf5, 0xf7, 0x3d, 0x38, 0xbb, 0x22, 0x1d, 0xf2,
  0x27, 0xc9, 0xee, 0xe1, 0xe4, 0x48, 0x35, 0xb8, 0xf8, 0x36, 0x4c, 0xd9,
  0xc4, 0x31, 0x3a, 0xab, 0xe9, 0xc0, 0xe4, 0x1d, 0x09, 0x08, 0xfa, 0xec,
  0xff, 0x08, 0xd9, 0xd4, 0x81, 0xd7, 0x60, 0x34, 0x08, 0xd0, 0x31, 0x08,
  0x27, 0x3f, 0x0d, 0xf0, 0xda, 0x07, 0xe8, 0xd6, 0x1e, 0xf2, 0xc3, 0xec,
  0xed, 0xfe, 0xd6, 0xd5, 0x85, 0xb1, 0xcd, 0xf5, 0x2b, 0xeb, 0xd9, 0x17,
  0x26, 0x02, 0x38, 0xff, 0x0f, 0xd3, 0x21, 0x0f, 0x4e, 0xf5, 0xff, 0xff,
  0x04, 0x00, 0x00, 0x00, 0x20, 0x00, 0x00, 0x00, 0x46, 0xe5, 0xff, 0xff,
  0x2e, 0xf9, 0xff, 0xff, 0x53, 0xf9, 0xff, 0xff, 0xed, 0xbd, 0xff, 0xff,
  0xba, 0x03, 0x00, 0x00, 0xb9, 0xfb, 0xff, 0xff, 0x03, 0x20, 0x00, 0x00,
  0x1c, 0x37, 0x00, 0x00, 0x7a, 0xf5, 0xff, 0xff, 0x04, 0x00, 0x00, 0x00,
  0x80, 0x01, 0x00, 0x00, 0xeb, 0x0d, 0x7f, 0xf8, 0xf8, 0x33, 0x08, 0xb8,
  0x62, 0x97, 0x50, 0x8b, 0x0b, 0xd1, 0x7f, 0x07, 0x22, 0x46, 0x31, 0xd6,
  0xbf, 0xfe, 0x7f, 0xd9, 0x13, 0x17, 0xf9, 0xdd, 0x26, 0xa0, 0x7f, 0x03,
  0x79, 0xea, 0xa4, 0xdd, 0x81, 0xab, 0x06, 0x4f, 0x18, 0x66, 0x7f, 0xfb,
  0xfe, 0xdc, 0x34, 0xe6, 0x5f, 0x7f, 0x04, 0x67, 0xbb, 0x21, 0x26, 0x56,
  0xda, 0xee, 0x09, 0x1b, 0x32, 0x90, 0x81, 0xcb, 0x7f, 0x5e, 0xb6, 0x4c,
  0x8f, 0x2e, 0x8d, 0xcf, 0x7f, 0xcf, 0xdb, 0x1a, 0x0d, 0xe7, 0x0b, 0x96,
  0x49, 0x2b, 0xf8, 0x19, 0xc6, 0x7f, 0x34, 0x1a, 0x68, 0xe7, 0x10, 0x81,
  0x55, 0xd1, 0xc8, 0x4c, 0xbf, 0x7f, 0x72, 0xe7, 0xfc, 0x51, 0xba, 0x7f,
  0x6e, 0x15, 0x9e, 0x14, 0x18, 0xb4, 0x39, 0x81, 0x7f, 0x08, 0xe7, 0xe0,
  0x90, 0x1c, 0x93, 0xe2, 0x11, 0xe4, 0x81, 0xcf, 0xa5, 0xc4, 0x53, 0x7a,
  0xe4, 0xdf, 0x7f, 0xf1, 0x5c, 0xdb, 0xbc, 0xcc, 0x15, 0xfc, 0x6a, 0xfd,
  0x7f, 0xcb, 0xbc, 0xed, 0x7f, 0xbb, 0x64, 0x1e, 0xf5, 0x0c, 0xc2, 0xf0,
  0x27, 0x39, 0x29, 0xd4, 0xce, 0x81, 0x23, 0xe0, 0x13, 0xfa, 0x47, 0x7f,
  0xf4, 0xcc, 0xd8, 0x4d, 0x36, 0xe6, 0xa2, 0x81, 0x4c, 0xaf, 0x18, 0x3e,
  0xc4, 0xc1, 0xe2, 0xef, 0x0d, 0xda, 0x7f, 0xc6, 0xea, 0x24, 0x1f, 0xdb,
  0x81, 0x86, 0x18, 0xe7, 0x74, 0x05, 0x51, 0x33, 0xca, 0xd8, 0x81, 0x7d,
  0x41, 0x5b, 0xeb, 0xdb, 0xcd, 0xf3, 0x13, 0x7f, 0xc0, 0xd6, 0x0b, 0x81,
  0x66, 0xdf, 0xe2, 0xb4, 0x53, 0x7f, 0x09, 0xd9, 0xf5, 0x4a, 0x20, 0x10,
  0x2f, 0x37, 0xef, 0xe8, 0x1c, 0xf4, 0xd2, 0x7f, 0x68, 0x0e, 0x7f, 0x6f,
  0x16, 0x00, 0x81, 0x48, 0x7f, 0xab, 0xa2, 0x63, 0x42, 0xe8, 0xd0, 0x4e,
  0x52, 0x9c, 0x07, 0x28, 0xc3, 0x89, 0x81, 0x10, 0x87, 0xc8, 0x39, 0x89,
  0x3f, 0x0e, 0xe8, 0x81, 0x01, 0x1c, 0x1c, 0x13, 0x0b, 0xd7, 0x7f, 0x02,
  0xba, 0x60, 0x7f, 0xd6, 0x35, 0xd7, 0xf4, 0x65, 0xb6, 0x39, 0x0e, 0x5b,
  0xe1, 0x7f, 0x42, 0x00, 0x49, 0x24, 0xe1, 0x81, 0x21, 0xfd, 0x24, 0x2c,
  0x1c, 0x22, 0x10, 0x12, 0xbc, 0x7f, 0x24, 0x28, 0x02, 0xd1, 0x29, 0x58,
  0x00, 0x30, 0xf9, 0x7f, 0x02, 0x0b, 0x81, 0x37, 0xf4, 0xe0, 0x01, 0x3c,
  0x26, 0x0f, 0xc4, 0x10, 0xc4, 0x3d, 0xbd, 0x7f, 0x0b, 0x19, 0xff, 0xd5,
  0x83, 0x81, 0x1c, 0xce, 0xb1, 0x47, 0xa7, 0x70, 0xf3, 0x3e, 0x02, 0x81,
  0xe3, 0x06, 0xd6, 0x81, 0xe4, 0xf8, 0x00, 0xbc, 0x2f, 0x1b, 0x32, 0x45,
  0x07, 0x7f, 0xe3, 0x2b, 0x08, 0x3d, 0xe6, 0x0b, 0x7f, 0xda, 0xba, 0xf5,
  0x36, 0xa3, 0xe0, 0x7f, 0x62, 0x2b, 0xce, 0x43, 0xda, 0x81, 0x19, 0xe7,
  0x60, 0x17, 0x49, 0x0e, 0x06, 0xf7, 0xff, 0xff, 0x04, 0x00, 0x00, 0x00,
  0xc0, 0x00, 0x00, 0x00, 0x9b, 0x04, 0x00, 0x00, 0x51, 0xf7, 0xff, 0xff,
  0xc4, 0x0d, 0x00, 0x00, 0x65, 0x07, 0x00, 0x00, 0xda, 0x0c, 0x00, 0x00,
  0xdc, 0xff, 0xff, 0xff, 0x98, 0x06, 0x00, 0x00, 0xb5, 0x10, 0x00, 0x00,
  0x9b, 0xf3, 0xff, 0xff, 0x8d, 0xfb, 0xff, 0xff, 0x69, 0xfa, 0xff, 0xff,
  0xce, 0x11, 0x00, 0x00, 0x88, 0x15, 0x00, 0x00, 0x46, 0x15, 0x00, 0x00,
  0x76, 0x17, 0x00, 0x00, 0x6b, 0xef, 0xff, 0xff, 0xb5, 0xfa, 0xff, 0xff,
  0xbc, 0x32, 0x00, 0x00, 0x31, 0x09, 0x00, 0x00, 0xc1, 0x0e, 0x00, 0x00,
  0xde, 0x1e, 0x00, 0x00, 0xbc, 0x24, 0x00, 0x00, 0x1a, 0x3d, 0x00, 0x00,
  0xe1, 0x02, 0x00, 0x00, 0x5f, 0xf9, 0xff, 0xff, 0x9d, 0x06, 0x00, 0x00,
  0xba, 0x01, 0x00, 0x00, 0xa2, 0xfc, 0xff, 0xff, 0x1b, 0x07, 0x00, 0x00,
  0xaa, 0x0a, 0x00, 0x00, 0x4b, 0x0d, 0x00, 0x00, 0x69, 0x13, 0x00, 0x00,
  0x2e, 0xfc, 0xff, 0xff, 0x16, 0x01, 0x00, 0x00, 0x14, 0x2c, 0x00, 0x00,
  0x24, 0x0b, 0x00, 0x00, 0x3f, 0x1a, 0x00, 0x00, 0x3a, 0x09, 0x00, 0x00,
  0x7e, 0x06, 0x00, 0x00, 0xb9, 0xfc, 0xff, 0xff, 0x06, 0x0f, 0x00, 0x00,
  0xaa, 0xf8, 0xff, 0xff, 0xa7, 0x14, 0x00, 0x00, 0xb8, 0xfd, 0xff, 0xff,
  0x39, 0x02, 0x00, 0x00, 0x7b, 0x05, 0x00, 0x00, 0xf3, 0xf4, 0xff, 0xff,
  0xd4, 0x22, 0x00, 0x00, 0xd2, 0xf7, 0xff, 0xff, 0x04, 0x00, 0x00, 0x00,
  0x00, 0x06, 0x00, 0x00, 0xc6, 0xc9, 0x50, 0x0a, 0x35, 0xed, 0xb3, 0xa8,
  0x09, 0x8f, 0x9a, 0xe7, 0x1d, 0xff, 0xdc, 0x27, 0xaf, 0xdc, 0xaf, 0xd8,
  0xb4, 0xab, 0xff, 0x57, 0x81, 0xf9, 0x21, 0xd8, 0x4a, 0xe1, 0xcd, 0xae,
  0x28, 0xcc, 0xb3, 0x29, 0xa0, 0xbd, 0x9a, 0x02, 0x23, 0xbb, 0xb8, 0x3f,
  0x07, 0x93, 0x3a, 0xcb, 0xe3, 0x15, 0xcb, 0xe3, 0xe0, 0x34, 0x29, 0x03,
  0x3d, 0x81, 0xc6, 0x5b, 0x4a, 0xbd, 0x27, 0xfa, 0x46, 0xe9, 0x37, 0x51,
  0xe6, 0x03, 0x1c, 0x05, 0x27, 0x11, 0xd6, 0x4d, 0x12, 0x11, 0x57, 0xdb,
  0x1d, 0x2f, 0x01, 0x25, 0x2d, 0x45, 0x0c, 0xad, 0xe1, 0xd6, 0xf6, 0xb3,
  0xfc, 0x18, 0x03, 0xe4, 0x08, 0x21, 0xaf, 0x2f, 0xd7, 0xb4, 0x29, 0x39,
  0x98, 0x4c, 0xc3, 0x4f, 0x29, 0xe6, 0x26, 0x87, 0x1f, 0xd1, 0x02, 0x12,
  0x94, 0xd8, 0x3e, 0xf2, 0xfa, 0x25, 0x60, 0xee, 0xa9, 0x2c, 0x36, 0x33,
  0xcc, 0xd2, 0x97, 0x87, 0xa0, 0x2c, 0x34, 0xd7, 0x81, 0xaa, 0xec, 0xe8,
  0x9d, 0x68, 0x2e, 0xad, 0x53, 0xe9, 0x3b, 0xf6, 0xab, 0x43, 0xb2, 0x04,
  0x42, 0xc9, 0x68, 0xf1, 0x75, 0x24, 0x54, 0x03, 0x12, 0x58, 0xe6, 0x09,
  0x74, 0xad, 0xbc, 0xa5, 0x00, 0x9f, 0x81, 0x7e, 0x46, 0xaf, 0x39, 0x02,
  0x94, 0xed, 0xfc, 0x06, 0xa7, 0x08, 0x40, 0xff, 0xf7, 0xa5, 0xab, 0xdf,
  0x66, 0xf9, 0xe1, 0xa9, 0x39, 0x45, 0x06, 0x2e, 0xbf, 0xf3, 0x24, 0xf8,
  0x01, 0x00, 0xf6, 0x19, 0x26, 0x9d, 0xef, 0x84, 0xa6, 0xf3, 0xc7, 0x03,
  0x67, 0x9b, 0x47, 0x13, 0xcc, 0xe7, 0x0c, 0xb9, 0xd6, 0x22, 0x90, 0xc2,
  0x0c, 0x6e, 0x0f, 0xa4, 0xc0, 0x03, 0x97, 0xe5, 0xc7, 0x93, 0xb5, 0x81,
  0x20, 0x4f, 0x03, 0x26, 0x51, 0xa5, 0x60, 0x69, 0x1b, 0xc7, 0x31, 0x2a,
  0x53, 0x86, 0x0f, 0xab, 0x1b, 0x58, 0x1d, 0x4a, 0xe0, 0x31, 0xb5, 0x68,
  0x21, 0x31, 0x1b, 0x11, 0x81, 0xd4, 0xb7, 0xd4, 0x3f, 0xfc, 0xe7, 0xa1,
  0xb4, 0x2c, 0xd4, 0x25, 0xa6, 0xf7, 0x25, 0x1a, 0xb6, 0x05, 0x37, 0x3a,
  0xcc, 0xff, 0xde, 0xbc, 0xf1, 0xc0, 0x3a, 0x1d, 0xa2, 0xae, 0xe4, 0x18,
  0xe0, 0xad, 0xe9, 0x9d, 0x24, 0x14, 0x40, 0x83, 0x38, 0xe3, 0xe6, 0x34,
  0xa8, 0x83, 0x38, 0x0f, 0xbd, 0x9d, 0xdf, 0xb3, 0xcc, 0x8c, 0x11, 0xa9,
  0x9e, 0x81, 0xbb, 0x8e, 0xda, 0x02, 0x8d, 0x24, 0x27, 0x0c, 0xf5, 0xd6,
  0x8c, 0x33, 0xbb, 0xbe, 0x7f, 0x2f, 0xf4, 0xe6, 0xbb, 0x70, 0x09, 0xf6,
  0x7a, 0xb1, 0xc9, 0x0a, 0x51, 0x84, 0x42, 0x49, 0xf1, 0x17, 0x1c, 0x6f,
  0x41, 0x2d, 0x03, 0x63, 0xcd, 0x69, 0x01, 0x3f, 0xd1, 0x70, 0xe7, 0x2c,
  0xed, 0x25, 0x4d, 0x76, 0xa5, 0x71, 0x12, 0xcc, 0x6d, 0xac, 0x62, 0x35,
  0x4b, 0xec, 0x77, 0x9c, 0x10, 0xf8, 0xfa, 0xdc, 0x21, 0x30, 0xe2, 0xe7,
  0x07, 0xe2, 0x37, 0x2c, 0x14, 0xd7, 0xcb, 0xeb, 0x81, 0x43, 0xd6, 0x1d,
  0x1d, 0xf4, 0x43, 0x70, 0x9f, 0x49, 0xf6, 0x4e, 0xe5, 0x07, 0xa0, 0x4d,
  0x1e, 0x0a, 0x2e, 0x11, 0x55, 0x18, 0xfe, 0x2b, 0x3f, 0x71, 0xc1, 0x9a,
  0xfe, 0xd4, 0xe6, 0x45, 0x17, 0xf5, 0x54, 0x00, 0x1b, 0x93, 0xb8, 0x83,
  0x0b, 0x12, 0xe6, 0x1a, 0xf5, 0x81, 0x95, 0xb4, 0xdf, 0xf8, 0x9b, 0x99,
  0xf4, 0x43, 0x87, 0x8a, 0x55, 0xe3, 0xde, 0xf6, 0xe5, 0xb9, 0x8a, 0x49,
  0x22, 0xcb, 0x1b, 0xe4, 0x9d, 0x04, 0xda, 0xa2, 0x1c, 0x8f, 0x21, 0xa8,
  0x42, 0xff, 0x91, 0x28, 0xda, 0x36, 0x63, 0xd7, 0xed, 0x5f, 0x72, 0x07,
  0x2b, 0xd3, 0x34, 0xbd, 0x6c, 0x1e, 0xf6, 0x14, 0xb1, 0x46, 0xc4, 0xcf,
  0xfa, 0x20, 0x34, 0xd8, 0x1b, 0x35, 0x81, 0xad, 0xed, 0x4a, 0xa2, 0xc0,
  0x25, 0x64, 0x6f, 0x52, 0xe2, 0x21, 0xf9, 0x07, 0xf1, 0x59, 0xb1, 0xd9,
  0xc5, 0xbe, 0x07, 0xcd, 0x3d, 0xf1, 0xd3, 0x3b, 0x49, 0x07, 0x10, 0xfb,
  0x4a, 0x39, 0x9c, 0x43, 0xd6, 0x9d, 0xf9, 0xa9, 0xe8, 0x84, 0x17, 0x05,
  0xf9, 0x21, 0xf4, 0x81, 0xa1, 0x8f, 0xd4, 0x21, 0x26, 0xd8, 0xf9, 0xcf,
  0x96, 0xa3, 0x0b, 0x06, 0xa9, 0x20, 0xc4, 0xac, 0xc8, 0x41, 0x9e, 0xe5,
  0xb8, 0xac, 0xc9, 0x8f, 0x20, 0x5a, 0xe2, 0xff, 0x3a, 0x09, 0xe2, 0x17,
  0xc0, 0x58, 0x20, 0x20, 0xe7, 0x0e, 0x18, 0xe2, 0x18, 0x03, 0xeb, 0xd7,
  0x11, 0x07, 0x19, 0x31, 0xe2, 0xef, 0x7d, 0xea, 0x28, 0x07, 0x05, 0x43,
  0x17, 0xd3, 0xf3, 0x08, 0x0e, 0xd4, 0xfa, 0x3c, 0x42, 0x16, 0xc5, 0x13,
  0xec, 0xfc, 0x08, 0x7f, 0x30, 0xca, 0x5e, 0x61, 0x3e, 0x64, 0x47, 0x1d,
  0x30, 0xa8, 0x04, 0xc8, 0x28, 0x3a, 0x25, 0x0a, 0x81, 0xbf, 0xac, 0x27,
  0x21, 0xf1, 0x57, 0x01, 0xbd, 0x1d, 0xcc, 0x23, 0xd3, 0xa8, 0x04, 0x0b,
  0xf4, 0x69, 0xec, 0x27, 0xcb, 0xf5, 0xf7, 0x36, 0xcb, 0x5f, 0xea, 0xf1,
  0xc4, 0xfb, 0xdb, 0xcb, 0xdf, 0x96, 0x66, 0x59, 0x3a, 0x04, 0x13, 0x9a,
  0xc9, 0xb5, 0x58, 0x33, 0x02, 0xad, 0xc3, 0xd8, 0x9b, 0xd5, 0x1d, 0x25,
  0xec, 0x26, 0x0b, 0x56, 0xa7, 0xd0, 0xbc, 0x2f, 0xbf, 0xa9, 0xae, 0x22,
  0x32, 0x13, 0xf7, 0x20, 0x55, 0x7f, 0x35, 0xa1, 0x0b, 0xc1, 0x34, 0x3b,
  0x4f, 0x98, 0x42, 0xb9, 0x1e, 0xed, 0xf3, 0x22, 0x48, 0xbb, 0x3e, 0xb4,
  0x32, 0xd7, 0xec, 0x14, 0x68, 0xda, 0xd6, 0x81, 0x2d, 0x11, 0xdc, 0x0c,
  0x31, 0x18, 0x36, 0x45, 0x4e, 0x3c, 0x11, 0x48, 0x20, 0x3b, 0x3c, 0xc7,
  0xef, 0xea, 0xde, 0x0e, 0xd8, 0x6c, 0x6b, 0xb3, 0x22, 0x2d, 0xe5, 0xe8,
  0x30, 0xc2, 0xfe, 0xd3, 0xad, 0xf1, 0x6c, 0xf6, 0x20, 0x6b, 0xe6, 0x10,
  0x24, 0x13, 0x9f, 0x0c, 0xdb, 0xe8, 0xc7, 0x01, 0x26, 0x29, 0x0d, 0x4b,
  0x47, 0x41, 0xeb, 0x4f, 0xc8, 0x2a, 0x8e, 0x48, 0xbd, 0xed, 0xe5, 0xee,
  0x81, 0x66, 0x24, 0x2e, 0xe7, 0x28, 0xb4, 0xd4, 0xf2, 0x0d, 0x49, 0x2c,
  0x0b, 0x38, 0x1f, 0xcf, 0xfc, 0x86, 0xf6, 0x20, 0xbc, 0x82, 0xa8, 0x93,
  0x04, 0xa4, 0x20, 0x09, 0x2d, 0x18, 0x81, 0x04, 0x3f, 0x0a, 0x35, 0x3e,
  0x93, 0xd3, 0xe9, 0xb4, 0xf2, 0x10, 0xa0, 0xef, 0x33, 0xb3, 0xca, 0x21,
  0xc7, 0xc9, 0xf7, 0xe1, 0xb5, 0x2e, 0x93, 0xc1, 0x8d, 0xc1, 0xd0, 0xd6,
  0xe2, 0xe8, 0x30, 0x82, 0x09, 0x7e, 0x5c, 0xef, 0x2d, 0xb4, 0xc8, 0x57,
  0xf6, 0x75, 0xb9, 0x33, 0x15, 0x4a, 0x62, 0xce, 0x5f, 0x41, 0x53, 0x19,
  0x7f, 0x2c, 0x5b, 0xd5, 0x0d, 0xd8, 0x46, 0x31, 0x26, 0x45, 0x56, 0x69,
  0x69, 0xed, 0xf9, 0xf9, 0x2b, 0x3d, 0x2a, 0x4b, 0x20, 0xe7, 0x2b, 0x46,
  0xd4, 0x58, 0x3a, 0x55, 0x04, 0x16, 0x22, 0x0a, 0x17, 0xbd, 0x30, 0x32,
  0x2f, 0xca, 0x04, 0xf0, 0xb2, 0x08, 0xcd, 0x18, 0x7f, 0xb2, 0x3b, 0x17,
  0xe4, 0x26, 0xce, 0xf8, 0x2d, 0xbd, 0x34, 0xc6, 0xb5, 0xa7, 0xc9, 0x10,
  0x51, 0xba, 0x09, 0xef, 0xf8, 0xc4, 0xce, 0xb0, 0x0e, 0xa4, 0xba, 0xff,
  0xba, 0x1b, 0x5c, 0xcb, 0xd6, 0x1f, 0x13, 0x28, 0x99, 0x2a, 0xf0, 0x05,
  0xf7, 0xf2, 0xb4, 0xe0, 0xe3, 0x2d, 0x07, 0xa5, 0xbd, 0xae, 0x99, 0xbc,
  0xe0, 0xad, 0x8e, 0x97, 0x25, 0xa7, 0xa9, 0x24, 0xef, 0x01, 0xb6, 0x3a,
  0x48, 0xf8, 0xc1, 0xfe, 0xfe, 0xc3, 0xc7, 0x81, 0x97, 0xc1, 0x84, 0x9d,
  0xf5, 0xbe, 0xae, 0x3e, 0x4b, 0x20, 0x46, 0xc9, 0x3c, 0xd9, 0x4a, 0xfc,
  0x0a, 0xa2, 0xe9, 0x0f, 0x18, 0x02, 0xe9, 0xcc, 0x81, 0xec, 0x23, 0xfd,
  0x54, 0xe1, 0x35, 0xda, 0x32, 0xcb, 0xc3, 0x42, 0x1f, 0x0c, 0xe9, 0xf1,
  0xde, 0x22, 0xca, 0xc4, 0x4e, 0x5b, 0xc0, 0xd5, 0x07, 0x0a, 0x21, 0xe5,
  0xd1, 0xb5, 0xd0, 0x39, 0x19, 0xc2, 0xde, 0xd4, 0x27, 0xf1, 0x4f, 0x27,
  0x92, 0x20, 0xc6, 0x93, 0x53, 0xab, 0x9e, 0xba, 0xe8, 0x40, 0x8c, 0xe0,
  0x3d, 0xc9, 0x1f, 0x30, 0x24, 0xe8, 0x86, 0x5d, 0xce, 0xad, 0x9c, 0x93,
  0x08, 0x4a, 0x14, 0x15, 0xfd, 0xf3, 0xc4, 0x81, 0xde, 0xfe, 0x0a, 0x30,
  0x0a, 0x97, 0x20, 0xe1, 0x11, 0xa8, 0x1e, 0x52, 0x4d, 0xad, 0x15, 0x99,
  0x2d, 0xb1, 0x41, 0x11, 0xf8, 0xba, 0xfe, 0x11, 0x1b, 0xcd, 0x81, 0x65,
  0x38, 0xb6, 0x51, 0x09, 0xd2, 0xf6, 0x08, 0x23, 0x43, 0x00, 0x04, 0xc1,
  0xb3, 0x48, 0x04, 0x19, 0x45, 0xf8, 0x8e, 0x0c, 0x9c, 0x31, 0x0c, 0x8d,
  0xa6, 0x9c, 0x30, 0xf2, 0xc3, 0xb8, 0xbb, 0xd7, 0xab, 0xaf, 0xde, 0x90,
  0x47, 0x12, 0x71, 0x1d, 0x7f, 0xfd, 0xeb, 0x8d, 0x84, 0x23, 0x31, 0xd2,
  0x5f, 0xbb, 0xc9, 0xf6, 0x49, 0xf3, 0xfb, 0x45, 0x78, 0x3e, 0xf3, 0xc8,
  0xb7, 0x20, 0x36, 0x29, 0xd3, 0xd1, 0x4f, 0xc8, 0xce, 0xad, 0x5d, 0xc4,
  0x31, 0xbd, 0x34, 0x3b, 0xeb, 0x31, 0xd9, 0xfe, 0x4f, 0xfa, 0xb9, 0x44,
  0x14, 0x41, 0xae, 0x3e, 0x29, 0x3d, 0xc9, 0xdb, 0x30, 0x4d, 0x03, 0xdb,
  0x32, 0x51, 0x1f, 0xd1, 0x08, 0xf7, 0x14, 0x2e, 0x2f, 0xda, 0x3a, 0x58,
  0x7f, 0xb8, 0x31, 0x24, 0x60, 0xce, 0xeb, 0x11, 0xd7, 0x2e, 0xd2, 0x4d,
  0x14, 0x65, 0x16, 0x4a, 0x10, 0x81, 0xd7, 0xdd, 0x9f, 0xe5, 0xe5, 0xd0,
  0x95, 0x86, 0x41, 0x2a, 0xa8, 0xc0, 0xf4, 0xe8, 0x22, 0xfb, 0xa7, 0xb3,
  0xf2, 0x22, 0x35, 0xf5, 0x17, 0x26, 0xda, 0x13, 0xf8, 0xef, 0x9c, 0xe8,
  0xb2, 0xb5, 0x94, 0x93, 0xb2, 0x2f, 0xbf, 0x3e, 0x9a, 0x41, 0x15, 0xf5,
  0xaf, 0x16, 0xc8, 0x31, 0x3c, 0x26, 0xfd, 0xe7, 0xdc, 0xed, 0xee, 0x32,
  0x28, 0x7b, 0x2a, 0xf5, 0x0b, 0x58, 0x52, 0xfd, 0x59, 0x2a, 0x3b, 0xf1,
  0xef, 0x3b, 0x2f, 0xfe, 0xce, 0x2d, 0x06, 0x0e, 0x38, 0x29, 0x22, 0x23,
  0x64, 0x32, 0xf3, 0xfe, 0xfc, 0xfa, 0xe4, 0x51, 0xeb, 0x05, 0x4b, 0x4c,
  0x52, 0x3b, 0x39, 0x7f, 0x38, 0x1b, 0x34, 0x0d, 0x89, 0xaa, 0x9a, 0xa4,
  0xf3, 0xd2, 0x58, 0x2b, 0x9e, 0x9c, 0xee, 0x43, 0x7f, 0x4b, 0xa7, 0x27,
  0xcf, 0xfc, 0x86, 0x9f, 0xbb, 0x53, 0xaf, 0xf1, 0xa3, 0xa5, 0x10, 0xda,
  0x8b, 0xf3, 0x2c, 0x29, 0xf8, 0x89, 0xc3, 0x1d, 0x47, 0x0c, 0x92, 0x15,
  0xa7, 0xf1, 0x2e, 0x13, 0x10, 0x13, 0x13, 0xb8, 0x9d, 0xee, 0x81, 0xe9,
  0x38, 0xe1, 0x9a, 0x96, 0x3e, 0x90, 0xbc, 0xee, 0xd4, 0x3a, 0xfb, 0xad,
  0xa5, 0xc8, 0x12, 0xe9, 0xd2, 0xed, 0xc6, 0xcc, 0x8e, 0xdf, 0x3d, 0xe1,
  0x16, 0xe5, 0xa2, 0xb6, 0xdc, 0x3b, 0xe0, 0x5d, 0x0f, 0x41, 0xbf, 0x2c,
  0xe5, 0x3c, 0xfa, 0xd1, 0x20, 0xa1, 0xc5, 0x15, 0x93, 0xfb, 0xca, 0xbf,
  0x52, 0xd3, 0x17, 0xeb, 0xb6, 0xea, 0x3c, 0xed, 0xce, 0x25, 0x69, 0x90,
  0x21, 0xb1, 0xa0, 0xed, 0x9f, 0x04, 0x92, 0x5c, 0xf3, 0xac, 0xc0, 0x04,
  0x81, 0xa3, 0x9d, 0xdf, 0x12, 0x05, 0x10, 0xcc, 0x54, 0x9a, 0xf4, 0x35,
  0x75, 0xb3, 0x74, 0x4e, 0x23, 0x94, 0xfd, 0x32, 0x0d, 0x11, 0xb4, 0x90,
  0xd3, 0xdd, 0xa1, 0x9a, 0x2f, 0x84, 0xbc, 0x3b, 0xf8, 0x94, 0x02, 0x0a,
  0x16, 0xfd, 0xc5, 0x35, 0x14, 0x81, 0x01, 0x04, 0xa6, 0xa9, 0x11, 0x3e,
  0xf2, 0xef, 0x91, 0xd8, 0x30, 0xc7, 0xa5, 0x89, 0x12, 0xa9, 0xc6, 0xfa,
  0xe6, 0xb3, 0xd1, 0xf1, 0xde, 0xfd, 0xff, 0xff, 0x04, 0x00, 0x00, 0x00,
  0x80, 0x00, 0x00, 0x00, 0x5d, 0xff, 0xff, 0xff, 0xd4, 0x01, 0x00, 0x00,
  0x24, 0xfb, 0xff, 0xff, 0xd6, 0x00, 0x00, 0x00, 0x18, 0xff, 0xff, 0xff,
  0x5a, 0x02, 0x00, 0x00, 0x90, 0xfa, 0xff, 0xff, 0xec, 0x02, 0x00, 0x00,
  0xe9, 0x01, 0x00, 0x00, 0x00, 0xfd, 0xff, 0xff, 0x4a, 0x02, 0x00, 0x00,
  0x93, 0xfa, 0xff, 0xff, 0x51, 0x01, 0x00, 0x00, 0x20, 0x01, 0x00, 0x00,
  0xfd, 0x02, 0x00, 0x00, 0xd4, 0x01, 0x00, 0x00, 0x07, 0x01, 0x00, 0x00,
  0x21, 0xfa, 0xff, 0xff, 0x39, 0x0c, 0x00, 0x00, 0x2a, 0xfd, 0xff, 0xff,
  0xce, 0xf7, 0xff, 0xff, 0xdc, 0x01, 0x00, 0x00, 0xcc, 0x00, 0x00, 0x00,
  0x15, 0xff, 0xff, 0xff, 0x2d, 0x01, 0x00, 0x00, 0x26, 0x04, 0x00, 0x00,
  0x44, 0xfb, 0xff, 0xff, 0x3c, 0x08, 0x00, 0x00, 0xd9, 0xfb, 0xff, 0xff,
  0xfd, 0xfa, 0xff, 0xff, 0x63, 0x01, 0x00, 0x00, 0x14, 0xfa, 0xff, 0xff,
  0x6a, 0xfe, 0xff, 0xff, 0x04, 0x00, 0x00, 0x00, 0x60, 0x00, 0x00, 0x00,
  0x17, 0x10, 0x4f, 0xaa, 0xee, 0x18, 0xe1, 0x01, 0xff, 0x05, 0xf7, 0xdc,
  0x50, 0xc3, 0x08, 0xe4, 0xe4, 0x19, 0x3f, 0x44, 0x08, 0xf4, 0x20, 0xb4,
  0x8c, 0x7f, 0xed, 0x17, 0x32, 0x08, 0xe3, 0xe8, 0x2e, 0xeb, 0xd1, 0x07,
  0x07, 0x7f, 0x09, 0x02, 0x6b, 0xee, 0x0e, 0xcd, 0x8a, 0x76, 0x31, 0xde,
  0x61, 0xeb, 0xb7, 0xb4, 0xaa, 0x0f, 0x5f, 0x4e, 0xfe, 0x83, 0x0e, 0xb5,
  0xcf, 0xe1, 0xec, 0x02, 0xcd, 0x49, 0xcd, 0x48, 0x3c, 0xdf, 0xfb, 0x6f,
  0x4e, 0x34, 0x71, 0x15, 0x99, 0xc0, 0x56, 0x73, 0xc1, 0xe9, 0xe9, 0xa9,
  0x50, 0x61, 0xd4, 0xb8, 0x55, 0xb9, 0x01, 0x81, 0x27, 0xd1, 0x56, 0x02,
  0xd6, 0xfe, 0xff, 0xff, 0x04, 0x00, 0x00, 0x00, 0x0c, 0x00, 0x00, 0x00,
  0x98, 0x3b, 0x00, 0x00, 0x28, 0x8a, 0xff, 0xff, 0x66, 0x92, 0xff, 0xff,
  0xee, 0xfe, 0xff, 0xff, 0x04, 0x00, 0x00, 0x00, 0x20, 0x00, 0x00, 0x00,
  0x00, 0x00, 0x00, 0x00, 0x00, 0x00, 0x00, 0x00, 0x00, 0x00, 0x00, 0x00,
  0x01, 0x00, 0x00, 0x00, 0x00, 0x00, 0x00, 0x00, 0x01, 0x00, 0x00, 0x00,
  0x00, 0x00, 0x00, 0x00, 0x00, 0x00, 0x00, 0x00, 0x68, 0x94, 0xff, 0xff,
  0x6c, 0x94, 0xff, 0xff, 0x0f, 0x00, 0x00, 0x00, 0x4d, 0x4c, 0x49, 0x52,
  0x20, 0x43, 0x6f, 0x6e, 0x76, 0x65, 0x72, 0x74, 0x65, 0x64, 0x2e, 0x00,
  0x01, 0x00, 0x00, 0x00, 0x14, 0x00, 0x00, 0x00, 0x00, 0x00, 0x0e, 0x00,
  0x18, 0x00, 0x14, 0x00, 0x10, 0x00, 0x0c, 0x00, 0x08, 0x00, 0x04, 0x00,
  0x0e, 0x00, 0x00, 0x00, 0x14, 0x00, 0x00, 0x00, 0x1c, 0x00, 0x00, 0x00,
  0x64, 0x07, 0x00, 0x00, 0x68, 0x07, 0x00, 0x00, 0x6c, 0x07, 0x00, 0x00,
  0x04, 0x00, 0x00, 0x00, 0x6d, 0x61, 0x69, 0x6e, 0x00, 0x00, 0x00, 0x00,
  0x1c, 0x00, 0x00, 0x00, 0x00, 0x07, 0x00, 0x00, 0x98, 0x06, 0x00, 0x00,
  0x40, 0x06, 0x00, 0x00, 0x0c, 0x06, 0x00, 0x00, 0xcc, 0x05, 0x00, 0x00,
  0x98, 0x05, 0x00, 0x00, 0x3c, 0x05, 0x00, 0x00, 0x00, 0x05, 0x00, 0x00,
  0xc0, 0x04, 0x00, 0x00, 0x78, 0x04, 0x00, 0x00, 0x3c, 0x04, 0x00, 0x00,
  0x08, 0x04, 0x00, 0x00, 0xc8, 0x03, 0x00, 0x00, 0x94, 0x03, 0x00, 0x00,
  0x48, 0x03, 0x00, 0x00, 0x0c, 0x03, 0x00, 0x00, 0xcc, 0x02, 0x00, 0x00,
  0x84, 0x02, 0x00, 0x00, 0x48, 0x02, 0x00, 0x00, 0x14, 0x02, 0x00, 0x00,
  0xd4, 0x01, 0x00, 0x00, 0x8c, 0x01, 0x00, 0x00, 0x50, 0x01, 0x00, 0x00,
  0x1c, 0x01, 0x00, 0x00, 0xdc, 0x00, 0x00, 0x00, 0x8c, 0x00, 0x00, 0x00,
  0x40, 0x00, 0x00, 0x00, 0x04, 0x00, 0x00, 0x00, 0xe2, 0xf9, 0xff, 0xff,
  0x1c, 0x00, 0x00, 0x00, 0x00, 0x00, 0x00, 0x09, 0x1c, 0x00, 0x00, 0x00,
  0x20, 0x00, 0x00, 0x00, 0x04, 0x00, 0x00, 0x00, 0x00, 0x00, 0x06, 0x00,
  0x08, 0x00, 0x04, 0x00, 0x06, 0x00, 0x00, 0x00, 0x00, 0x00, 0x80, 0x3f,
  0x01, 0x00, 0x00, 0x00, 0x47, 0x00, 0x00, 0x00, 0x01, 0x00, 0x00, 0x00,
  0x46, 0x00, 0x00, 0x00, 0xb6, 0xf9, 0xff, 0xff, 0x1c, 0x00, 0x00, 0x00,
  0x00, 0x00, 0x00, 0x01, 0x24, 0x00, 0x00, 0x00, 0x28, 0x00, 0x00, 0x00,
  0x00, 0x00, 0x0a, 0x00, 0x10, 0x00, 0x0f, 0x00, 0x08, 0x00, 0x04, 0x00,
  0x0a, 0x00, 0x00, 0x00, 0x01, 0x00, 0x00, 0x00, 0x01, 0x00, 0x00, 0x00,
  0x00, 0x00, 0x00, 0x01, 0x01, 0x00, 0x00, 0x00, 0x46, 0x00, 0x00, 0x00,
  0x03, 0x00, 0x00, 0x00, 0x45, 0x00, 0x00, 0x00, 0x03, 0x00, 0x00, 0x00,
  0x02, 0x00, 0x00, 0x00, 0xfe, 0xf9, 0xff, 0xff, 0x1c, 0x00, 0x00, 0x00,
  0x00, 0x00, 0x00, 0x01, 0x28, 0x00, 0x00, 0x00, 0x2c, 0x00, 0x00, 0x00,
  0x0c, 0x00, 0x14, 0x00, 0x13, 0x00, 0x0c, 0x00, 0x08, 0x00, 0x07, 0x00,
  0x0c, 0x00, 0x00, 0x00, 0x00, 0x00, 0x00, 0x01, 0x01, 0x00, 0x00, 0x00,
  0x01, 0x00, 0x00, 0x00, 0x00, 0x00, 0x00, 0x01, 0x01, 0x00, 0x00, 0x00,
  0x45, 0x00, 0x00, 0x00, 0x03, 0x00, 0x00, 0x00, 0x44, 0x00, 0x00, 0x00,
  0x05, 0x00, 0x00, 0x00, 0x04, 0x00, 0x00, 0x00, 0x4a, 0xfa, 0xff, 0xff,
  0x10, 0x00, 0x00, 0x00, 0x00, 0x00, 0x00, 0x01, 0x18, 0x00, 0x00, 0x00,
  0x1c, 0x00, 0x00, 0x00, 0x3c, 0xfa, 0xff, 0xff, 0x00, 0x00, 0x00, 0x03,
  0x01, 0x00, 0x00, 0x00, 0x01, 0x00, 0x00, 0x00, 0x01, 0x00, 0x00, 0x00,
  0x44, 0x00, 0x00, 0x00, 0x03, 0x00, 0x00, 0x00, 0x43, 0x00, 0x00, 0x00,
  0x07, 0x00, 0x00, 0x00, 0x06, 0x00, 0x00, 0x00, 0xea, 0xfa, 0xff, 0xff,
  0x14, 0x00, 0x00, 0x00, 0x00, 0x00, 0x00, 0x0b, 0x10, 0x00, 0x00, 0x00,
  0x14, 0x00, 0x00, 0x00, 0x02, 0x00, 0x00, 0x00, 0x54, 0x96, 0xff, 0xff,
  0x01, 0x00, 0x00, 0x00, 0x43, 0x00, 0x00, 0x00, 0x02, 0x00, 0x00, 0x00,
  0x3f, 0x00, 0x00, 0x00, 0x42, 0x00, 0x00, 0x00, 0xb6, 0xfa, 0xff, 0xff,
  0x10, 0x00, 0x00, 0x00, 0x00, 0x00, 0x00, 0x01, 0x14, 0x00, 0x00, 0x00,
  0x18, 0x00, 0x00, 0x00, 0x5e, 0xfb, 0xff, 0xff, 0x01, 0x00, 0x00, 0x00,
  0x01, 0x00, 0x00, 0x00, 0x01, 0x00, 0x00, 0x00, 0x42, 0x00, 0x00, 0x00,
  0x03, 0x00, 0x00, 0x00, 0x41, 0x00, 0x00, 0x00, 0x09, 0x00, 0x00, 0x00,
  0x08, 0x00, 0x00, 0x00, 0x52, 0xfb, 0xff, 0xff, 0x14, 0x00, 0x00, 0x00,
  0x00, 0x00, 0x00, 0x02, 0x20, 0x00, 0x00, 0x00, 0x24, 0x00, 0x00, 0x00,
  0x01, 0x00, 0x00, 0x00, 0x42, 0xfb, 0xff, 0xff, 0x00, 0x00, 0x00, 0x03,
  0x01, 0x00, 0x00, 0x00, 0x01, 0x00, 0x00, 0x00, 0x01, 0x00, 0x00, 0x00,
  0x01, 0x00, 0x00, 0x00, 0x41, 0x00, 0x00, 0x00, 0x03, 0x00, 0x00, 0x00,
  0x40, 0x00, 0x00, 0x00, 0x0b, 0x00, 0x00, 0x00, 0x0a, 0x00, 0x00, 0x00,
  0x32, 0xfb, 0xff, 0xff, 0x10, 0x00, 0x00, 0x00, 0x00, 0x00, 0x00, 0x01,
  0x18, 0x00, 0x00, 0x00, 0x1c, 0x00, 0x00, 0x00, 0x24, 0xfb, 0xff, 0xff,
  0x00, 0x00, 0x00, 0x03, 0x01, 0x00, 0x00, 0x00, 0x01, 0x00, 0x00, 0x00,
  0x01, 0x00, 0x00, 0x00, 0x40, 0x00, 0x00, 0x00, 0x03, 0x00, 0x00, 0x00,
  0x3f, 0x00, 0x00, 0x00, 0x0d, 0x00, 0x00, 0x00, 0x0c, 0x00, 0x00, 0x00,
  0xd2, 0xfb, 0xff, 0xff, 0x14, 0x00, 0x00, 0x00, 0x00, 0x00, 0x00, 0x0b,
  0x10, 0x00, 0x00, 0x00, 0x14, 0x00, 0x00, 0x00, 0x02, 0x00, 0x00, 0x00,
  0x3c, 0x97, 0xff, 0xff, 0x01, 0x00, 0x00, 0x00, 0x3f, 0x00, 0x00, 0x00,
  0x02, 0x00, 0x00, 0x00, 0x3b, 0x00, 0x00, 0x00, 0x3e, 0x00, 0x00, 0x00,
  0x9e, 0xfb, 0xff, 0xff, 0x10, 0x00, 0x00, 0x00, 0x00, 0x00, 0x00, 0x01,
  0x14, 0x00, 0x00, 0x00, 0x18, 0x00, 0x00, 0x00, 0x46, 0xfc, 0xff, 0xff,
  0x01, 0x00, 0x00, 0x00, 0x01, 0x00, 0x00, 0x00, 0x01, 0x00, 0x00, 0x00,
  0x3e, 0x00, 0x00, 0x00, 0x03, 0x00, 0x00, 0x00, 0x3d, 0x00, 0x00, 0x00,
  0x0f, 0x00, 0x00, 0x00, 0x0e, 0x00, 0x00, 0x00, 0x3a, 0xfc, 0xff, 0xff,
  0x14, 0x00, 0x00, 0x00, 0x00, 0x00, 0x00, 0x02, 0x20, 0x00, 0x00, 0x00,
  0x24, 0x00, 0x00, 0x00, 0x01, 0x00, 0x00, 0x00, 0x2a, 0xfc, 0xff, 0xff,
  0x00, 0x00, 0x00, 0x03, 0x01, 0x00, 0x00, 0x00, 0x01, 0x00, 0x00, 0x00,
  0x01, 0x00, 0x00, 0x00, 0x01, 0x00, 0x00, 0x00, 0x3d, 0x00, 0x00, 0x00,
  0x03, 0x00, 0x00, 0x00, 0x3c, 0x00, 0x00, 0x00, 0x11, 0x00, 0x00, 0x00,
  0x10, 0x00, 0x00, 0x00, 0x1a, 0xfc, 0xff, 0xff, 0x10, 0x00, 0x00, 0x00,
  0x00, 0x00, 0x00, 0x01, 0x18, 0x00, 0x00, 0x00, 0x1c, 0x00, 0x00, 0x00,
  0x0c, 0xfc, 0xff, 0xff, 0x00, 0x00, 0x00, 0x03, 0x01, 0x00, 0x00, 0x00,
  0x01, 0x00, 0x00, 0x00, 0x01, 0x00, 0x00, 0x00, 0x3c, 0x00, 0x00, 0x00,
  0x03, 0x00, 0x00, 0x00, 0x3b, 0x00, 0x00, 0x00, 0x13, 0x00, 0x00, 0x00,
  0x12, 0x00, 0x00, 0x00, 0x56, 0xfc, 0xff, 0xff, 0x10, 0x00, 0x00, 0x00,
  0x00, 0x00, 0x00, 0x01, 0x14, 0x00, 0x00, 0x00, 0x18, 0x00, 0x00, 0x00,
  0xfe, 0xfc, 0xff, 0xff, 0x01, 0x00, 0x00, 0x00, 0x01, 0x00, 0x00, 0x00,
  0x01, 0x00, 0x00, 0x00, 0x3b, 0x00, 0x00, 0x00, 0x03, 0x00, 0x00, 0x00,
  0x3a, 0x00, 0x00, 0x00, 0x15, 0x00, 0x00, 0x00, 0x14, 0x00, 0x00, 0x00,
  0xf2, 0xfc, 0xff, 0xff, 0x14, 0x00, 0x00, 0x00, 0x00, 0x00, 0x00, 0x02,
  0x24, 0x00, 0x00, 0x00, 0x28, 0x00, 0x00, 0x00, 0x01, 0x00, 0x00, 0x00,
  0x2a, 0xfe, 0xff, 0xff, 0x00, 0x00, 0x00, 0x03, 0x01, 0x00, 0x00, 0x00,
  0x02, 0x00, 0x00, 0x00, 0x02, 0x00, 0x00, 0x00, 0x00, 0x00, 0x00, 0x01,
  0x01, 0x00, 0x00, 0x00, 0x3a, 0x00, 0x00, 0x00, 0x03, 0x00, 0x00, 0x00,
  0x39, 0x00, 0x00, 0x00, 0x17, 0x00, 0x00, 0x00, 0x16, 0x00, 0x00, 0x00,
  0x3a, 0xfd, 0xff, 0xff, 0x14, 0x00, 0x00, 0x00, 0x00, 0x00, 0x00, 0x16,
  0x10, 0x00, 0x00, 0x00, 0x14, 0x00, 0x00, 0x00, 0x03, 0x00, 0x00, 0x00,
  0xa4, 0x98, 0xff, 0xff, 0x01, 0x00, 0x00, 0x00, 0x39, 0x00, 0x00, 0x00,
  0x02, 0x00, 0x00, 0x00, 0x38, 0x00, 0x00, 0x00, 0x01, 0x00, 0x00, 0x00,
  0x06, 0xfd, 0xff, 0xff, 0x10, 0x00, 0x00, 0x00, 0x00, 0x00, 0x00, 0x01,
  0x18, 0x00, 0x00, 0x00, 0x1c, 0x00, 0x00, 0x00, 0xf8, 0xfc, 0xff, 0xff,
  0x00, 0x00, 0x00, 0x03, 0x01, 0x00, 0x00, 0x00, 0x01, 0x00, 0x00, 0x00,
  0x01, 0x00, 0x00, 0x00, 0x38, 0x00, 0x00, 0x00, 0x03, 0x00, 0x00, 0x00,
  0x37, 0x00, 0x00, 0x00, 0x19, 0x00, 0x00, 0x00, 0x18, 0x00, 0x00, 0x00,
  0xa6, 0xfd, 0xff, 0xff, 0x14, 0x00, 0x00, 0x00, 0x00, 0x00, 0x00, 0x0b,
  0x10, 0x00, 0x00, 0x00, 0x14, 0x00, 0x00, 0x00, 0x02, 0x00, 0x00, 0x00,
  0x10, 0x99, 0xff, 0xff, 0x01, 0x00, 0x00, 0x00, 0x37, 0x00, 0x00, 0x00,
  0x02, 0x00, 0x00, 0x00, 0x33, 0x00, 0x00, 0x00, 0x36, 0x00, 0x00, 0x00,
  0x72, 0xfd, 0xff, 0xff, 0x10, 0x00, 0x00, 0x00, 0x00, 0x00, 0x00, 0x01,
  0x14, 0x00, 0x00, 0x00, 0x18, 0x00, 0x00, 0x00, 0x1a, 0xfe, 0xff, 0xff,
  0x01, 0x00, 0x00, 0x00, 0x01, 0x00, 0x00, 0x00, 0x01, 0x00, 0x00, 0x00,
  0x36, 0x00, 0x00, 0x00, 0x03, 0x00, 0x00, 0x00, 0x35, 0x00, 0x00, 0x00,
  0x1b, 0x00, 0x00, 0x00, 0x1a, 0x00, 0x00, 0x00, 0x0e, 0xfe, 0xff, 0xff,
  0x14, 0x00, 0x00, 0x00, 0x00, 0x00, 0x00, 0x02, 0x20, 0x00, 0x00, 0x00,
  0x24, 0x00, 0x00, 0x00, 0x01, 0x00, 0x00, 0x00, 0xfe, 0xfd, 0xff, 0xff,
  0x00, 0x00, 0x00, 0x03, 0x01, 0x00, 0x00, 0x00, 0x01, 0x00, 0x00, 0x00,
  0x01, 0x00, 0x00, 0x00, 0x01, 0x00, 0x00, 0x00, 0x35, 0x00, 0x00, 0x00,
  0x03, 0x00, 0x00, 0x00, 0x34, 0x00, 0x00, 0x00, 0x1d, 0x00, 0x00, 0x00,
  0x1c, 0x00, 0x00, 0x00, 0xee, 0xfd, 0xff, 0xff, 0x10, 0x00, 0x00, 0x00,
  0x00, 0x00, 0x00, 0x01, 0x18, 0x00, 0x00, 0x00, 0x1c, 0x00, 0x00, 0x00,
  0xe0, 0xfd, 0xff, 0xff, 0x00, 0x00, 0x00, 0x03, 0x01, 0x00, 0x00, 0x00,
  0x01, 0x00, 0x00, 0x00, 0x01, 0x00, 0x00, 0x00, 0x34, 0x00, 0x00, 0x00,
  0x03, 0x00, 0x00, 0x00, 0x33, 0x00, 0x00, 0x00, 0x1f, 0x00, 0x00, 0x00,
  0x1e, 0x00, 0x00, 0x00, 0x2a, 0xfe, 0xff, 0xff, 0x10, 0x00, 0x00, 0x00,
  0x00, 0x00, 0x00, 0x01, 0x14, 0x00, 0x00, 0x00, 0x18, 0x00, 0x00, 0x00,
  0xd2, 0xfe, 0xff, 0xff, 0x01, 0x00, 0x00, 0x00, 0x01, 0x00, 0x00, 0x00,
  0x01, 0x00, 0x00, 0x00, 0x33, 0x00, 0x00, 0x00, 0x03, 0x00, 0x00, 0x00,
  0x32, 0x00, 0x00, 0x00, 0x21, 0x00, 0x00, 0x00, 0x20, 0x00, 0x00, 0x00,
  0xc6, 0xfe, 0xff, 0xff, 0x24, 0x00, 0x00, 0x00, 0x00, 0x00, 0x00, 0x02,
  0x34, 0x00, 0x00, 0x00, 0x38, 0x00, 0x00, 0x00, 0x01, 0x00, 0x00, 0x00,
  0x00, 0x00, 0x0e, 0x00, 0x18, 0x00, 0x17, 0x00, 0x10, 0x00, 0x0c, 0x00,
  0x08, 0x00, 0x07, 0x00, 0x0e, 0x00, 0x00, 0x00, 0x00, 0x00, 0x00, 0x03,
  0x01, 0x00, 0x00, 0x00, 0x02, 0x00, 0x00, 0x00, 0x02, 0x00, 0x00, 0x00,
  0x00, 0x00, 0x00, 0x01, 0x01, 0x00, 0x00, 0x00, 0x32, 0x00, 0x00, 0x00,
  0x03, 0x00, 0x00, 0x00, 0x31, 0x00, 0x00, 0x00, 0x23, 0x00, 0x00, 0x00,
  0x22, 0x00, 0x00, 0x00, 0x1e, 0xff, 0xff, 0xff, 0x14, 0x00, 0x00, 0x00,
  0x00, 0x00, 0x00, 0x16, 0x10, 0x00, 0x00, 0x00, 0x14, 0x00, 0x00, 0x00,
  0x03, 0x00, 0x00, 0x00, 0x88, 0x9a, 0xff, 0xff, 0x01, 0x00, 0x00, 0x00,
  0x31, 0x00, 0x00, 0x00, 0x02, 0x00, 0x00, 0x00, 0x30, 0x00, 0x00, 0x00,
  0x01, 0x00, 0x00, 0x00, 0xea, 0xfe, 0xff, 0xff, 0x10, 0x00, 0x00, 0x00,
  0x00, 0x00, 0x00, 0x01, 0x18, 0x00, 0x00, 0x00, 0x1c, 0x00, 0x00, 0x00,
  0xdc, 0xfe, 0xff, 0xff, 0x00, 0x00, 0x00, 0x03, 0x01, 0x00, 0x00, 0x00,
  0x01, 0x00, 0x00, 0x00, 0x01, 0x00, 0x00, 0x00, 0x30, 0x00, 0x00, 0x00,
  0x03, 0x00, 0x00, 0x00, 0x2f, 0x00, 0x00, 0x00, 0x25, 0x00, 0x00, 0x00,
  0x24, 0x00, 0x00, 0x00, 0x8a, 0xff, 0xff, 0xff, 0x14, 0x00, 0x00, 0x00,
  0x00, 0x00, 0x00, 0x0b, 0x10, 0x00, 0x00, 0x00, 0x14, 0x00, 0x00, 0x00,
  0x02, 0x00, 0x00, 0x00, 0xf4, 0x9a, 0xff, 0xff, 0x01, 0x00, 0x00, 0x00,
  0x2f, 0x00, 0x00, 0x00, 0x02, 0x00, 0x00, 0x00, 0x2c, 0x00, 0x00, 0x00,
  0x2e, 0x00, 0x00, 0x00, 0x56, 0xff, 0xff, 0xff, 0x1c, 0x00, 0x00, 0x00,
  0x00, 0x00, 0x00, 0x01, 0x20, 0x00, 0x00, 0x00, 0x24, 0x00, 0x00, 0x00,
  0x00, 0x00, 0x0a, 0x00, 0x0c, 0x00, 0x00, 0x00, 0x08, 0x00, 0x04, 0x00,
  0x0a, 0x00, 0x00, 0x00, 0x01, 0x00, 0x00, 0x00, 0x01, 0x00, 0x00, 0x00,
  0x01, 0x00, 0x00, 0x00, 0x2e, 0x00, 0x00, 0x00, 0x03, 0x00, 0x00, 0x00,
  0x2d, 0x00, 0x00, 0x00, 0x27, 0x00, 0x00, 0x00, 0x26, 0x00, 0x00, 0x00,
  0x00, 0x00, 0x0e, 0x00, 0x1a, 0x00, 0x14, 0x00, 0x10, 0x00, 0x0c, 0x00,
  0x0b, 0x00, 0x04, 0x00, 0x0e, 0x00, 0x00, 0x00, 0x24, 0x00, 0x00, 0x00,
  0x00, 0x00, 0x00, 0x02, 0x30, 0x00, 0x00, 0x00, 0x34, 0x00, 0x00, 0x00,
  0x01, 0x00, 0x00, 0x00, 0x00, 0x00, 0x0e, 0x00, 0x14, 0x00, 0x00, 0x00,
  0x10, 0x00, 0x0c, 0x00, 0x08, 0x00, 0x07, 0x00, 0x0e, 0x00, 0x00, 0x00,
  0x00, 0x00, 0x00, 0x03, 0x01, 0x00, 0x00, 0x00, 0x01, 0x00, 0x00, 0x00,
  0x01, 0x00, 0x00, 0x00, 0x01, 0x00, 0x00, 0x00, 0x2d, 0x00, 0x00, 0x00,
  0x03, 0x00, 0x00, 0x00, 0x2c, 0x00, 0x00, 0x00, 0x29, 0x00, 0x00, 0x00,
  0x28, 0x00, 0x00, 0x00, 0x00, 0x00, 0x0e, 0x00, 0x14, 0x00, 0x00, 0x00,
  0x10, 0x00, 0x0c, 0x00, 0x0b, 0x00, 0x04, 0x00, 0x0e, 0x00, 0x00, 0x00,
  0x1c, 0x00, 0x00, 0x00, 0x00, 0x00, 0x00, 0x01, 0x24, 0x00, 0x00, 0x00,
  0x28, 0x00, 0x00, 0x00, 0x0c, 0x00, 0x10, 0x00, 0x00, 0x00, 0x0c, 0x00,
  0x08, 0x00, 0x07, 0x00, 0x0c, 0x00, 0x00, 0x00, 0x00, 0x00, 0x00, 0x03,
  0x02, 0x00, 0x00, 0x00, 0x02, 0x00, 0x00, 0x00, 0x01, 0x00, 0x00, 0x00,
  0x2c, 0x00, 0x00, 0x00, 0x03, 0x00, 0x00, 0x00, 0x00, 0x00, 0x00, 0x00,
  0x2b, 0x00, 0x00, 0x00, 0x2a, 0x00, 0x00, 0x00, 0x01, 0x00, 0x00, 0x00,
  0x47, 0x00, 0x00, 0x00, 0x01, 0x00, 0x00, 0x00, 0x00, 0x00, 0x00, 0x00,
  0x48, 0x00, 0x00, 0x00, 0x34, 0x64, 0x00, 0x00, 0xc0, 0x63, 0x00, 0x00,
  0x30, 0x63, 0x00, 0x00, 0xa4, 0x62, 0x00, 0x00, 0xc0, 0x60, 0x00, 0x00,
  0xdc, 0x5e, 0x00, 0x00, 0x30, 0x5c, 0x00, 0x00, 0x84, 0x59, 0x00, 0x00,
  0xb8, 0x58, 0x00, 0x00, 0xec, 0x57, 0x00, 0x00, 0x38, 0x55, 0x00, 0x00,
  0x24, 0x52, 0x00, 0x00, 0x78, 0x4f, 0x00, 0x00, 0xcc, 0x4c, 0x00, 0x00,
  0x00, 0x4c, 0x00, 0x00, 0x34, 0x4b, 0x00, 0x00, 0x80, 0x48, 0x00, 0x00,
  0x80, 0x45, 0x00, 0x00, 0xd0, 0x42, 0x00, 0x00, 0x24, 0x40, 0x00, 0x00,
  0x58, 0x3f, 0x00, 0x00, 0x8c, 0x3e, 0x00, 0x00, 0xd8, 0x3b, 0x00, 0x00,
  0xd8, 0x38, 0x00, 0x00, 0x28, 0x36, 0x00, 0x00, 0x7c, 0x33, 0x00, 0x00,
  0xb0, 0x32, 0x00, 0x00, 0xe4, 0x31, 0x00, 0x00, 0x30, 0x2f, 0x00, 0x00,
  0x30, 0x2c, 0x00, 0x00, 0x80, 0x29, 0x00, 0x00, 0xd4, 0x26, 0x00, 0x00,
  0x08, 0x26, 0x00, 0x00, 0x3c, 0x25, 0x00, 0x00, 0x88, 0x22, 0x00, 0x00,
  0x88, 0x1f, 0x00, 0x00, 0xd8, 0x1c, 0x00, 0x00, 0x2c, 0x1a, 0x00, 0x00,
  0x58, 0x19, 0x00, 0x00, 0x84, 0x18, 0x00, 0x00, 0xb0, 0x17, 0x00, 0x00,
  0x80, 0x16, 0x00, 0x00, 0xb8, 0x15, 0x00, 0x00, 0xf4, 0x14, 0x00, 0x00,
  0x28, 0x14, 0x00, 0x00, 0x24, 0x13, 0x00, 0x00, 0x50, 0x12, 0x00, 0x00,
  0xd4, 0x11, 0x00, 0x00, 0xf0, 0x10, 0x00, 0x00, 0x7c, 0x10, 0x00, 0x00,
  0x88, 0x0f, 0x00, 0x00, 0xc4, 0x0e, 0x00, 0x00, 0xe0, 0x0d, 0x00, 0x00,
  0xec, 0x0c, 0x00, 0x00, 0x28, 0x0c, 0x00, 0x00, 0xb4, 0x0b, 0x00, 0x00,
  0xd0, 0x0a, 0x00, 0x00, 0x5c, 0x0a, 0x00, 0x00, 0x68, 0x09, 0x00, 0x00,
  0xa4, 0x08, 0x00, 0x00, 0xc0, 0x07, 0x00, 0x00, 0xcc, 0x06, 0x00, 0x00,
  0x08, 0x06, 0x00, 0x00, 0x94, 0x05, 0x00, 0x00, 0xb0, 0x04, 0x00, 0x00,
  0xbc, 0x03, 0x00, 0x00, 0x18, 0x03, 0x00, 0x00, 0xa4, 0x02, 0x00, 0x00,
  0xe0, 0x01, 0x00, 0x00, 0x24, 0x01, 0x00, 0x00, 0x78, 0x00, 0x00, 0x00,
  0x04, 0x00, 0x00, 0x00, 0x02, 0x9d, 0xff, 0xff, 0x00, 0x00, 0x00, 0x01,
  0x14, 0x00, 0x00, 0x00, 0x30, 0x00, 0x00, 0x00, 0x48, 0x00, 0x00, 0x00,
  0x00, 0x00, 0x00, 0x09, 0x44, 0x00, 0x00, 0x00, 0xec, 0x9c, 0xff, 0xff,
  0x08, 0x00, 0x00, 0x00, 0x10, 0x00, 0x00, 0x00, 0x01, 0x00, 0x00, 0x00,
  0x80, 0xff, 0xff, 0xff, 0xff, 0xff, 0xff, 0xff, 0x01, 0x00, 0x00, 0x00,
  0x00, 0x00, 0x80, 0x3b, 0x19, 0x00, 0x00, 0x00, 0x53, 0x74, 0x61, 0x74,
  0x65, 0x66, 0x75, 0x6c, 0x50, 0x61, 0x72, 0x74, 0x69, 0x74, 0x69, 0x6f,
  0x6e, 0x65, 0x64, 0x43, 0x61, 0x6c, 0x6c, 0x3a, 0x30, 0x00, 0x00, 0x00,
  0x04, 0x00, 0x00, 0x00, 0x01, 0x00, 0x00, 0x00, 0x0c, 0x00, 0x00, 0x00,
  0x0c, 0x00, 0x00, 0x00, 0x03, 0x00, 0x00, 0x00, 0x72, 0x9d, 0xff, 0xff,
  0x00, 0x00, 0x00, 0x01, 0x14, 0x00, 0x00, 0x00, 0x30, 0x00, 0x00, 0x00,
  0x47, 0x00, 0x00, 0x00, 0x00, 0x00, 0x00, 0x09, 0x7c, 0x00, 0x00, 0x00,
  0x5c, 0x9d, 0xff, 0xff, 0x08, 0x00, 0x00, 0x00, 0x10, 0x00, 0x00, 0x00,
  0x01, 0x00, 0x00, 0x00, 0xee, 0xff, 0xff, 0xff, 0xff, 0xff, 0xff, 0xff,
  0x01, 0x00, 0x00, 0x00, 0xbf, 0x1b, 0x0e, 0x3e, 0x52, 0x00, 0x00, 0x00,
  0x6d, 0x6f, 0x64, 0x65, 0x6c, 0x5f, 0x31, 0x2f, 0x6c, 0x6f, 0x67, 0x69,
  0x74, 0x73, 0x2f, 0x42, 0x69, 0x61, 0x73, 0x41, 0x64, 0x64, 0x3b, 0x6d,
  0x6f, 0x64, 0x65, 0x6c, 0x5f, 0x31, 0x2f, 0x6c, 0x6f, 0x67, 0x69, 0x74,
  0x73, 0x2f, 0x43, 0x6f, 0x6e, 0x76, 0x32, 0x44, 0x3b, 0x6d, 0x6f, 0x64,
  0x65, 0x6c, 0x5f, 0x31, 0x2f, 0x6c, 0x6f, 0x67, 0x69, 0x74, 0x73, 0x2f,
  0x42, 0x69, 0x61, 0x73, 0x41, 0x64, 0x64, 0x2f, 0x52, 0x65, 0x61, 0x64,
  0x56, 0x61, 0x72, 0x69, 0x61, 0x62, 0x6c, 0x65, 0x4f, 0x70, 0x00, 0x00,
  0x04, 0x00, 0x00, 0x00, 0x01, 0x00, 0x00, 0x00, 0x0c, 0x00, 0x00, 0x00,
  0x0c, 0x00, 0x00, 0x00, 0x03, 0x00, 0x00, 0x00, 0x1a, 0x9e, 0xff, 0xff,
  0x00, 0x00, 0x00, 0x01, 0x14, 0x00, 0x00, 0x00, 0x34, 0x00, 0x00, 0x00,
  0x46, 0x00, 0x00, 0x00, 0x00, 0x00, 0x00, 0x09, 0x8c, 0x00, 0x00, 0x00,
  0x04, 0x9e, 0xff, 0xff, 0x08, 0x00, 0x00, 0x00, 0x14, 0x00, 0x00, 0x00,
  0x01, 0x00, 0x00, 0x00, 0x80, 0xff, 0xff, 0xff, 0xff, 0xff, 0xff, 0xff,
  0x00, 0x00, 0x00, 0x00, 0x01, 0x00, 0x00, 0x00, 0xd3, 0xcd, 0x3f, 0x3d,
  0x5e, 0x00, 0x00, 0x00, 0x6d, 0x6f, 0x64, 0x65, 0x6c, 0x5f, 0x31, 0x2f,
  0x68, 0x65, 0x61, 0x64, 0x2f, 0x52, 0x65, 0x6c, 0x75, 0x3b, 0x6d, 0x6f,
  0x64, 0x65, 0x6c, 0x5f, 0x31, 0x2f, 0x68, 0x65, 0x61, 0x64, 0x2f, 0x42,
  0x69, 0x61, 0x73, 0x41, 0x64, 0x64, 0x3b, 0x6d, 0x6f, 0x64, 0x65, 0x6c,
  0x5f, 0x31, 0x2f, 0x68, 0x65, 0x61, 0x64, 0x2f, 0x43, 0x6f, 0x6e, 0x76,
  0x32, 0x44, 0x3b, 0x6d, 0x6f, 0x64, 0x65, 0x6c, 0x5f, 0x31, 0x2f, 0x68,
  0x65, 0x61, 0x64, 0x2f, 0x42, 0x69, 0x61, 0x73, 0x41, 0x64, 0x64, 0x2f,
  0x52, 0x65, 0x61, 0x64, 0x56, 0x61, 0x72, 0x69, 0x61, 0x62, 0x6c, 0x65,
  0x4f, 0x70, 0x00, 0x00, 0x04, 0x00, 0x00, 0x00, 0x01, 0x00, 0x00, 0x00,
  0x0c, 0x00, 0x00, 0x00, 0x0c, 0x00, 0x00, 0x00, 0x20, 0x00, 0x00, 0x00,
  0xd2, 0x9e, 0xff, 0xff, 0x00, 0x00, 0x00, 0x01, 0x14, 0x00, 0x00, 0x00,
  0x30, 0x00, 0x00, 0x00, 0x45, 0x00, 0x00, 0x00, 0x00, 0x00, 0x00, 0x09,
  0x94, 0x00, 0x00, 0x00, 0xbc, 0x9e, 0xff, 0xff, 0x08, 0x00, 0x00, 0x00,
  0x10, 0x00, 0x00, 0x00, 0x01, 0x00, 0x00, 0x00, 0x80, 0xff, 0xff, 0xff,
  0xff, 0xff, 0xff, 0xff, 0x01, 0x00, 0x00, 0x00, 0xc1, 0xc0, 0xc0, 0x3c,
  0x6a, 0x00, 0x00, 0x00, 0x6d, 0x6f, 0x64, 0x65, 0x6c, 0x5f, 0x31, 0x2f,
  0x62, 0x6c, 0x6f, 0x63, 0x6b, 0x5f, 0x36, 0x5f, 0x65, 0x78, 0x70, 0x61,
  0x6e, 0x64, 0x5f, 0x72, 0x65, 0x6c, 0x75, 0x2f, 0x52, 0x65, 0x6c, 0x75,
  0x36, 0x3b, 0x6d, 0x6f, 0x64, 0x65, 0x6c, 0x5f, 0x31, 0x2f, 0x62, 0x6c,
  0x6f, 0x63, 0x6b, 0x5f, 0x36, 0x5f, 0x65, 0x78, 0x70, 0x61, 0x6e, 0x64,
  0x5f, 0x42, 0x4e, 0x2f, 0x46, 0x75, 0x73, 0x65, 0x64, 0x42, 0x61, 0x74,
  0x63, 0x68, 0x4e, 0x6f, 0x72, 0x6d, 0x56, 0x33, 0x3b, 0x6d, 0x6f, 0x64,
  0x65, 0x6c, 0x5f, 0x31, 0x2f, 0x62, 0x6c, 0x6f, 0x63, 0x6b, 0x5f, 0x36,
  0x5f, 0x65, 0x78, 0x70, 0x61, 0x6e, 0x64, 0x2f, 0x43, 0x6f, 0x6e, 0x76,
  0x32, 0x44, 0x00, 0x00, 0x04, 0x00, 0x00, 0x00, 0x01, 0x00, 0x00, 0x00,
  0x0c, 0x00, 0x00, 0x00, 0x0c, 0x00, 0x00, 0x00, 0x30, 0x00, 0x00, 0x00,
  0x92, 0x9f, 0xff, 0xff, 0x00, 0x00, 0x00, 0x01, 0x14, 0x00, 0x00, 0x00,
  0x34, 0x00, 0x00, 0x00, 0x44, 0x00, 0x00, 0x00, 0x00, 0x00, 0x00, 0x09,
  0x44, 0x00, 0x00, 0x00, 0x7c, 0x9f, 0xff, 0xff, 0x08, 0x00, 0x00, 0x00,
  0x14, 0x00, 0x00, 0x00, 0x01, 0x00, 0x00, 0x00, 0xfc, 0xff, 0xff, 0xff,
  0xff, 0xff, 0xff, 0xff, 0x00, 0x00, 0x00, 0x00, 0x01, 0x00, 0x00, 0x00,
  0x2f, 0xd6, 0xb8, 0x3d, 0x17, 0x00, 0x00, 0x00, 0x6d, 0x6f, 0x64, 0x65,
  0x6c, 0x5f, 0x31, 0x2f, 0x62, 0x6c, 0x6f, 0x63, 0x6b, 0x5f, 0x35, 0x5f,
  0x61, 0x64, 0x64, 0x2f, 0x61, 0x64, 0x64, 0x00, 0x04, 0x00, 0x00, 0x00,
  0x01, 0x00, 0x00, 0x00, 0x0c, 0x00, 0x00, 0x00, 0x0c, 0x00, 0x00, 0x00,
  0x08, 0x00, 0x00, 0x00, 0x02, 0xa0, 0xff, 0xff, 0x00, 0x00, 0x00, 0x01,
  0x14, 0x00, 0x00, 0x00, 0x30, 0x00, 0x00, 0x00, 0x43, 0x00, 0x00, 0x00,
  0x00, 0x00, 0x00, 0x09, 0x74, 0x00, 0x00, 0x00, 0xec, 0x9f, 0xff, 0xff,
  0x08, 0x00, 0x00, 0x00, 0x10, 0x00, 0x00, 0x00, 0x01, 0x00, 0x00, 0x00,
  0xf0, 0xff, 0xff, 0xff, 0xff, 0xff, 0xff, 0xff, 0x01, 0x00, 0x00, 0x00,
  0x32, 0x64, 0x44, 0x3d, 0x4a, 0x00, 0x00, 0x00, 0x6d, 0x6f, 0x64, 0x65,
  0x6c, 0x5f, 0x31, 0x2f, 0x62, 0x6c, 0x6f, 0x63, 0x6b, 0x5f, 0x35, 0x5f,
  0x70, 0x72, 0x6f, 0x6a, 0x65, 0x63, 0x74, 0x5f, 0x42, 0x4e, 0x2f, 0x46,
  0x75, 0x73, 0x65, 0x64, 0x42, 0x61, 0x74, 0x63, 0x68, 0x4e, 0x6f, 0x72,
  0x6d, 0x56, 0x33, 0x3b, 0x6d, 0x6f, 0x64, 0x65, 0x6c, 0x5f, 0x31, 0x2f,
  0x62, 0x6c, 0x6f, 0x63, 0x6b, 0x5f, 0x35, 0x5f, 0x70, 0x72, 0x6f, 0x6a,
  0x65, 0x63, 0x74, 0x2f, 0x43, 0x6f, 0x6e, 0x76, 0x32, 0x44, 0x00, 0x00,
  0x04, 0x00, 0x00, 0x00, 0x01, 0x00, 0x00, 0x00, 0x0c, 0x00, 0x00, 0x00,
  0x0c, 0x00, 0x00, 0x00, 0x08, 0x00, 0x00, 0x00, 0xa2, 0xa0, 0xff, 0xff,
  0x00, 0x00, 0x00, 0x01, 0x14, 0x00, 0x00, 0x00, 0x34, 0x00, 0x00, 0x00,
  0x42, 0x00, 0x00, 0x00, 0x00, 0x00, 0x00, 0x09, 0xc4, 0x00, 0x00, 0x00,
  0x8c, 0xa0, 0xff, 0xff, 0x08, 0x00, 0x00, 0x00, 0x14, 0x00, 0x00, 0x00,
  0x01, 0x00, 0x00, 0x00, 0x80, 0xff, 0xff, 0xff, 0xff, 0xff, 0xff, 0xff,
  0x00, 0x00, 0x00, 0x00, 0x01, 0x00, 0x00, 0x00, 0x7d, 0x05, 0xaa, 0x3c,
  0x94, 0x00, 0x00, 0x00, 0x6d, 0x6f, 0x64, 0x65, 0x6c, 0x5f, 0x31, 0x2f,
  0x62, 0x6c, 0x6f, 0x63, 0x6b, 0x5f, 0x35, 0x5f, 0x64, 0x65, 0x70, 0x74,
  0x68, 0x77, 0x69, 0x73, 0x65, 0x5f, 0x72, 0x65, 0x6c, 0x75, 0x2f, 0x52,
  0x65, 0x6c, 0x75, 0x36, 0x3b, 0x6d, 0x6f, 0x64, 0x65, 0x6c, 0x5f, 0x31,
  0x2f, 0x62, 0x6c, 0x6f, 0x63, 0x6b, 0x5f, 0x35, 0x5f, 0x64, 0x65, 0x70,
  0x74, 0x68, 0x77, 0x69, 0x73, 0x65, 0x5f, 0x42, 0x4e, 0x2f, 0x46, 0x75,
  0x73, 0x65, 0x64, 0x42, 0x61, 0x74, 0x63, 0x68, 0x4e, 0x6f, 0x72, 0x6d,
  0x56, 0x33, 0x3b, 0x6d, 0x6f, 0x64, 0x65, 0x6c, 0x5f, 0x31, 0x2f, 0x62,
  0x6c, 0x6f, 0x63, 0x6b, 0x5f, 0x36, 0x5f, 0x65, 0x78, 0x70, 0x61, 0x6e,
  0x64, 0x2f, 0x43, 0x6f, 0x6e, 0x76, 0x32, 0x44, 0x3b, 0x6d, 0x6f, 0x64,
  0x65, 0x6c, 0x5f, 0x31, 0x2f, 0x62, 0x6c, 0x6f, 0x63, 0x6b, 0x5f, 0x35,
  0x5f, 0x64, 0x65, 0x70, 0x74, 0x68, 0x77, 0x69, 0x73, 0x65, 0x2f, 0x64,
  0x65, 0x70, 0x74, 0x68, 0x77, 0x69, 0x73, 0x65, 0x00, 0x00, 0x00, 0x00,
  0x04, 0x00, 0x00, 0x00, 0x01, 0x00, 0x00, 0x00, 0x0c, 0x00, 0x00, 0x00,
  0x0c, 0x00, 0x00, 0x00, 0x30, 0x00, 0x00, 0x00, 0x92, 0xa1, 0xff, 0xff,
  0x00, 0x00, 0x00, 0x01, 0x14, 0x00, 0x00, 0x00, 0x30, 0x00, 0x00, 0x00,
  0x41, 0x00, 0x00, 0x00, 0x00, 0x00, 0x00, 0x09, 0xb4, 0x00, 0x00, 0x00,
  0x7c, 0xa1, 0xff, 0xff, 0x08, 0x00, 0x00, 0x00, 0x10, 0x00, 0x00, 0x00,
  0x01, 0x00, 0x00, 0x00, 0x80, 0xff, 0xff, 0xff, 0xff, 0xff, 0xff, 0xff,
  0x01, 0x00, 0x00, 0x00, 0xb6, 0xb7, 0x90, 0x3c, 0x88, 0x00, 0x00, 0x00,
  0x6d, 0x6f, 0x64, 0x65, 0x6c, 0x5f, 0x31, 0x2f, 0x62, 0x6c, 0x6f, 0x63,
  0x6b, 0x5f, 0x35, 0x5f, 0x65, 0x78, 0x70, 0x61, 0x6e, 0x64, 0x5f, 0x72,
  0x65, 0x6c, 0x75, 0x2f, 0x52, 0x65, 0x6c, 0x75, 0x36, 0x3b, 0x6d, 0x6f,
  0x64, 0x65, 0x6c, 0x5f, 0x31, 0x2f, 0x62, 0x6c, 0x6f, 0x63, 0x6b, 0x5f,
  0x35, 0x5f, 0x65, 0x78, 0x70, 0x61, 0x6e, 0x64, 0x5f, 0x42, 0x4e, 0x2f,
  0x46, 0x75, 0x73, 0x65, 0x64, 0x42, 0x61, 0x74, 0x63, 0x68, 0x4e, 0x6f,
  0x72, 0x6d, 0x56, 0x33, 0x3b, 0x6d, 0x6f, 0x64, 0x65, 0x6c, 0x5f, 0x31,
  0x2f, 0x62, 0x6c, 0x6f, 0x63, 0x6b, 0x5f, 0x36, 0x5f, 0x65, 0x78, 0x70,
  0x61, 0x6e, 0x64, 0x2f, 0x43, 0x6f, 0x6e, 0x76, 0x32, 0x44, 0x3b, 0x6d,
  0x6f, 0x64, 0x65, 0x6c, 0x5f, 0x31, 0x2f, 0x62, 0x6c, 0x6f, 0x63, 0x6b,
  0x5f, 0x35, 0x5f, 0x65, 0x78, 0x70, 0x61, 0x6e, 0x64, 0x2f, 0x43, 0x6f,
  0x6e, 0x76, 0x32, 0x44, 0x00, 0x00, 0x00, 0x00, 0x04, 0x00, 0x00, 0x00,
  0x01, 0x00, 0x00, 0x00, 0x0c, 0x00, 0x00, 0x00, 0x0c, 0x00, 0x00, 0x00,
  0x30, 0x00, 0x00, 0x00, 0x72, 0xa2, 0xff, 0xff, 0x00, 0x00, 0x00, 0x01,
  0x14, 0x00, 0x00, 0x00, 0x34, 0x00, 0x00, 0x00, 0x40, 0x00, 0x00, 0x00,
  0x00, 0x00, 0x00, 0x09, 0x44, 0x00, 0x00, 0x00, 0x5c, 0xa2, 0xff, 0xff,
  0x08, 0x00, 0x00, 0x00, 0x14, 0x00, 0x00, 0x00, 0x01, 0x00, 0x00, 0x00,
  0xff, 0xff, 0xff, 0xff, 0xff, 0xff, 0xff, 0xff, 0x00, 0x00, 0x00, 0x00,
  0x01, 0x00, 0x00, 0x00, 0xd1, 0x11, 0x69, 0x3d, 0x17, 0x00, 0x00, 0x00,
  0x6d, 0x6f, 0x64, 0x65, 0x6c, 0x5f, 0x31, 0x2f, 0x62, 0x6c, 0x6f, 0x63,
  0x6b, 0x5f, 0x34, 0x5f, 0x61, 0x64, 0x64, 0x2f, 0x61, 0x64, 0x64, 0x00,
  0x04, 0x00, 0x00, 0x00, 0x01, 0x00, 0x00, 0x00, 0x0c, 0x00, 0x00, 0x00,
  0x0c, 0x00, 0x00, 0x00, 0x08, 0x00, 0x00, 0x00, 0xe2, 0xa2, 0xff, 0xff,
  0x00, 0x00, 0x00, 0x01, 0x14, 0x00, 0x00, 0x00, 0x30, 0x00, 0x00, 0x00,
  0x3f, 0x00, 0x00, 0x00, 0x00, 0x00, 0x00, 0x09, 0x94, 0x00, 0x00, 0x00,
  0xcc, 0xa2, 0xff, 0xff, 0x08, 0x00, 0x00, 0x00, 0x10, 0x00, 0x00, 0x00,
  0x01, 0x00, 0x00, 0x00, 0x07, 0x00, 0x00, 0x00, 0x00, 0x00, 0x00, 0x00,
  0x01, 0x00, 0x00, 0x00, 0xfd, 0x80, 0x25, 0x3d, 0x69, 0x00, 0x00, 0x00,
  0x6d, 0x6f, 0x64, 0x65, 0x6c, 0x5f, 0x31, 0x2f, 0x62, 0x6c, 0x6f, 0x63,
  0x6b, 0x5f, 0x34, 0x5f, 0x70, 0x72, 0x6f, 0x6a, 0x65, 0x63, 0x74, 0x5f,
  0x42, 0x4e, 0x2f, 0x46, 0x75, 0x73, 0x65, 0x64, 0x42, 0x61, 0x74, 0x63,
  0x68, 0x4e, 0x6f, 0x72, 0x6d, 0x56, 0x33, 0x3b, 0x6d, 0x6f, 0x64, 0x65,
  0x6c, 0x5f, 0x31, 0x2f, 0x62, 0x6c, 0x6f, 0x63, 0x6b, 0x5f, 0x35, 0x5f,
  0x70, 0x72, 0x6f, 0x6a, 0x65, 0x63, 0x74, 0x2f, 0x43, 0x6f, 0x6e, 0x76,
  0x32, 0x44, 0x3b, 0x6d, 0x6f, 0x64, 0x65, 0x6c, 0x5f, 0x31, 0x2f, 0x62,
  0x6c, 0x6f, 0x63, 0x6b, 0x5f, 0x34, 0x5f, 0x70, 0x72, 0x6f, 0x6a, 0x65,
  0x63, 0x74, 0x2f, 0x43, 0x6f, 0x6e, 0x76, 0x32, 0x44, 0x00, 0x00, 0x00,
  0x04, 0x00, 0x00, 0x00, 0x01, 0x00, 0x00, 0x00, 0x0c, 0x00, 0x00, 0x00,
  0x0c, 0x00, 0x00, 0x00, 0x08, 0x00, 0x00, 0x00, 0xa2, 0xa3, 0xff, 0xff,
  0x00, 0x00, 0x00, 0x01, 0x14, 0x00, 0x00, 0x00, 0x34, 0x00, 0x00, 0x00,
  0x3e, 0x00, 0x00, 0x00, 0x00, 0x00, 0x00, 0x09, 0xc4, 0x00, 0x00, 0x00,
  0x8c, 0xa3, 0xff, 0xff, 0x08, 0x00, 0x00, 0x00, 0x14, 0x00, 0x00, 0x00,
  0x01, 0x00, 0x00, 0x00, 0x80, 0xff, 0xff, 0xff, 0xff, 0xff, 0xff, 0xff,
  0x00, 0x00, 0x00, 0x00, 0x01, 0x00, 0x00, 0x00, 0xc1, 0xc0, 0xc0, 0x3c,
  0x94, 0x00, 0x00, 0x00, 0x6d, 0x6f, 0x64, 0x65, 0x6c, 0x5f, 0x31, 0x2f,
  0x62, 0x6c, 0x6f, 0x63, 0x6b, 0x5f, 0x34, 0x5f, 0x64, 0x65, 0x70, 0x74,
  0x68, 0x77, 0x69, 0x73, 0x65, 0x5f, 0x72, 0x65, 0x6c, 0x75, 0x2f, 0x52,
  0x65, 0x6c, 0x75, 0x36, 0x3b, 0x6d, 0x6f, 0x64, 0x65, 0x6c, 0x5f, 0x31,
  0x2f, 0x62, 0x6c, 0x6f, 0x63, 0x6b, 0x5f, 0x34, 0x5f, 0x64, 0x65, 0x70,
  0x74, 0x68, 0x77, 0x69, 0x73, 0x65, 0x5f, 0x42, 0x4e, 0x2f, 0x46, 0x75,
  0x73, 0x65, 0x64, 0x42, 0x61, 0x74, 0x63, 0x68, 0x4e, 0x6f, 0x72, 0x6d,
