/* Generated by Edge Impulse
 *
 * Permission is hereby granted, free of charge, to any person obtaining a copy
 * of this software and associated documentation files (the "Software"), to deal
 * in the Software without restriction, including without limitation the rights
 * to use, copy, modify, merge, publish, distribute, sublicense, and/or sell
 * copies of the Software, and to permit persons to whom the Software is
 * furnished to do so, subject to the following conditions:
 *
 * The above copyright notice and this permission notice shall be included in
 * all copies or substantial portions of the Software.
 *
 * THE SOFTWARE IS PROVIDED "AS IS", WITHOUT WARRANTY OF ANY KIND, EXPRESS OR
 * IMPLIED, INCLUDING BUT NOT LIMITED TO THE WARRANTIES OF MERCHANTABILITY,
 * FITNESS FOR A PARTICULAR PURPOSE AND NONINFRINGEMENT. IN NO EVENT SHALL THE
 * AUTHORS OR COPYRIGHT HOLDERS BE LIABLE FOR ANY CLAIM, DAMAGES OR OTHER
 * LIABILITY, WHETHER IN AN ACTION OF CONTRACT, TORT OR OTHERWISE, ARISING FROM,
 * OUT OF OR IN CONNECTION WITH THE SOFTWARE OR THE USE OR OTHER DEALINGS IN THE
 * SOFTWARE.
 */

#ifndef _EI_CLASSIFIER_TFLITE_LEARN_5_H_
#define _EI_CLASSIFIER_TFLITE_LEARN_5_H_

#define EI_CLASSIFIER_TFLITE_LEARN_5_ARENA_SIZE     289081
const size_t tflite_learn_5_arena_size = 289081;

#ifdef EI_CLASSIFIER_TFLITE_ARENA_SIZE
#if EI_CLASSIFIER_TFLITE_ARENA_SIZE < EI_CLASSIFIER_TFLITE_LEARN_5_ARENA_SIZE
#undef EI_CLASSIFIER_TFLITE_ARENA_SIZE
#define EI_CLASSIFIER_TFLITE_ARENA_SIZE EI_CLASSIFIER_TFLITE_LEARN_5_ARENA_SIZE
#endif // #if EI_CLASSIFIER_TFLITE_ARENA_SIZE < EI_CLASSIFIER_TFLITE_LEARN_5_ARENA_SIZE
#else
#define EI_CLASSIFIER_TFLITE_ARENA_SIZE EI_CLASSIFIER_TFLITE_LEARN_5_ARENA_SIZE
#endif // #ifdef EI_CLASSIFIER_TFLITE_ARENA_SIZE

#if defined __GNUC__
#define ALIGN(X) __attribute__((aligned(X)))
#elif defined _MSC_VER
#define ALIGN(X) __declspec(align(X))
#elif defined __TASKING__
#define ALIGN(X) __align(X)
#else
#define ALIGN(X)
#endif
ALIGN(16) const unsigned char tflite_learn_5[] = {
  0x20, 0x00, 0x00, 0x00, 0x54, 0x46, 0x4c, 0x33, 0x00, 0x00, 0x00, 0x00,
  0x14, 0x00, 0x20, 0x00, 0x1c, 0x00, 0x18, 0x00, 0x14, 0x00, 0x10, 0x00,
  0x0c, 0x00, 0x00, 0x00, 0x08, 0x00, 0x04, 0x00, 0x14, 0x00, 0x00, 0x00,
  0x1c, 0x00, 0x00, 0x00, 0x8c, 0x00, 0x00, 0x00, 0xe4, 0x00, 0x00, 0x00,
  0xf4, 0x2e, 0x00, 0x00, 0x04, 0x2f, 0x00, 0x00, 0x28, 0x9b, 0x00, 0x00,
  0x03, 0x00, 0x00, 0x00, 0x01, 0x00, 0x00, 0x00, 0x10, 0x00, 0x00, 0x00,
  0x00, 0x00, 0x0a, 0x00, 0x10, 0x00, 0x0c, 0x00, 0x08, 0x00, 0x04, 0x00,
  0x0a, 0x00, 0x00, 0x00, 0x0c, 0x00, 0x00, 0x00, 0x1c, 0x00, 0x00, 0x00,
  0x3c, 0x00, 0x00, 0x00, 0x0f, 0x00, 0x00, 0x00, 0x73, 0x65, 0x72, 0x76,
  0x69, 0x6e, 0x67, 0x5f, 0x64, 0x65, 0x66, 0x61, 0x75, 0x6c, 0x74, 0x00,
  0x01, 0x00, 0x00, 0x00, 0x04, 0x00, 0x00, 0x00, 0x9c, 0xff, 0xff, 0xff,
  0x47, 0x00, 0x00, 0x00, 0x04, 0x00, 0x00, 0x00, 0x08, 0x00, 0x00, 0x00,
  0x6f, 0x75, 0x74, 0x70, 0x75, 0x74, 0x5f, 0x30, 0x00, 0x00, 0x00, 0x00,
  0x01, 0x00, 0x00, 0x00, 0x04, 0x00, 0x00, 0x00, 0xa2, 0xd0, 0xff, 0xff,
  0x04, 0x00, 0x00, 0x00, 0x01, 0x00, 0x00, 0x00, 0x78, 0x00, 0x00, 0x00,
  0x02, 0x00, 0x00, 0x00, 0x34, 0x00, 0x00, 0x00, 0x04, 0x00, 0x00, 0x00,
  0xdc, 0xff, 0xff, 0xff, 0x4a, 0x00, 0x00, 0x00, 0x04, 0x00, 0x00, 0x00,
  0x13, 0x00, 0x00, 0x00, 0x43, 0x4f, 0x4e, 0x56, 0x45, 0x52, 0x53, 0x49,
  0x4f, 0x4e, 0x5f, 0x4d, 0x45, 0x54, 0x41, 0x44, 0x41, 0x54, 0x41, 0x00,
  0x08, 0x00, 0x0c, 0x00, 0x08, 0x00, 0x04, 0x00, 0x08, 0x00, 0x00, 0x00,
  0x49, 0x00, 0x00, 0x00, 0x04, 0x00, 0x00, 0x00, 0x13, 0x00, 0x00, 0x00,
  0x6d, 0x69, 0x6e, 0x5f, 0x72, 0x75, 0x6e, 0x74, 0x69, 0x6d, 0x65, 0x5f,
  0x76, 0x65, 0x72, 0x73, 0x69, 0x6f, 0x6e, 0x00, 0x4b, 0x00, 0x00, 0x00,
  0x0c, 0x2e, 0x00, 0x00, 0x04, 0x2e, 0x00, 0x00, 0xd4, 0x2d, 0x00, 0x00,
  0xbc, 0x2d, 0x00, 0x00, 0x6c, 0x2d, 0x00, 0x00, 0xdc, 0x2c, 0x00, 0x00,
  0xcc, 0x26, 0x00, 0x00, 0xfc, 0x25, 0x00, 0x00, 0x6c, 0x24, 0x00, 0x00,
  0x3c, 0x24, 0x00, 0x00, 0xac, 0x22, 0x00, 0x00, 0xdc, 0x21, 0x00, 0x00,
  0x1c, 0x20, 0x00, 0x00, 0x4c, 0x1f, 0x00, 0x00, 0xbc, 0x1d, 0x00, 0x00,
  0x8c, 0x1d, 0x00, 0x00, 0xfc, 0x1b, 0x00, 0x00, 0x2c, 0x1b, 0x00, 0x00,
  0x6c, 0x19, 0x00, 0x00, 0x9c, 0x18, 0x00, 0x00, 0x0c, 0x17, 0x00, 0x00,
  0xdc, 0x16, 0x00, 0x00, 0x4c, 0x15, 0x00, 0x00, 0x7c, 0x14, 0x00, 0x00,
  0xbc, 0x12, 0x00, 0x00, 0xec, 0x11, 0x00, 0x00, 0x5c, 0x10, 0x00, 0x00,
  0x2c, 0x10, 0x00, 0x00, 0x9c, 0x0e, 0x00, 0x00, 0xcc, 0x0d, 0x00, 0x00,
  0x0c, 0x0c, 0x00, 0x00, 0x3c, 0x0b, 0x00, 0x00, 0xac, 0x09, 0x00, 0x00,
  0x7c, 0x09, 0x00, 0x00, 0xec, 0x07, 0x00, 0x00, 0x1c, 0x07, 0x00, 0x00,
  0x5c, 0x05, 0x00, 0x00, 0x8c, 0x04, 0x00, 0x00, 0xfc, 0x02, 0x00, 0x00,
  0xcc, 0x02, 0x00, 0x00, 0x7c, 0x02, 0x00, 0x00, 0x4c, 0x02, 0x00, 0x00,
  0xf4, 0x01, 0x00, 0x00, 0xc4, 0x01, 0x00, 0x00, 0x6c, 0x01, 0x00, 0x00,
  0x64, 0x01, 0x00, 0x00, 0x5c, 0x01, 0x00, 0x00, 0x54, 0x01, 0x00, 0x00,
  0x4c, 0x01, 0x00, 0x00, 0x44, 0x01, 0x00, 0x00, 0x3c, 0x01, 0x00, 0x00,
  0x34, 0x01, 0x00, 0x00, 0x2c, 0x01, 0x00, 0x00, 0x24, 0x01, 0x00, 0x00,
  0x1c, 0x01, 0x00, 0x00, 0x14, 0x01, 0x00, 0x00, 0x0c, 0x01, 0x00, 0x00,
  0x04, 0x01, 0x00, 0x00, 0xfc, 0x00, 0x00, 0x00, 0xf4, 0x00, 0x00, 0x00,
  0xec, 0x00, 0x00, 0x00, 0xe4, 0x00, 0x00, 0x00, 0xdc, 0x00, 0x00, 0x00,
  0xd4, 0x00, 0x00, 0x00, 0xcc, 0x00, 0x00, 0x00, 0xc4, 0x00, 0x00, 0x00,
  0xbc, 0x00, 0x00, 0x00, 0xb4, 0x00, 0x00, 0x00, 0xac, 0x00, 0x00, 0x00,
  0xa4, 0x00, 0x00, 0x00, 0x9c, 0x00, 0x00, 0x00, 0x94, 0x00, 0x00, 0x00,
  0x8c, 0x00, 0x00, 0x00, 0x6c, 0x00, 0x00, 0x00, 0x04, 0x00, 0x00, 0x00,
  0x3e, 0xd2, 0xff, 0xff, 0x04, 0x00, 0x00, 0x00, 0x58, 0x00, 0x00, 0x00,
  0x0c, 0x00, 0x00, 0x00, 0x08, 0x00, 0x0e, 0x00, 0x08, 0x00, 0x04, 0x00,
  0x08, 0x00, 0x00, 0x00, 0x10, 0x00, 0x00, 0x00, 0x28, 0x00, 0x00, 0x00,
  0x00, 0x00, 0x06, 0x00, 0x08, 0x00, 0x04, 0x00, 0x06, 0x00, 0x00, 0x00,
  0x04, 0x00, 0x00, 0x00, 0x01, 0x00, 0x00, 0x00, 0xeb, 0x03, 0x00, 0x00,
  0x00, 0x00, 0x0a, 0x00, 0x10, 0x00, 0x0c, 0x00, 0x08, 0x00, 0x04, 0x00,
  0x0a, 0x00, 0x00, 0x00, 0x03, 0x00, 0x00, 0x00, 0x02, 0x00, 0x00, 0x00,
  0x04, 0x00, 0x00, 0x00, 0x06, 0x00, 0x00, 0x00, 0x32, 0x2e, 0x31, 0x30,
  0x2e, 0x30, 0x00, 0x00, 0xa2, 0xd2, 0xff, 0xff, 0x04, 0x00, 0x00, 0x00,
  0x10, 0x00, 0x00, 0x00, 0x31, 0x2e, 0x31, 0x34, 0x2e, 0x30, 0x00, 0x00,
  0x00, 0x00, 0x00, 0x00, 0x00, 0x00, 0x00, 0x00, 0x2c, 0x68, 0xff, 0xff,
  0x30, 0x68, 0xff, 0xff, 0x34, 0x68, 0xff, 0xff, 0x38, 0x68, 0xff, 0xff,
  0x3c, 0x68, 0xff, 0xff, 0x40, 0x68, 0xff, 0xff, 0x44, 0x68, 0xff, 0xff,
  0x48, 0x68, 0xff, 0xff, 0x4c, 0x68, 0xff, 0xff, 0x50, 0x68, 0xff, 0xff,
  0x54, 0x68, 0xff, 0xff, 0x58, 0x68, 0xff, 0xff, 0x5c, 0x68, 0xff, 0xff,
  0x60, 0x68, 0xff, 0xff, 0x64, 0x68, 0xff, 0xff, 0x68, 0x68, 0xff, 0xff,
  0x6c, 0x68, 0xff, 0xff, 0x70, 0x68, 0xff, 0xff, 0x74, 0x68, 0xff, 0xff,
  0x78, 0x68, 0xff, 0xff, 0x7c, 0x68, 0xff, 0xff, 0x80, 0x68, 0xff, 0xff,
  0x84, 0x68, 0xff, 0xff, 0x88, 0x68, 0xff, 0xff, 0x8c, 0x68, 0xff, 0xff,
  0x90, 0x68, 0xff, 0xff, 0x94, 0x68, 0xff, 0xff, 0x98, 0x68, 0xff, 0xff,
  0x2e, 0xd3, 0xff, 0xff, 0x04, 0x00, 0x00, 0x00, 0x48, 0x00, 0x00, 0x00,
  0xc7, 0x32, 0x08, 0x81, 0x7a, 0x00, 0xd6, 0x2f, 0x01, 0x3a, 0x7f, 0x24,
  0xbe, 0xb2, 0xd5, 0x08, 0xd8, 0x06, 0x20, 0x1d, 0xd2, 0x35, 0x45, 0x81,
  0x15, 0x20, 0xc6, 0x2b, 0x35, 0x15, 0x36, 0x4b, 0x1a, 0xb0, 0x81, 0xc7,
  0x04, 0xca, 0x2e, 0x10, 0x81, 0x70, 0x05, 0xdc, 0x21, 0x03, 0xc9, 0x01,
  0x00, 0x7f, 0x03, 0x02, 0xb6, 0x01, 0xf3, 0xa4, 0x01, 0xeb, 0x81, 0xfe,
  0xf0, 0xcb, 0x08, 0x2d, 0x81, 0x21, 0xed, 0xfc, 0xf7, 0xe9, 0x4b, 0xf7,
  0x82, 0xd3, 0xff, 0xff, 0x04, 0x00, 0x00, 0x00, 0x20, 0x00, 0x00, 0x00,
  0x12, 0x38, 0x00, 0x00, 0xa1, 0x21, 0x00, 0x00, 0xbd, 0xff, 0xff, 0xff,
  0x42, 0x54, 0x00, 0x00, 0x9a, 0x05, 0x00, 0x00, 0x15, 0x1c, 0x00, 0x00,
  0x9e, 0xb7, 0x00, 0x00, 0x32, 0x01, 0x00, 0x00, 0xae, 0xd3, 0xff, 0xff,
  0x04, 0x00, 0x00, 0x00, 0x48, 0x00, 0x00, 0x00, 0x02, 0x00, 0x11, 0x12,
  0x0e, 0x01, 0x07, 0x1b, 0x06, 0x01, 0xdd, 0x7f, 0xeb, 0x01, 0xfb, 0x1c,
  0xfe, 0xfe, 0xf2, 0x14, 0x01, 0x03, 0xf9, 0x15, 0xfe, 0xff, 0x7f, 0xe9,
  0x7f, 0xff, 0x8f, 0x25, 0x7f, 0x81, 0x9c, 0x08, 0x9f, 0x7f, 0xf1, 0x81,
  0xe4, 0x03, 0x0c, 0xee, 0x01, 0x00, 0x7f, 0x2a, 0x04, 0x03, 0x0b, 0x06,
  0x0c, 0xfe, 0x0f, 0x20, 0x03, 0x04, 0xd4, 0xff, 0xef, 0x02, 0xf6, 0x99,
  0xfd, 0x01, 0xf5, 0x02, 0xfe, 0xff, 0xf9, 0x22, 0x02, 0xd4, 0xff, 0xff,
  0x04, 0x00, 0x00, 0x00, 0x20, 0x00, 0x00, 0x00, 0xf5, 0xd3, 0xff, 0xff,
  0x7a, 0x29, 0x00, 0x00, 0x11, 0x01, 0x00, 0x00, 0x77, 0xc8, 0xff, 0xff,
  0x00, 0xfd, 0xff, 0xff, 0xd8, 0xca, 0xff, 0xff, 0xa0, 0x01, 0x00, 0x00,
  0x92, 0x00, 0x00, 0x00, 0x2e, 0xd4, 0xff, 0xff, 0x04, 0x00, 0x00, 0x00,
  0x40, 0x00, 0x00, 0x00, 0xe9, 0x00, 0xd6, 0xdc, 0xed, 0x24, 0x81, 0xf5,
  0x14, 0x5a, 0x02, 0x7f, 0x0c, 0xf7, 0xf9, 0xde, 0x7f, 0xf8, 0xe1, 0xc3,
  0xba, 0x2b, 0x64, 0xcb, 0x0f, 0x81, 0x30, 0xae, 0x16, 0xa9, 0x1e, 0x3f,
  0x7f, 0xfc, 0xc2, 0xf5, 0x1b, 0xfd, 0x85, 0xd4, 0x02, 0xde, 0x04, 0x23,
  0x01, 0x81, 0x00, 0x09, 0x7f, 0xe9, 0x71, 0x02, 0x71, 0xe2, 0xfa, 0x0c,
  0x81, 0xff, 0xa0, 0xff, 0xa1, 0x0a, 0x22, 0x09, 0x7a, 0xd4, 0xff, 0xff,
  0x04, 0x00, 0x00, 0x00, 0x20, 0x00, 0x00, 0x00, 0xe1, 0x10, 0x00, 0x00,
  0x9d, 0xee, 0xff, 0xff, 0x5e, 0xff, 0xff, 0xff, 0x0d, 0x0a, 0x00, 0x00,
  0xd1, 0x09, 0x00, 0x00, 0x0a, 0x03, 0x00, 0x00, 0xc9, 0xf1, 0xff, 0xff,
  0x40, 0x0b, 0x00, 0x00, 0xa6, 0xd4, 0xff, 0xff, 0x04, 0x00, 0x00, 0x00,
  0x80, 0x01, 0x00, 0x00, 0x96, 0x9a, 0x1a, 0x81, 0xc1, 0xfd, 0xfe, 0x00,
  0x81, 0xf1, 0x5f, 0xfe, 0xd0, 0x15, 0xff, 0x12, 0x1b, 0xf7, 0x18, 0x7f,
  0x1e, 0xde, 0xf1, 0xf8, 0x9a, 0xb5, 0xe7, 0xf2, 0x23, 0x7f, 0xd1, 0xe0,
  0xfc, 0xe3, 0xf6, 0xff, 0xf8, 0x08, 0x81, 0xb8, 0xfd, 0xdd, 0xef, 0xfc,
  0xf6, 0x0d, 0x81, 0xb8, 0x7f, 0x04, 0x0d, 0xf5, 0xc1, 0x14, 0x04, 0xfa,
  0x81, 0xe0, 0xed, 0x05, 0x46, 0x0c, 0x02, 0x09, 0x19, 0x2c, 0xf1, 0xf6,
  0xe4, 0x81, 0x29, 0x14, 0x47, 0x17, 0xf6, 0xfc, 0xe6, 0xfc, 0xf7, 0x7f,
  0x75, 0xfa, 0x88, 0x09, 0xa7, 0xf5, 0x2d, 0x7f, 0x81, 0x68, 0x09, 0xd3,
  0x64, 0xb0, 0x12, 0x0f, 0x7f, 0xde, 0x99, 0x0b, 0x35, 0xfd, 0xfa, 0xe8,
  0x7f, 0x0b, 0x0c, 0xf4, 0xe1, 0x1d, 0x09, 0xf3, 0x81, 0xa6, 0x6b, 0xe3,
  0x4a, 0xeb, 0xcd, 0x84, 0x20, 0x44, 0x05, 0xfa, 0xf7, 0x81, 0xec, 0x0a,
  0xf6, 0xbc, 0x0b, 0x03, 0x0a, 0x7f, 0x0a, 0x08, 0x20, 0x89, 0xb6, 0xf7,
  0xdd, 0x7f, 0xc3, 0xf5, 0x29, 0xeb, 0xf1, 0xea, 0xed, 0x18, 0x7f, 0xef,
  0xfa, 0x19, 0x00, 0x81, 0xf4, 0x23, 0xfc, 0xf6, 0xb0, 0xdb, 0x4e, 0x0f,
  0x35, 0x6f, 0xf6, 0x81, 0xee, 0xf6, 0x27, 0xeb, 0xf1, 0x0a, 0x81, 0xab,
  0x42, 0xf1, 0x0c, 0x7f, 0xea, 0xf9, 0x3a, 0x28, 0x7f, 0xeb, 0x88, 0xf0,
  0x20, 0xe3, 0x0c, 0x02, 0xe0, 0x18, 0x1f, 0x25, 0x0b, 0x05, 0x81, 0xa8,
  0x7f, 0x0a, 0xad, 0x07, 0x0e, 0xf8, 0x03, 0x1a, 0xfc, 0x3b, 0xe0, 0x81,
  0xe2, 0x19, 0x01, 0xff, 0x7f, 0x0f, 0x98, 0xf9, 0x9e, 0x28, 0x10, 0x53,
  0x81, 0xe8, 0xe9, 0x10, 0x34, 0x0d, 0xfb, 0x24, 0xfb, 0x81, 0xee, 0x81,
  0xf5, 0x1c, 0xeb, 0xee, 0x06, 0x56, 0x7f, 0x1c, 0x21, 0x98, 0x70, 0x1e,
  0xbd, 0xfd, 0x81, 0x28, 0x05, 0xed, 0x56, 0x67, 0xfd, 0x84, 0x03, 0x81,
  0xf6, 0x0c, 0xf3, 0xf0, 0x0a, 0x81, 0x02, 0x8b, 0x05, 0x0c, 0x07, 0xe4,
  0xe6, 0xca, 0x1c, 0xa0, 0x26, 0xcb, 0x7f, 0x50, 0x81, 0x0d, 0x39, 0x08,
  0x91, 0xe6, 0x18, 0x5e, 0x81, 0x14, 0x6c, 0xf9, 0xdd, 0x16, 0xe3, 0x28,
  0x7f, 0x0a, 0xf8, 0xf7, 0xb8, 0x14, 0x02, 0x0f, 0xb3, 0xfe, 0x55, 0x22,
  0x3d, 0xc9, 0x32, 0x7f, 0x81, 0xfb, 0x49, 0xfc, 0xbb, 0x0c, 0xf4, 0x04,
  0xf9, 0x1d, 0x29, 0xf5, 0x12, 0xfe, 0x7f, 0x2e, 0x7f, 0xf0, 0xb3, 0x00,
  0x34, 0x0c, 0x04, 0xfb, 0xf1, 0x81, 0x21, 0xfa, 0x10, 0x05, 0xf9, 0xee,
  0x06, 0x70, 0x7f, 0xf2, 0x34, 0x9f, 0x46, 0x0d, 0x02, 0xf6, 0x01, 0x73,
  0xfd, 0x81, 0x00, 0x00, 0x7f, 0xdf, 0x1e, 0xf7, 0xc5, 0x69, 0x0b, 0x01,
  0x09, 0x7f, 0xf3, 0x65, 0xfc, 0x78, 0x15, 0x27, 0xf2, 0x22, 0x0e, 0xe2,
  0x1f, 0xda, 0x7f, 0x4b, 0x32, 0xd6, 0xff, 0xff, 0x04, 0x00, 0x00, 0x00,
  0xc0, 0x00, 0x00, 0x00, 0x7c, 0x2b, 0x00, 0x00, 0x5e, 0x13, 0x00, 0x00,
  0x6f, 0x2e, 0x00, 0x00, 0x18, 0x09, 0x00, 0x00, 0xfd, 0x0c, 0x00, 0x00,
  0xfe, 0x0d, 0x00, 0x00, 0x4b, 0xef, 0xff, 0xff, 0x03, 0x12, 0x00, 0x00,
  0x4c, 0x0a, 0x00, 0x00, 0x27, 0xf5, 0xff, 0xff, 0xff, 0xf2, 0xff, 0xff,
  0xce, 0x17, 0x00, 0x00, 0x5c, 0xf3, 0xff, 0xff, 0xa9, 0xec, 0xff, 0xff,
  0xc2, 0x21, 0x00, 0x00, 0xb4, 0x07, 0x00, 0x00, 0x36, 0xf8, 0xff, 0xff,
  0xff, 0x09, 0x00, 0x00, 0xb7, 0xf9, 0xff, 0xff, 0x6d, 0x0c, 0x00, 0x00,
  0x84, 0xff, 0xff, 0xff, 0xcf, 0x12, 0x00, 0x00, 0xfd, 0x04, 0x00, 0x00,
  0xfb, 0xf7, 0xff, 0xff, 0x36, 0xfd, 0xff, 0xff, 0x79, 0xed, 0xff, 0xff,
  0x55, 0x0a, 0x00, 0x00, 0x76, 0xf2, 0xff, 0xff, 0xac, 0x0f, 0x00, 0x00,
  0xbf, 0x1e, 0x00, 0x00, 0xa1, 0x02, 0x00, 0x00, 0x85, 0x00, 0x00, 0x00,
  0xe4, 0x1d, 0x00, 0x00, 0xc5, 0x2c, 0x00, 0x00, 0x4c, 0x21, 0x00, 0x00,
  0xac, 0x11, 0x00, 0x00, 0x70, 0x14, 0x00, 0x00, 0xf3, 0xed, 0xff, 0xff,
  0x45, 0x04, 0x00, 0x00, 0x75, 0x12, 0x00, 0x00, 0xaf, 0xfb, 0xff, 0xff,
  0x91, 0xef, 0xff, 0xff, 0x0b, 0x10, 0x00, 0x00, 0x76, 0x08, 0x00, 0x00,
  0x69, 0x01, 0x00, 0x00, 0x97, 0xe6, 0xff, 0xff, 0x89, 0xd2, 0xff, 0xff,
  0x8a, 0x08, 0x00, 0x00, 0xfe, 0xd6, 0xff, 0xff, 0x04, 0x00, 0x00, 0x00,
  0xb0, 0x01, 0x00, 0x00, 0xe1, 0xb0, 0x97, 0x3b, 0xae, 0x07, 0xac, 0xac,
  0x3c, 0x5a, 0x7f, 0xd9, 0xff, 0x06, 0xbf, 0xcb, 0x6a, 0xaa, 0x28, 0xce,
  0xe9, 0x93, 0xd7, 0xba, 0x4e, 0x4f, 0x00, 0x85, 0x04, 0xc2, 0x3a, 0x4d,
  0x2e, 0x44, 0x46, 0x18, 0x58, 0x57, 0x22, 0x0a, 0x94, 0xf4, 0x23, 0x25,
  0xd6, 0x13, 0xdd, 0xa4, 0x5f, 0xfc, 0x26, 0x44, 0x84, 0x29, 0xc3, 0x06,
  0x62, 0x7f, 0x58, 0x41, 0xf1, 0xba, 0x81, 0x9c, 0x7f, 0xdc, 0x64, 0xa3,
  0x8c, 0x7f, 0x7f, 0x21, 0x7f, 0x61, 0x30, 0x97, 0xb6, 0xbc, 0x94, 0x77,
  0x63, 0x7f, 0x67, 0x65, 0xea, 0x4b, 0x47, 0xbe, 0xb4, 0xa9, 0x19, 0xcb,
  0xbc, 0x54, 0xd7, 0x69, 0x6d, 0xfc, 0x3c, 0x34, 0xb4, 0x0a, 0xe2, 0xfa,
  0x1d, 0x4b, 0xf7, 0xe4, 0xb2, 0x04, 0xd0, 0xd7, 0x31, 0x56, 0x3b, 0xe6,
  0xc1, 0xe4, 0xa9, 0x4d, 0x2b, 0x18, 0x1a, 0xdc, 0x02, 0xd2, 0x19, 0x25,
  0x32, 0x5c, 0x09, 0x43, 0xfc, 0x27, 0x30, 0xf8, 0xd5, 0xfc, 0x0c, 0x0b,
  0xf5, 0x4d, 0xf9, 0xfd, 0x23, 0x81, 0x7a, 0x57, 0x5e, 0xb7, 0x81, 0x81,
  0x64, 0x60, 0x6c, 0xd3, 0x02, 0xfa, 0xa3, 0xab, 0x61, 0x7f, 0x35, 0x85,
  0xdf, 0x76, 0x1d, 0x81, 0x69, 0x67, 0x6c, 0x81, 0xfa, 0x83, 0xb2, 0x51,
  0x75, 0xf9, 0x63, 0x3a, 0x20, 0x6a, 0x3c, 0x00, 0xfc, 0xec, 0x5b, 0x59,
  0x95, 0x61, 0x8c, 0x70, 0x7f, 0xf9, 0x03, 0x7f, 0x7f, 0x81, 0xa7, 0x02,
  0x7f, 0x7b, 0x5e, 0x39, 0xe0, 0x81, 0x8a, 0x81, 0x7a, 0x3d, 0x7f, 0x81,
  0x81, 0x83, 0x90, 0x2e, 0x64, 0x7f, 0x7f, 0x93, 0x81, 0x81, 0x7f, 0x7f,
  0x7f, 0xff, 0x7f, 0x7f, 0xf8, 0x7f, 0x7f, 0x81, 0x11, 0x81, 0x7f, 0xae,
  0x81, 0x7f, 0x81, 0x81, 0x74, 0xfa, 0x81, 0x48, 0x5d, 0xc8, 0xda, 0xf6,
  0x12, 0x51, 0xfd, 0xee, 0x81, 0xfd, 0xf0, 0xe4, 0x2a, 0xa0, 0x51, 0xe0,
  0xac, 0x06, 0x48, 0x4f, 0x37, 0x2b, 0xff, 0xd5, 0xf2, 0xa1, 0xd8, 0x15,
  0x24, 0xf5, 0x23, 0x43, 0x02, 0x20, 0x4a, 0xfb, 0xf4, 0xf7, 0x2b, 0xf3,
  0xbc, 0x41, 0xce, 0x0c, 0x35, 0xb3, 0x00, 0x15, 0x00, 0x3f, 0xae, 0xa9,
  0x1f, 0x12, 0x10, 0x3a, 0x06, 0x04, 0xd8, 0xe3, 0x0d, 0xd8, 0x18, 0xcc,
  0xf4, 0x03, 0x0b, 0xb0, 0x1a, 0x1c, 0x4c, 0xe9, 0x04, 0x85, 0x0d, 0x06,
  0x4b, 0xa5, 0x44, 0x1a, 0x81, 0x12, 0x07, 0xfd, 0x1e, 0xf8, 0x50, 0x81,
  0xab, 0x1d, 0xbc, 0xf6, 0x2f, 0x06, 0xff, 0x39, 0x0c, 0x5d, 0xe5, 0xfb,
  0x17, 0x32, 0xfe, 0x81, 0xee, 0xa8, 0xcf, 0xd2, 0x1c, 0xf2, 0x2a, 0xa2,
  0xe2, 0xf5, 0xe4, 0x24, 0x14, 0x36, 0x52, 0xe0, 0xa7, 0x85, 0xe2, 0x12,
  0x4b, 0x9d, 0x3f, 0x21, 0x16, 0x17, 0x43, 0xcd, 0x7f, 0xc3, 0x72, 0x65,
  0x87, 0x26, 0x89, 0x0f, 0xdd, 0xf7, 0xf6, 0x25, 0xf1, 0x28, 0xe8, 0xfc,
  0x06, 0x0a, 0xc2, 0x2a, 0xc5, 0xfb, 0xf6, 0x03, 0xfc, 0x1a, 0x25, 0xfb,
  0xe3, 0x19, 0x11, 0x22, 0x1e, 0x1a, 0x1f, 0xfe, 0xfa, 0xbd, 0x0c, 0xe9,
  0x0c, 0xcb, 0x0a, 0x12, 0x0a, 0xf8, 0x22, 0x09, 0x42, 0x01, 0x16, 0xf5,
  0xda, 0x4e, 0xe5, 0xfd, 0xba, 0xd8, 0xff, 0xff, 0x04, 0x00, 0x00, 0x00,
  0xc0, 0x00, 0x00, 0x00, 0xa1, 0x03, 0x00, 0x00, 0xf4, 0x21, 0x00, 0x00,
  0x88, 0x04, 0x00, 0x00, 0x9e, 0xf6, 0xff, 0xff, 0xdf, 0xfb, 0xff, 0xff,
  0xa9, 0x00, 0x00, 0x00, 0xd8, 0x1c, 0x00, 0x00, 0x6e, 0x1f, 0x00, 0x00,
  0xd2, 0x00, 0x00, 0x00, 0xa4, 0xe7, 0xff, 0xff, 0xf4, 0xff, 0xff, 0xff,
  0xcb, 0xff, 0xff, 0xff, 0x55, 0x1a, 0x00, 0x00, 0x72, 0x0f, 0x00, 0x00,
  0x04, 0x53, 0x00, 0x00, 0x5a, 0x40, 0x00, 0x00, 0x51, 0xfa, 0xff, 0xff,
  0x92, 0xf9, 0xff, 0xff, 0xd1, 0x09, 0x00, 0x00, 0x18, 0x1d, 0x00, 0x00,
  0x58, 0x4a, 0x00, 0x00, 0x25, 0xff, 0xff, 0xff, 0x73, 0x01, 0x00, 0x00,
  0xcc, 0xfd, 0xff, 0xff, 0x48, 0x1d, 0x00, 0x00, 0x1a, 0x02, 0x00, 0x00,
  0xcf, 0x0e, 0x00, 0x00, 0x3d, 0x47, 0x00, 0x00, 0xee, 0x1b, 0x00, 0x00,
  0x90, 0x3c, 0x00, 0x00, 0xbc, 0x01, 0x00, 0x00, 0x4b, 0x05, 0x00, 0x00,
  0x17, 0xfa, 0xff, 0xff, 0xa4, 0xfa, 0xff, 0xff, 0x6e, 0xee, 0xff, 0xff,
  0xcf, 0x04, 0x00, 0x00, 0xda, 0x00, 0x00, 0x00, 0x01, 0x01, 0x00, 0x00,
  0x36, 0x00, 0x00, 0x00, 0x8b, 0x0e, 0x00, 0x00, 0xba, 0x0a, 0x00, 0x00,
  0x7d, 0x13, 0x00, 0x00, 0x48, 0xe4, 0xff, 0xff, 0x91, 0x03, 0x00, 0x00,
  0x72, 0x0e, 0x00, 0x00, 0x74, 0xff, 0xff, 0xff, 0x2f, 0x22, 0x00, 0x00,
  0x17, 0xff, 0xff, 0xff, 0x86, 0xd9, 0xff, 0xff, 0x04, 0x00, 0x00, 0x00,
  0x80, 0x01, 0x00, 0x00, 0x2f, 0x69, 0xdc, 0x46, 0x00, 0xf8, 0xeb, 0x09,
  0x3c, 0xbf, 0x03, 0xe3, 0x0a, 0x0b, 0xdf, 0xce, 0x04, 0xeb, 0x1c, 0x11,
  0xc9, 0xe1, 0xdd, 0x08, 0x0d, 0x0d, 0x17, 0xfb, 0x0e, 0x07, 0xe8, 0x17,
  0xc2, 0x09, 0x73, 0x81, 0xe7, 0x13, 0xf1, 0x71, 0xe1, 0x0f, 0x0b, 0xfc,
  0xf4, 0x22, 0x1d, 0xd2, 0xff, 0xcf, 0x21, 0x35, 0xf1, 0xf6, 0xf0, 0xe8,
  0x30, 0xd5, 0x60, 0x2d, 0x10, 0x0b, 0xd5, 0xb0, 0x7f, 0x27, 0x0e, 0x05,
  0xba, 0x20, 0x26, 0xf6, 0xcc, 0xa0, 0xe0, 0xca, 0xf0, 0xc0, 0x2b, 0xd5,
  0xf9, 0xe5, 0xe4, 0x08, 0x04, 0xeb, 0x52, 0xcf, 0xf5, 0x22, 0xc3, 0x24,
  0x4f, 0x3d, 0x12, 0x32, 0x51, 0xe6, 0xf4, 0xf1, 0x70, 0x6d, 0x3c, 0x50,
  0xe5, 0xfb, 0xfd, 0xe0, 0xfe, 0x2b, 0x3a, 0x1c, 0xe5, 0xd9, 0x3e, 0xbd,
  0xd4, 0xcc, 0xd4, 0x3c, 0xa5, 0xa4, 0x77, 0x17, 0x40, 0xbf, 0xc4, 0x0f,
  0x81, 0x59, 0x67, 0x17, 0xf6, 0xff, 0xfc, 0x11, 0x19, 0x48, 0x10, 0xc0,
  0xea, 0x12, 0x36, 0xd5, 0x54, 0xdc, 0x0f, 0xf7, 0x7b, 0x7f, 0x17, 0x2a,
  0xe1, 0xdd, 0x16, 0x3a, 0x89, 0x2c, 0x3f, 0x11, 0x01, 0x10, 0x4a, 0x8e,
  0x9f, 0x16, 0x27, 0x5a, 0x02, 0xd9, 0x3a, 0x1c, 0x2d, 0xc3, 0x01, 0xf3,
  0x91, 0x3d, 0xc6, 0x8d, 0x1b, 0xdb, 0x3f, 0xca, 0x33, 0xa1, 0x97, 0xe2,
  0xbc, 0x27, 0xef, 0x3f, 0x25, 0x2c, 0xe2, 0xd7, 0xf1, 0xf5, 0xed, 0xef,
  0x03, 0xfb, 0xf7, 0xf1, 0xdf, 0xe9, 0x42, 0x35, 0xd8, 0xf2, 0xdf, 0x2c,
  0x1d, 0xf4, 0xf0, 0x02, 0xd1, 0xd9, 0xfa, 0x35, 0xf5, 0x10, 0xec, 0x1e,
  0xdd, 0xf1, 0x17, 0x81, 0xf5, 0x1a, 0x0d, 0x36, 0x05, 0xf4, 0xf2, 0xe5,
  0x2c, 0x03, 0x54, 0xec, 0x44, 0x38, 0x9f, 0x36, 0x04, 0x04, 0xf6, 0x20,
  0xaa, 0xc4, 0xc5, 0xed, 0x24, 0x18, 0x30, 0x1d, 0x2a, 0xc2, 0x2d, 0x7f,
  0xba, 0xd1, 0xc7, 0x36, 0x1d, 0xe7, 0xd9, 0x40, 0x1e, 0x1b, 0xc7, 0x01,
  0xff, 0xff, 0xc8, 0xff, 0xf6, 0x14, 0xe7, 0x44, 0x16, 0x51, 0xfd, 0xd8,
  0x7f, 0x22, 0x15, 0xc4, 0xdf, 0xb7, 0x18, 0xd4, 0xd8, 0xd5, 0xae, 0xb5,
  0xdb, 0xbe, 0x8b, 0x2a, 0xc8, 0xd0, 0x63, 0x5e, 0x81, 0x06, 0x18, 0xec,
  0x12, 0x39, 0x45, 0x0f, 0xf2, 0xf4, 0xb5, 0x55, 0xaa, 0xd5, 0x29, 0x4d,
  0x12, 0xc3, 0x5e, 0x24, 0x16, 0x2e, 0xf1, 0xab, 0xf1, 0xc2, 0xe5, 0x0d,
  0xd7, 0xed, 0xf9, 0x3f, 0x4b, 0x16, 0xf0, 0x2a, 0x11, 0x0c, 0x0a, 0x06,
  0x52, 0xf4, 0xf0, 0xea, 0x3d, 0x08, 0xf3, 0xeb, 0xcb, 0xf9, 0xe5, 0x03,
  0xfe, 0xe8, 0xe7, 0xe5, 0x46, 0x81, 0x0e, 0x00, 0x03, 0x67, 0xec, 0x14,
  0xb0, 0x16, 0xc1, 0xd2, 0xee, 0x19, 0x1a, 0x19, 0x16, 0x45, 0xd8, 0xec,
  0xd2, 0x20, 0x28, 0xe4, 0x12, 0xdb, 0xff, 0xff, 0x04, 0x00, 0x00, 0x00,
  0x20, 0x00, 0x00, 0x00, 0x3b, 0xd3, 0xff, 0xff, 0xf7, 0x08, 0x00, 0x00,
  0xe9, 0xbe, 0xff, 0xff, 0x19, 0x04, 0x00, 0x00, 0x83, 0x0b, 0x00, 0x00,
  0x28, 0xf0, 0xff, 0xff, 0xbd, 0x29, 0x00, 0x00, 0x9b, 0x05, 0x00, 0x00,
  0x3e, 0xdb, 0xff, 0xff, 0x04, 0x00, 0x00, 0x00, 0x80, 0x01, 0x00, 0x00,
  0xef, 0x24, 0x11, 0x81, 0xa3, 0x08, 0x18, 0x79, 0x73, 0x00, 0xfb, 0xfe,
  0xac, 0x3d, 0x7f, 0x1c, 0xf6, 0x65, 0xd6, 0xe2, 0xe5, 0x4f, 0xcd, 0x81,
  0x42, 0xb5, 0xa6, 0x71, 0x81, 0xd7, 0xff, 0xe3, 0x24, 0xc6, 0x2f, 0xf0,
  0x81, 0x01, 0x2f, 0x16, 0xeb, 0x37, 0xf2, 0x9b, 0x81, 0xfe, 0xda, 0x05,
  0x31, 0xf5, 0x1f, 0x1b, 0x7f, 0xec, 0xf5, 0x81, 0x0c, 0x28, 0x15, 0x7f,
  0x17, 0xfd, 0xfb, 0x1b, 0x17, 0x1d, 0x10, 0xd0, 0x24, 0x7f, 0x0b, 0xe5,
  0x76, 0x24, 0xfa, 0x0b, 0xbf, 0xc4, 0x7f, 0x53, 0xfe, 0x4d, 0xb7, 0xdd,
  0x07, 0x7f, 0x5a, 0xbe, 0xeb, 0xe2, 0x81, 0x5a, 0xc9, 0x1c, 0xf2, 0x4a,
  0x9b, 0xb2, 0x3b, 0x2e, 0x18, 0x81, 0xd6, 0x0f, 0x2b, 0x25, 0x24, 0x37,
  0xc2, 0x7f, 0x11, 0xd5, 0x09, 0xa1, 0x01, 0xfc, 0xcb, 0xc1, 0x81, 0x5d,
  0xa4, 0x2a, 0x01, 0x0a, 0x63, 0xf9, 0x81, 0xd6, 0x5f, 0x4c, 0x91, 0x81,
  0x32, 0x79, 0x78, 0x26, 0x92, 0x7d, 0x81, 0x2c, 0xf5, 0xe2, 0x18, 0x87,
  0x23, 0xfc, 0xac, 0x7f, 0xf2, 0xdc, 0xd7, 0xcc, 0x74, 0x08, 0x11, 0x22,
  0xd9, 0x08, 0x7f, 0x36, 0x26, 0xb2, 0xa4, 0x7f, 0x30, 0xe2, 0xec, 0xc9,
  0x19, 0x31, 0x7f, 0x97, 0x2c, 0xe3, 0x21, 0x94, 0xb2, 0xdc, 0x81, 0x42,
  0xe0, 0x1c, 0x0d, 0x73, 0x49, 0x11, 0x1f, 0x2f, 0x81, 0x61, 0x3f, 0xd3,
  0xf1, 0x04, 0x81, 0x48, 0xdc, 0x1b, 0x27, 0x41, 0x32, 0xe0, 0xb5, 0x7f,
  0x32, 0x00, 0xe1, 0xf8, 0xa8, 0x1f, 0x7f, 0x92, 0xee, 0x1e, 0x39, 0xfc,
  0xbc, 0x52, 0x7f, 0x00, 0x10, 0xfa, 0x46, 0x16, 0xc8, 0x9b, 0x21, 0x81,
  0xf3, 0x0c, 0x01, 0xe9, 0xb4, 0xbb, 0xeb, 0x5a, 0xf2, 0x81, 0xf7, 0x3b,
  0x84, 0x29, 0x7f, 0xe9, 0x32, 0x28, 0x3a, 0x23, 0xc5, 0x32, 0x51, 0x81,
  0xd6, 0x14, 0x1f, 0x40, 0xbb, 0x4d, 0x5c, 0xa0, 0x08, 0x07, 0x0e, 0x7f,
  0x05, 0x73, 0xcf, 0x34, 0x14, 0x13, 0x81, 0xe6, 0x54, 0x09, 0x7f, 0x9f,
  0xa9, 0x9e, 0x25, 0xd5, 0x5d, 0xf6, 0x1c, 0x66, 0x53, 0xc0, 0x17, 0x81,
  0x19, 0x49, 0x7f, 0x91, 0x18, 0xe5, 0x30, 0x8a, 0xc8, 0xd3, 0x64, 0x43,
  0xfc, 0x81, 0x5f, 0xf9, 0x58, 0xf9, 0x4a, 0x2d, 0xea, 0xd7, 0x7f, 0x18,
  0x3c, 0xae, 0xe7, 0x10, 0x81, 0x0d, 0x4d, 0x44, 0xdf, 0x1f, 0x81, 0x5d,
  0xd9, 0x36, 0xb3, 0x66, 0x90, 0xe6, 0xcd, 0x00, 0x7f, 0x09, 0x9b, 0x14,
  0xa4, 0x43, 0xec, 0xdf, 0x7f, 0x20, 0x86, 0xd0, 0x79, 0x66, 0xe4, 0x7f,
  0x00, 0x9c, 0x3a, 0x3f, 0xfe, 0x0b, 0x5b, 0x09, 0x2c, 0x81, 0x14, 0xe9,
  0xf8, 0xaf, 0x7f, 0x52, 0xdd, 0xe9, 0x8d, 0x0d, 0x37, 0x81, 0x83, 0x37,
  0xad, 0x1d, 0xfd, 0xe8, 0x93, 0xea, 0x2f, 0xf8, 0x44, 0x21, 0x81, 0xe6,
  0xca, 0xdc, 0xff, 0xff, 0x04, 0x00, 0x00, 0x00, 0xc0, 0x00, 0x00, 0x00,
  0x02, 0x1b, 0x00, 0x00, 0x09, 0x0c, 0x00, 0x00, 0xab, 0x9a, 0x00, 0x00,
  0x10, 0xf5, 0xff, 0xff, 0xf1, 0xf9, 0xff, 0xff, 0x3f, 0x20, 0x00, 0x00,
  0xc9, 0xfb, 0xff, 0xff, 0x27, 0x05, 0x00, 0x00, 0x34, 0x0c, 0x00, 0x00,
  0x0d, 0x00, 0x00, 0x00, 0xa0, 0x25, 0x00, 0x00, 0xa4, 0x01, 0x00, 0x00,
  0x4a, 0x0d, 0x00, 0x00, 0xcf, 0x11, 0x00, 0x00, 0x6e, 0x0d, 0x00, 0x00,
  0x33, 0x11, 0x00, 0x00, 0x13, 0x10, 0x00, 0x00, 0x03, 0x0c, 0x00, 0x00,
  0x1a, 0xfd, 0xff, 0xff, 0x77, 0x16, 0x00, 0x00, 0x3e, 0x08, 0x00, 0x00,
  0x73, 0x01, 0x00, 0x00, 0x99, 0x04, 0x00, 0x00, 0xd6, 0x2c, 0x00, 0x00,
  0x2a, 0x7b, 0x00, 0x00, 0xf3, 0x15, 0x00, 0x00, 0xcf, 0x12, 0x00, 0x00,
  0x17, 0xfa, 0xff, 0xff, 0x7b, 0xff, 0xff, 0xff, 0xbc, 0x22, 0x00, 0x00,
  0xec, 0x1e, 0x00, 0x00, 0x85, 0x29, 0x00, 0x00, 0xea, 0x34, 0x00, 0x00,
  0xfc, 0x11, 0x00, 0x00, 0x86, 0x1f, 0x00, 0x00, 0x60, 0xfb, 0xff, 0xff,
  0xdc, 0x02, 0x00, 0x00, 0xa9, 0x09, 0x00, 0x00, 0x69, 0x25, 0x00, 0x00,
  0x1c, 0x21, 0x00, 0x00, 0xaf, 0x03, 0x00, 0x00, 0xee, 0x39, 0x00, 0x00,
  0xed, 0x3c, 0x00, 0x00, 0x04, 0x12, 0x00, 0x00, 0x32, 0x1f, 0x00, 0x00,
  0x8a, 0x0a, 0x00, 0x00, 0xc5, 0x14, 0x00, 0x00, 0x9f, 0x02, 0x00, 0x00,
  0x96, 0xdd, 0xff, 0xff, 0x04, 0x00, 0x00, 0x00, 0xb0, 0x01, 0x00, 0x00,
  0xfc, 0xce, 0x28, 0xdb, 0x7f, 0xff, 0xfb, 0xf3, 0xe2, 0x23, 0xf3, 0x07,
  0x42, 0x0b, 0x7f, 0xdc, 0x0c, 0xe4, 0xed, 0xf2, 0xdc, 0xea, 0xc9, 0x1b,
  0x88, 0x2c, 0x19, 0xcb, 0xf1, 0x14, 0xf5, 0xfa, 0xe1, 0x29, 0x14, 0x05,
  0x54, 0x2b, 0x1e, 0xf6, 0x3b, 0x12, 0xf3, 0xfb, 0x95, 0xf2, 0xd3, 0xe0,
  0x06, 0x8f, 0xbc, 0xdb, 0xcb, 0xff, 0x26, 0x15, 0x13, 0xf9, 0x3d, 0x7f,
  0xf0, 0x2d, 0xc4, 0x7f, 0xfb, 0xc8, 0x27, 0xd0, 0xad, 0x81, 0xb7, 0x4e,
  0x81, 0xa3, 0x19, 0x6e, 0x08, 0x1d, 0x7f, 0x0b, 0x81, 0x81, 0xd3, 0x21,
  0x7f, 0xae, 0x76, 0x09, 0x3f, 0xf3, 0xe9, 0xf7, 0xc7, 0xef, 0x48, 0x05,
  0x0e, 0xe8, 0xf0, 0x7f, 0x2a, 0x0b, 0xb0, 0x01, 0xe7, 0xd0, 0xe6, 0xec,
  0x38, 0x02, 0xc9, 0xd4, 0x13, 0x1b, 0x03, 0xf8, 0xfb, 0x05, 0xe6, 0x0e,
  0xcb, 0xb5, 0xe3, 0x28, 0xf8, 0x17, 0xad, 0xf5, 0x10, 0x50, 0x14, 0x12,
  0x02, 0x51, 0x81, 0xff, 0x20, 0xfa, 0xf6, 0x1e, 0x81, 0xf9, 0xc0, 0x31,
  0x97, 0xbd, 0x7f, 0xf1, 0xdc, 0xde, 0x55, 0x0e, 0x13, 0x5c, 0x05, 0x12,
  0x26, 0x18, 0x67, 0x20, 0x1e, 0x81, 0x64, 0x2c, 0x4d, 0xf6, 0x38, 0xda,
  0xf4, 0xe3, 0x25, 0xc6, 0x16, 0x37, 0x2a, 0x38, 0x29, 0x9e, 0x06, 0x7f,
  0x05, 0x28, 0xd4, 0x8c, 0x12, 0x5e, 0xed, 0xa6, 0x1b, 0xa8, 0xbb, 0x17,
  0x7f, 0xb5, 0xbe, 0xae, 0xfd, 0x81, 0x7f, 0x7f, 0x7f, 0x12, 0x7f, 0xda,
  0x81, 0x0d, 0xdf, 0xd7, 0x7f, 0xa1, 0x7f, 0x7f, 0x7f, 0x58, 0x7f, 0x81,
  0xfc, 0xe5, 0x70, 0xe5, 0x7f, 0x7f, 0x88, 0x7f, 0x22, 0x84, 0x7f, 0xa2,
  0xb8, 0x7f, 0x9c, 0x78, 0x81, 0x81, 0x7f, 0x81, 0x64, 0x81, 0x7f, 0x8d,
  0xf8, 0x85, 0x0a, 0x46, 0xe5, 0xf8, 0xcd, 0x0e, 0xf2, 0x81, 0xe0, 0x31,
  0x51, 0x0b, 0xce, 0x2d, 0x10, 0xf8, 0xf9, 0x0f, 0xfb, 0xee, 0x2a, 0xe7,
  0xfc, 0x09, 0x81, 0x51, 0xbd, 0x0a, 0x56, 0x0f, 0xf7, 0x93, 0xf2, 0xdc,
  0x3c, 0x17, 0x79, 0x0a, 0x15, 0x35, 0xd3, 0x08, 0x38, 0xde, 0xbe, 0x7f,
  0xfe, 0x7e, 0x1e, 0xda, 0x4c, 0x0e, 0xd6, 0xef, 0xe4, 0x14, 0xf9, 0x02,
  0x2b, 0x13, 0x53, 0x07, 0xf8, 0xf5, 0xfd, 0xd6, 0xeb, 0x07, 0x03, 0x11,
  0xe5, 0xe8, 0x1d, 0xfc, 0xcb, 0x97, 0xf9, 0xff, 0x01, 0x44, 0xef, 0x24,
  0xc1, 0x29, 0x0c, 0x64, 0x0a, 0x13, 0xfd, 0x06, 0x11, 0x01, 0xef, 0xdd,
  0x04, 0x5e, 0xd6, 0x10, 0x18, 0xde, 0x00, 0x21, 0x1e, 0x10, 0x1d, 0xe1,
  0x1b, 0x7f, 0xbd, 0xb5, 0x08, 0xd9, 0x5f, 0xb5, 0xce, 0x4c, 0xff, 0x39,
  0x3d, 0x7f, 0x08, 0x7f, 0xbf, 0x95, 0xf4, 0xff, 0x60, 0x8c, 0xad, 0x04,
  0xb6, 0xda, 0xe3, 0x81, 0x37, 0xe9, 0xc8, 0x4e, 0x37, 0x19, 0x0f, 0x0c,
  0x10, 0x7f, 0xf5, 0x20, 0x18, 0x08, 0xc0, 0x00, 0xeb, 0xed, 0xfe, 0xfc,
  0x2c, 0x08, 0xc7, 0xfd, 0xfd, 0xf7, 0xe0, 0xe3, 0xf4, 0x07, 0xfb, 0x05,
  0xc9, 0x21, 0xd8, 0x11, 0x2c, 0xb5, 0x16, 0xfe, 0x0a, 0x46, 0x02, 0xf3,
  0xd0, 0x3e, 0x0a, 0x00, 0xdf, 0xfb, 0x02, 0xf0, 0x0a, 0x05, 0xf6, 0x21,
  0x52, 0xdf, 0xff, 0xff, 0x04, 0x00, 0x00, 0x00, 0xc0, 0x00, 0x00, 0x00,
  0xe6, 0xf9, 0xff, 0xff, 0xa0, 0x0a, 0x00, 0x00, 0x2c, 0xff, 0xff, 0xff,
  0xd5, 0x01, 0x00, 0x00, 0x7d, 0xff, 0xff, 0xff, 0x9a, 0x21, 0x00, 0x00,
  0xf3, 0xfe, 0xff, 0xff, 0x80, 0xf1, 0xff, 0xff, 0x7c, 0xeb, 0xff, 0xff,
  0xc1, 0xfc, 0xff, 0xff, 0xc5, 0xe5, 0xff, 0xff, 0xf6, 0xfe, 0xff, 0xff,
  0xca, 0xf3, 0xff, 0xff, 0x41, 0xe8, 0xff, 0xff, 0xd1, 0xf8, 0xff, 0xff,
  0xbd, 0xfe, 0xff, 0xff, 0xb1, 0xdc, 0xff, 0xff, 0x42, 0x3c, 0x00, 0x00,
  0x8f, 0xf1, 0xff, 0xff, 0x8d, 0xff, 0xff, 0xff, 0x97, 0x00, 0x00, 0x00,
  0xf1, 0xfe, 0xff, 0xff, 0xfd, 0xfa, 0xff, 0xff, 0xac, 0xfd, 0xff, 0xff,
  0x1a, 0x56, 0x00, 0x00, 0xb8, 0x04, 0x00, 0x00, 0xd9, 0xfc, 0xff, 0xff,
  0x5b, 0xfc, 0xff, 0xff, 0x2b, 0x00, 0x00, 0x00, 0xea, 0x00, 0x00, 0x00,
  0xc7, 0xf9, 0xff, 0xff, 0x72, 0xe3, 0xff, 0xff, 0x27, 0xfb, 0xff, 0xff,
  0x3e, 0x29, 0x00, 0x00, 0xe2, 0xfd, 0xff, 0xff, 0xdf, 0x18, 0x00, 0x00,
  0xa7, 0x00, 0x00, 0x00, 0x97, 0xf0, 0xff, 0xff, 0x57, 0xff, 0xff, 0xff,
  0x37, 0x01, 0x00, 0x00, 0x58, 0xf0, 0xff, 0xff, 0x46, 0xfd, 0xff, 0xff,
  0x5e, 0x10, 0x00, 0x00, 0x8c, 0x14, 0x00, 0x00, 0x19, 0x03, 0x00, 0x00,
  0x59, 0x23, 0x00, 0x00, 0x85, 0x03, 0x00, 0x00, 0x91, 0xf5, 0xff, 0xff,
  0x1e, 0xe0, 0xff, 0xff, 0x04, 0x00, 0x00, 0x00, 0x80, 0x01, 0x00, 0x00,
  0x25, 0xd4, 0x64, 0x47, 0x20, 0xd6, 0x1c, 0x06, 0xfa, 0x3b, 0xdf, 0x09,
  0xd0, 0xab, 0x2a, 0x01, 0x8e, 0x41, 0xd9, 0x41, 0xcf, 0x4a, 0xfd, 0xe7,
  0x02, 0xce, 0x47, 0xe2, 0xeb, 0x14, 0xdc, 0x6f, 0xc2, 0xf4, 0xdc, 0xac,
  0xbd, 0xce, 0xd6, 0xee, 0xf1, 0x39, 0x81, 0x0f, 0x36, 0x16, 0x19, 0x3b,
  0xc7, 0xe1, 0x38, 0xfe, 0xe6, 0x21, 0xe0, 0xe1, 0x2b, 0xf4, 0xfc, 0xdf,
  0xec, 0x0f, 0x03, 0x11, 0xfe, 0x15, 0x10, 0xf7, 0xc5, 0xe6, 0xb7, 0xed,
  0x16, 0xda, 0xe6, 0xdd, 0x18, 0xbb, 0xf7, 0x81, 0xfa, 0xcb, 0xc2, 0xbf,
  0xdb, 0xb0, 0xec, 0x17, 0x26, 0xf0, 0x4c, 0x99, 0xd1, 0xee, 0xe6, 0xf7,
  0xc7, 0x60, 0xf4, 0x2a, 0x12, 0x0b, 0x1a, 0xd8, 0x46, 0xd6, 0x42, 0x4e,
  0x67, 0x0c, 0x20, 0xc8, 0x5c, 0xfd, 0x09, 0x20, 0xf6, 0x0f, 0x12, 0x7f,
  0x8f, 0xda, 0x04, 0xea, 0x06, 0x4f, 0xee, 0xaa, 0xed, 0x05, 0x0a, 0xb4,
  0xed, 0x0b, 0xde, 0xf0, 0x57, 0xa7, 0x0f, 0xfd, 0x18, 0x83, 0x01, 0xf7,
  0x3a, 0xf2, 0xbc, 0x25, 0x5a, 0xad, 0x08, 0x83, 0xd8, 0xf9, 0xc1, 0x9f,
  0xf0, 0x7f, 0xf6, 0x10, 0xcc, 0xeb, 0xba, 0xcb, 0x1b, 0x52, 0xf2, 0xce,
  0x6c, 0x29, 0x33, 0xbb, 0x1e, 0x9c, 0x38, 0xc1, 0x35, 0x43, 0x71, 0xb5,
  0xd0, 0x13, 0xe6, 0x29, 0x13, 0x52, 0xb4, 0x23, 0xf8, 0x17, 0x06, 0x2c,
  0xcd, 0x1b, 0xd9, 0x43, 0x5d, 0xe6, 0x1c, 0xd1, 0xdd, 0xf7, 0xc5, 0x28,
  0xce, 0xf2, 0x00, 0xc0, 0x11, 0x42, 0xe4, 0xd4, 0xda, 0x25, 0xbc, 0xbb,
  0x14, 0xfa, 0x11, 0xd6, 0x1f, 0xde, 0xde, 0x3c, 0xf5, 0x4c, 0xb3, 0xb0,
  0xc0, 0xbd, 0xd8, 0x04, 0x48, 0xc9, 0x7f, 0x15, 0x06, 0x5b, 0xca, 0xc4,
  0x38, 0x0a, 0x55, 0xf5, 0xf7, 0x10, 0x31, 0x1e, 0x7f, 0xfd, 0x46, 0xfe,
  0x44, 0x3a, 0x1a, 0xc4, 0xf4, 0x1e, 0x1f, 0xd1, 0xc6, 0xbc, 0x0b, 0x2e,
  0x10, 0xf2, 0x16, 0x2e, 0xd5, 0xe1, 0x0e, 0xee, 0xe9, 0x2f, 0xe7, 0x3d,
  0x2d, 0x00, 0xe4, 0xd2, 0xfb, 0x49, 0x1f, 0x28, 0xf3, 0xfc, 0x44, 0x02,
  0xfa, 0xc5, 0xe8, 0x11, 0x29, 0xf9, 0x05, 0x0b, 0xca, 0xf2, 0x67, 0x32,
  0x5f, 0x4a, 0xdc, 0x30, 0x72, 0x81, 0xe7, 0xfa, 0xef, 0xda, 0x92, 0x26,
  0xaf, 0x43, 0xdf, 0xfd, 0xf1, 0xc5, 0x45, 0xcd, 0x64, 0x0f, 0xb7, 0xec,
  0xd0, 0x05, 0x37, 0x04, 0x49, 0xb1, 0x01, 0xb9, 0x8c, 0x2c, 0xd7, 0x20,
  0xf5, 0xe8, 0xc2, 0xe4, 0x17, 0x6d, 0x02, 0xfd, 0xfb, 0xce, 0x81, 0x9f,
  0x2f, 0x39, 0xc3, 0xcd, 0xd9, 0x1f, 0x6d, 0x17, 0xf3, 0xb8, 0x3a, 0xf6,
  0x6a, 0xe3, 0xb6, 0x58, 0xd8, 0xf9, 0xe9, 0xaa, 0xd0, 0x49, 0x37, 0x79,
  0x5c, 0xc8, 0xf0, 0xd8, 0xea, 0xf5, 0x24, 0xea, 0xfd, 0xe1, 0x08, 0xcc,
  0xaa, 0xe1, 0xff, 0xff, 0x04, 0x00, 0x00, 0x00, 0x20, 0x00, 0x00, 0x00,
  0xf5, 0x2a, 0x00, 0x00, 0x02, 0x3e, 0x00, 0x00, 0x18, 0x14, 0x00, 0x00,
  0xae, 0x12, 0x00, 0x00, 0x09, 0x0d, 0x00, 0x00, 0xb4, 0xcd, 0xff, 0xff,
  0x15, 0x1a, 0x00, 0x00, 0x7f, 0xe2, 0xff, 0xff, 0xd6, 0xe1, 0xff, 0xff,
  0x04, 0x00, 0x00, 0x00, 0x80, 0x01, 0x00, 0x00, 0x2f, 0x1d, 0xca, 0x0b,
  0xdd, 0x2f, 0x81, 0x1d, 0x08, 0xc4, 0x88, 0x03, 0xfa, 0xef, 0x7f, 0x90,
  0x81, 0xc8, 0xba, 0xcc, 0xd9, 0x3b, 0x82, 0xfe, 0xcd, 0xdf, 0x16, 0xf1,
  0xed, 0x81, 0x90, 0xed, 0xd0, 0x81, 0xd0, 0x10, 0x3e, 0x15, 0xd8, 0xd8,
  0x43, 0xda, 0x53, 0x35, 0x81, 0x39, 0xbb, 0x9e, 0x28, 0x81, 0xb5, 0xd9,
  0xf5, 0x47, 0xcc, 0xab, 0xeb, 0xaf, 0xca, 0xc2, 0x4f, 0x81, 0x06, 0x11,
  0x22, 0x37, 0x2f, 0x3f, 0x19, 0xcb, 0x00, 0x7f, 0xe6, 0xc8, 0xca, 0x05,
  0x30, 0xf3, 0x7f, 0xf1, 0xe8, 0x1a, 0x81, 0x1b, 0x1d, 0x19, 0x62, 0x90,
  0x07, 0xe0, 0xdc, 0x05, 0x81, 0x16, 0x07, 0x31, 0x52, 0x43, 0xe5, 0x1e,
  0xba, 0x7f, 0x4e, 0xef, 0xd1, 0xfa, 0x14, 0xec, 0x27, 0x81, 0xfb, 0x47,
  0x8b, 0xcf, 0x06, 0x2a, 0x08, 0x4c, 0x83, 0x81, 0x44, 0x59, 0x38, 0x0b,
  0x81, 0x28, 0x75, 0xca, 0x02, 0xd0, 0x09, 0x4e, 0xf6, 0xc4, 0x0c, 0x81,
  0xad, 0x7f, 0x17, 0xef, 0xc2, 0xcb, 0xae, 0xb3, 0x57, 0x7f, 0xa8, 0x8c,
  0x63, 0x5e, 0x93, 0xb7, 0xea, 0x58, 0xec, 0x07, 0x81, 0x09, 0xbe, 0x95,
  0x81, 0xfc, 0x09, 0x11, 0x14, 0x15, 0x6f, 0x30, 0xdf, 0x05, 0x2c, 0x13,
  0xb0, 0x95, 0x81, 0x1d, 0xfa, 0xdc, 0xd4, 0xf7, 0x81, 0x03, 0x04, 0x39,
  0x45, 0x05, 0xf3, 0xf1, 0x7f, 0x48, 0xab, 0x59, 0x7f, 0x0a, 0xca, 0x1c,
  0xa6, 0x04, 0x08, 0xfd, 0x18, 0xb8, 0x43, 0x6a, 0xc6, 0x81, 0x1b, 0x77,
  0x16, 0x7f, 0x06, 0x34, 0x51, 0xec, 0x12, 0xf0, 0x84, 0x6e, 0x3b, 0xf2,
  0x7f, 0xb5, 0xff, 0x65, 0xb3, 0xb6, 0xc0, 0xd7, 0x55, 0x81, 0x12, 0xf3,
  0xc0, 0xe3, 0x2f, 0x26, 0x7f, 0xa0, 0xa3, 0x52, 0x7f, 0x30, 0x8b, 0x92,
  0xb4, 0xab, 0xb0, 0xc0, 0x1c, 0xff, 0x2c, 0x46, 0x81, 0x04, 0x20, 0x07,
  0x7f, 0x12, 0x39, 0x2f, 0xdc, 0xc7, 0x5a, 0x43, 0x7f, 0x23, 0xcd, 0x06,
  0x82, 0xb8, 0x15, 0x3a, 0x27, 0xf6, 0xed, 0x11, 0xd7, 0x7f, 0x11, 0xb9,
  0x7f, 0x29, 0xf1, 0xd8, 0x29, 0xa6, 0x1b, 0x74, 0xda, 0xd0, 0x43, 0x9a,
  0xe0, 0xec, 0x4b, 0x81, 0x4b, 0xc1, 0x38, 0x2b, 0x72, 0xf3, 0x21, 0x81,
  0x44, 0x7f, 0x0e, 0xe4, 0xe9, 0x18, 0x1a, 0x4c, 0x16, 0x05, 0xad, 0x4c,
  0xe8, 0xb8, 0xab, 0x7f, 0xf4, 0xdd, 0x00, 0xe2, 0x17, 0x81, 0x15, 0x2d,
  0xe2, 0x38, 0x81, 0xba, 0x65, 0x7d, 0x42, 0x8e, 0x1d, 0xd6, 0xd6, 0x07,
  0x4d, 0x7f, 0x1d, 0x33, 0xfd, 0x2e, 0xe0, 0x1d, 0x81, 0xa8, 0x33, 0xc2,
  0x81, 0xcd, 0xf9, 0xda, 0x30, 0x31, 0x90, 0xbe, 0xc2, 0x3e, 0xc5, 0x15,
  0x24, 0x01, 0xbe, 0x7f, 0xf1, 0x2a, 0x7f, 0x08, 0xc1, 0xc4, 0xd7, 0x1f,
  0x81, 0x8c, 0xcf, 0xc3, 0x65, 0x71, 0xd9, 0x5a, 0x62, 0xe3, 0xff, 0xff,
  0x04, 0x00, 0x00, 0x00, 0xc0, 0x00, 0x00, 0x00, 0xde, 0xf7, 0xff, 0xff,
  0x59, 0x1a, 0x00, 0x00, 0xb2, 0x15, 0x00, 0x00, 0x03, 0xfb, 0xff, 0xff,
  0x52, 0x00, 0x00, 0x00, 0x05, 0x25, 0x00, 0x00, 0xd3, 0x0d, 0x00, 0x00,
  0xf5, 0x06, 0x00, 0x00, 0x57, 0x2c, 0x00, 0x00, 0x3b, 0x07, 0x00, 0x00,
  0xb8, 0xf4, 0xff, 0xff, 0x72, 0x09, 0x00, 0x00, 0xc6, 0x10, 0x00, 0x00,
  0x9f, 0x06, 0x00, 0x00, 0x45, 0xfe, 0xff, 0xff, 0x08, 0x04, 0x00, 0x00,
  0xf4, 0xf8, 0xff, 0xff, 0x09, 0x26, 0x00, 0x00, 0x5a, 0xf0, 0xff, 0xff,
  0x61, 0xfc, 0xff, 0xff, 0xba, 0x04, 0x00, 0x00, 0xb5, 0x05, 0x00, 0x00,
  0xb5, 0x02, 0x00, 0x00, 0x6b, 0xfe, 0xff, 0xff, 0xc5, 0x00, 0x00, 0x00,
  0xc6, 0x0e, 0x00, 0x00, 0x4a, 0xf6, 0xff, 0xff, 0x66, 0xfa, 0xff, 0xff,
  0xca, 0xfc, 0xff, 0xff, 0xd4, 0xf4, 0xff, 0xff, 0xf8, 0x28, 0x00, 0x00,
  0xfb, 0x0c, 0x00, 0x00, 0x86, 0x02, 0x00, 0x00, 0xa3, 0x04, 0x00, 0x00,
  0x2c, 0x02, 0x00, 0x00, 0xfc, 0x04, 0x00, 0x00, 0x25, 0x05, 0x00, 0x00,
  0x63, 0x27, 0x00, 0x00, 0xda, 0x05, 0x00, 0x00, 0x45, 0x03, 0x00, 0x00,
  0x8c, 0x1c, 0x00, 0x00, 0xa4, 0xf5, 0xff, 0xff, 0xcb, 0x02, 0x00, 0x00,
  0x16, 0x06, 0x00, 0x00, 0xda, 0xf5, 0xff, 0xff, 0xbc, 0xf7, 0xff, 0xff,
  0xfe, 0x39, 0x00, 0x00, 0xc7, 0x0c, 0x00, 0x00, 0x2e, 0xe4, 0xff, 0xff,
  0x04, 0x00, 0x00, 0x00, 0xb0, 0x01, 0x00, 0x00, 0x41, 0xc0, 0xea, 0x25,
  0x65, 0x2c, 0xba, 0x90, 0x16, 0x2d, 0x6b, 0xc0, 0xd2, 0x3d, 0x58, 0x30,
  0x51, 0xb5, 0x33, 0x52, 0xab, 0xa8, 0x36, 0x40, 0xc8, 0xe0, 0x52, 0x47,
  0x45, 0x44, 0xcf, 0x3a, 0x40, 0xbc, 0xa2, 0xc8, 0x46, 0xd1, 0x50, 0x14,
  0xa0, 0x3f, 0x36, 0xa8, 0x40, 0x6f, 0x44, 0xbd, 0x51, 0x9a, 0xc9, 0x3d,
  0x7f, 0x36, 0xc2, 0x81, 0x29, 0x3f, 0x7f, 0x91, 0xaf, 0x63, 0x74, 0x54,
  0x3f, 0x99, 0x2f, 0x67, 0xaf, 0x8f, 0x4f, 0x50, 0xb7, 0xba, 0x7a, 0x6f,
  0x77, 0x7f, 0xc5, 0x54, 0x4f, 0x9e, 0x81, 0xc3, 0x52, 0xba, 0x58, 0x2b,
  0x97, 0x4d, 0x28, 0x9d, 0x53, 0x7f, 0x4b, 0xa4, 0x20, 0xe2, 0xce, 0x10,
  0x27, 0xfe, 0xf5, 0xda, 0x25, 0x1e, 0x15, 0xd8, 0xa6, 0x30, 0x34, 0x19,
  0x07, 0xed, 0x13, 0x21, 0xf3, 0xbc, 0x24, 0x15, 0xd9, 0xea, 0x3c, 0x26,
  0x1a, 0x2c, 0xf4, 0x09, 0x16, 0xc5, 0xbb, 0xc2, 0x1d, 0xdb, 0x1c, 0x20,
  0xd7, 0x1d, 0x05, 0xeb, 0x17, 0x23, 0x1f, 0xd9, 0x35, 0xa2, 0xc8, 0x52,
  0x6a, 0x5a, 0x81, 0x83, 0x54, 0x56, 0x78, 0xa3, 0x92, 0x5b, 0x75, 0x5b,
  0x7f, 0xa3, 0x2c, 0x60, 0x94, 0x9e, 0x54, 0x59, 0x9c, 0xb4, 0x76, 0x6d,
  0x51, 0x50, 0xb5, 0x5d, 0x6d, 0x96, 0xa9, 0x86, 0x60, 0xac, 0x7b, 0x5b,
  0x96, 0x4a, 0x6b, 0x8f, 0x57, 0x61, 0x2a, 0x9d, 0x31, 0x81, 0x81, 0x7f,
  0x76, 0x7f, 0x87, 0x83, 0x7f, 0x7f, 0x7d, 0x81, 0x81, 0x7f, 0x7f, 0x7f,
  0x7d, 0x81, 0x41, 0x7f, 0x81, 0x81, 0x7f, 0x7f, 0x81, 0x81, 0x7f, 0x7f,
  0x7f, 0x6a, 0x81, 0x7f, 0x7f, 0x81, 0x9a, 0x81, 0x7f, 0x81, 0x7f, 0x7f,
  0x81, 0x7f, 0x7f, 0x81, 0x7f, 0x6b, 0x34, 0x81, 0xfa, 0xc4, 0xa8, 0x2f,
  0x24, 0x1b, 0xcf, 0xdb, 0x41, 0x2b, 0x2c, 0xc0, 0xae, 0x33, 0x41, 0x47,
  0x27, 0xea, 0x1b, 0x13, 0xe3, 0xc1, 0x39, 0x37, 0xb6, 0xea, 0x22, 0x47,
  0x37, 0x1e, 0xe1, 0x21, 0x3a, 0x8f, 0xb4, 0xbd, 0x37, 0xd1, 0x2a, 0x38,
  0xe0, 0x1f, 0x32, 0xd3, 0x2b, 0x02, 0x14, 0xb4, 0xd8, 0xc6, 0xd4, 0x31,
  0x30, 0x32, 0xc4, 0xd8, 0x9e, 0x27, 0x27, 0xc2, 0xa7, 0x1f, 0x3b, 0x40,
  0x3b, 0xf1, 0xad, 0x3c, 0xd0, 0xcc, 0x30, 0x2b, 0xcd, 0xca, 0x4b, 0x28,
  0x17, 0xfc, 0xd0, 0x1c, 0x38, 0xd5, 0xdf, 0xcf, 0x24, 0xde, 0x2e, 0x62,
  0xdc, 0x2e, 0x3b, 0xc2, 0x1e, 0x02, 0x94, 0xed, 0x81, 0xa7, 0xa7, 0x3f,
  0x1d, 0x44, 0xc0, 0xde, 0xb5, 0x31, 0x3f, 0xb8, 0x9a, 0x2a, 0x34, 0x47,
  0x4a, 0xea, 0x81, 0x3e, 0xbe, 0xb8, 0x4e, 0x37, 0xaf, 0xd6, 0x38, 0x32,
  0x24, 0x02, 0xbc, 0x25, 0x3c, 0xaf, 0xf8, 0xcb, 0x33, 0xc7, 0x31, 0x7b,
  0xed, 0x3e, 0x59, 0xb4, 0x30, 0xe5, 0x81, 0xc6, 0xb6, 0xe2, 0xc7, 0x20,
  0x11, 0x10, 0x11, 0xfd, 0xa6, 0x18, 0x25, 0xe1, 0xc6, 0x15, 0x17, 0x36,
  0x03, 0x00, 0xbe, 0x10, 0xdf, 0x04, 0x13, 0x18, 0xed, 0x0c, 0x10, 0x11,
  0x04, 0x03, 0xf3, 0x10, 0x13, 0xee, 0xf9, 0xf3, 0x05, 0xed, 0x04, 0x3f,
  0xf9, 0x1f, 0x1b, 0xf4, 0x0a, 0xe5, 0xce, 0xe2, 0xea, 0xe5, 0xff, 0xff,
  0x04, 0x00, 0x00, 0x00, 0xc0, 0x00, 0x00, 0x00, 0xbf, 0xfe, 0xff, 0xff,
  0x98, 0x6d, 0x00, 0x00, 0x72, 0x67, 0x00, 0x00, 0x44, 0xfb, 0xff, 0xff,
  0x6e, 0xfe, 0xff, 0xff, 0xdc, 0xcb, 0xff, 0xff, 0x4a, 0x4a, 0x00, 0x00,
  0x9e, 0x4b, 0x00, 0x00, 0x76, 0xd4, 0xff, 0xff, 0x38, 0xf7, 0xff, 0xff,
  0x2d, 0xf8, 0xff, 0xff, 0xe3, 0x45, 0x00, 0x00, 0x93, 0x5f, 0x00, 0x00,
  0x16, 0xc6, 0xff, 0xff, 0xb1, 0xd6, 0xff, 0xff, 0xfa, 0xeb, 0xff, 0xff,
  0x81, 0xfd, 0xff, 0xff, 0x63, 0x64, 0x00, 0x00, 0x48, 0xfd, 0xff, 0xff,
  0x2c, 0xfc, 0xff, 0xff, 0xeb, 0xd1, 0x00, 0x00, 0x8e, 0x2d, 0x00, 0x00,
  0xf9, 0xd7, 0xff, 0xff, 0xe0, 0xe6, 0xff, 0xff, 0x48, 0x37, 0x00, 0x00,
  0x83, 0x33, 0x00, 0x00, 0x98, 0xf3, 0xff, 0xff, 0x4b, 0xf6, 0xff, 0xff,
  0x2b, 0xee, 0xff, 0xff, 0x57, 0xfe, 0xff, 0xff, 0xb2, 0x63, 0x00, 0x00,
  0x23, 0xfc, 0xff, 0xff, 0xa3, 0xea, 0xff, 0xff, 0x14, 0x26, 0x00, 0x00,
  0x71, 0x33, 0x00, 0x00, 0x46, 0x3b, 0x00, 0x00, 0x37, 0xf1, 0xff, 0xff,
  0x82, 0x9c, 0x00, 0x00, 0x2a, 0xec, 0xff, 0xff, 0xb4, 0xf9, 0xff, 0xff,
  0x8a, 0x68, 0x00, 0x00, 0x4a, 0xfe, 0xff, 0xff, 0x46, 0xfa, 0xff, 0xff,
  0xe6, 0x37, 0x00, 0x00, 0x2d, 0x03, 0x00, 0x00, 0xf3, 0xfa, 0xff, 0xff,
  0x7e, 0xe6, 0xff, 0xff, 0x75, 0x2e, 0x00, 0x00, 0xb6, 0xe6, 0xff, 0xff,
  0x04, 0x00, 0x00, 0x00, 0x80, 0x01, 0x00, 0x00, 0xf2, 0xe0, 0x2c, 0xcf,
  0x3e, 0x5b, 0x48, 0x63, 0x73, 0xd1, 0xeb, 0x3c, 0xe8, 0xed, 0x13, 0xef,
  0x30, 0x2c, 0x09, 0xcc, 0xe2, 0x12, 0xa9, 0xdc, 0x1f, 0xf3, 0x14, 0xb9,
  0xe0, 0x20, 0x2f, 0x1c, 0x1c, 0x34, 0x42, 0x13, 0x7d, 0xcc, 0xad, 0x0a,
  0xc3, 0xb7, 0xdb, 0xfc, 0xbb, 0xa9, 0x81, 0x39, 0xf4, 0x01, 0xdc, 0x2d,
  0xfe, 0x0f, 0xdd, 0xf4, 0xc6, 0x15, 0x0e, 0x54, 0xe0, 0xfe, 0xe4, 0x7f,
  0x28, 0x3b, 0x0d, 0xe0, 0xd9, 0xe8, 0xbc, 0x17, 0x0c, 0xf7, 0xec, 0xae,
  0x2b, 0xf2, 0xcc, 0xc3, 0x3f, 0xe4, 0xdc, 0xca, 0x1e, 0x1f, 0x36, 0xd7,
  0x09, 0x41, 0x2d, 0xd9, 0x01, 0xd9, 0xca, 0xed, 0x02, 0xb6, 0xe9, 0xf8,
  0xdd, 0x11, 0x08, 0x0e, 0x6a, 0x14, 0xfd, 0xee, 0xdf, 0xb2, 0x20, 0x0c,
  0x05, 0xc0, 0xe5, 0xfe, 0x9a, 0x36, 0x07, 0x1a, 0x04, 0x2c, 0xdb, 0xe5,
  0xe9, 0xd8, 0x2a, 0xd4, 0xa1, 0x1a, 0xcb, 0x3a, 0xbe, 0x39, 0xf0, 0xed,
  0x7f, 0xf0, 0x00, 0x26, 0x1a, 0x24, 0xc4, 0xe1, 0xe5, 0x92, 0x61, 0x36,
  0x19, 0x99, 0xf1, 0xf6, 0x81, 0x77, 0x37, 0xd0, 0x32, 0x06, 0xec, 0x11,
  0x36, 0x20, 0xe7, 0x2a, 0x4d, 0x56, 0x1b, 0xc6, 0x0f, 0x57, 0x42, 0x23,
  0xe1, 0xbc, 0x0c, 0x0a, 0xe6, 0x09, 0x31, 0x0b, 0xec, 0xab, 0xd9, 0x26,
  0xe8, 0xf7, 0x16, 0xc0, 0xae, 0x14, 0xfc, 0x1d, 0xf2, 0x38, 0xee, 0x49,
  0x25, 0x01, 0x07, 0xfa, 0xcc, 0x56, 0x35, 0x48, 0x04, 0x1a, 0x42, 0x0c,
  0x05, 0x95, 0xfa, 0xf5, 0x57, 0xf7, 0x9e, 0x3b, 0x49, 0xeb, 0x20, 0x1c,
  0x36, 0x1d, 0xf1, 0xc5, 0xc7, 0x7f, 0x07, 0x0d, 0x3b, 0xe9, 0x17, 0x19,
  0xe5, 0x30, 0x03, 0xe6, 0xff, 0xcf, 0xe2, 0x13, 0xe6, 0xfa, 0xf8, 0xb6,
  0x86, 0x24, 0x75, 0x1f, 0x08, 0x39, 0xe1, 0xe5, 0x97, 0xf5, 0x3e, 0xe2,
  0xaf, 0x28, 0xcb, 0xb1, 0x01, 0x67, 0xfa, 0x20, 0x68, 0x1d, 0xf7, 0x08,
  0xe6, 0xe9, 0x7f, 0xcd, 0xf3, 0x63, 0x47, 0x5c, 0xea, 0x2f, 0x54, 0x23,
  0xea, 0xdb, 0xe6, 0x20, 0xbf, 0x2c, 0x17, 0x34, 0x01, 0xea, 0xf7, 0x19,
  0xc6, 0xcc, 0x13, 0x05, 0x17, 0xef, 0x27, 0x09, 0xcc, 0xe4, 0x1f, 0x36,
  0x04, 0xc4, 0x06, 0xc1, 0x49, 0xe4, 0xfc, 0xe4, 0x0a, 0xfd, 0x0b, 0x29,
  0x27, 0x02, 0x0d, 0x7f, 0x2e, 0xf3, 0xf3, 0x16, 0x00, 0xf5, 0x13, 0x0f,
  0xfd, 0x22, 0xe1, 0xd0, 0xfb, 0xe4, 0xe9, 0x24, 0xe7, 0xef, 0xd3, 0xfb,
  0x05, 0xe8, 0x03, 0x0c, 0x2a, 0x03, 0x15, 0xfe, 0xf8, 0x0b, 0x01, 0x01,
  0x20, 0xfb, 0x00, 0xfa, 0xc6, 0x08, 0x0b, 0xe4, 0xff, 0xf9, 0xc9, 0xf3,
  0xf1, 0xef, 0x14, 0x20, 0x14, 0xf5, 0x1c, 0x0b, 0xed, 0x7f, 0xf3, 0xd7,
  0xda, 0xfd, 0xd2, 0xdc, 0x18, 0x3f, 0xbb, 0xf5, 0x42, 0xe8, 0xff, 0xff,
  0x04, 0x00, 0x00, 0x00, 0x20, 0x00, 0x00, 0x00, 0x96, 0x0a, 0x00, 0x00,
  0x89, 0xf7, 0xff, 0xff, 0xb8, 0x34, 0x00, 0x00, 0xdc, 0xe0, 0xff, 0xff,
  0xd9, 0xcc, 0xff, 0xff, 0x74, 0xcd, 0xff, 0xff, 0x06, 0xe6, 0xff, 0xff,
  0x8c, 0xf9, 0xff, 0xff, 0x6e, 0xe8, 0xff, 0xff, 0x04, 0x00, 0x00, 0x00,
  0x80, 0x01, 0x00, 0x00, 0xae, 0x81, 0xdd, 0x19, 0xe2, 0xfa, 0x2c, 0xcf,
  0xf7, 0x7f, 0x2a, 0xa3, 0x01, 0x9f, 0xbb, 0x66, 0x81, 0xbf, 0x2d, 0x10,
  0x4a, 0x0a, 0x25, 0xeb, 0x04, 0xde, 0x81, 0xc5, 0x1d, 0xd6, 0xe1, 0x35,
  0xbf, 0x92, 0x62, 0xed, 0x7f, 0xc0, 0x40, 0x01, 0xe8, 0x41, 0x37, 0xa4,
  0x73, 0x2d, 0xc0, 0x7f, 0x89, 0x60, 0x3a, 0x41, 0xd4, 0x08, 0x23, 0x81,
  0x28, 0xf0, 0x41, 0x19, 0x33, 0x81, 0xf6, 0x72, 0xfe, 0x3b, 0xf5, 0xdf,
  0x11, 0x6b, 0x7f, 0xbf, 0x46, 0x7f, 0x05, 0xc0, 0xba, 0xb8, 0xc7, 0x75,
  0x1e, 0xfd, 0x21, 0xff, 0xe6, 0x28, 0x81, 0xb5, 0xb5, 0x15, 0x8c, 0xb3,
  0x7f, 0x0e, 0x29, 0x44, 0x5f, 0x29, 0xde, 0xf8, 0x7f, 0x5b, 0x12, 0x08,
  0x81, 0x88, 0xf7, 0x3e, 0x8f, 0x2d, 0x50, 0x08, 0xfd, 0x67, 0xad, 0x6d,
  0xd4, 0x7f, 0xe8, 0x17, 0xf7, 0xa8, 0xe5, 0xa1, 0x7f, 0x46, 0xe7, 0x34,
  0x40, 0xb0, 0x00, 0x32, 0x26, 0xed, 0x23, 0x81, 0xb5, 0xa8, 0x81, 0x66,
  0x02, 0x59, 0x50, 0x9e, 0x54, 0xfc, 0x7f, 0x11, 0xe2, 0x89, 0xb6, 0xe2,
  0xf2, 0x7f, 0x14, 0x20, 0x53, 0x8b, 0xc9, 0xe7, 0xb6, 0xef, 0x81, 0xd3,
  0x26, 0xfb, 0xf9, 0xf7, 0x81, 0xf2, 0x2d, 0x3f, 0xb2, 0x97, 0x6b, 0xd4,
  0x34, 0xf0, 0x81, 0xb5, 0xdb, 0xfb, 0xf4, 0x40, 0xe7, 0x1a, 0x7f, 0xe4,
  0x9d, 0x23, 0xff, 0x93, 0xb5, 0x62, 0x4d, 0x6b, 0x7f, 0x5a, 0xf9, 0xcf,
  0xd3, 0x81, 0xb2, 0x1a, 0xcb, 0x2b, 0x2a, 0xf4, 0x61, 0x7c, 0x8f, 0xc8,
  0x81, 0xec, 0xc9, 0x2a, 0x42, 0x3d, 0xc0, 0x0f, 0x81, 0x1b, 0xdc, 0xec,
  0xdf, 0x3a, 0x0d, 0xaf, 0x51, 0x51, 0x81, 0x9c, 0x26, 0xfa, 0x03, 0xa7,
  0x81, 0x10, 0x0a, 0xc6, 0xa3, 0xfe, 0x2d, 0x7f, 0x31, 0x19, 0xd5, 0xea,
  0x06, 0x81, 0x02, 0xb5, 0x87, 0x41, 0xb9, 0x88, 0x81, 0x01, 0x19, 0xef,
  0x04, 0xde, 0x02, 0x1b, 0x29, 0xac, 0x81, 0x88, 0xfc, 0x06, 0xc5, 0x17,
  0x2c, 0x5a, 0x7f, 0x05, 0x8f, 0xc8, 0x43, 0xac, 0x65, 0x18, 0x10, 0x0d,
  0x96, 0xd3, 0x81, 0xd4, 0x7f, 0x01, 0x47, 0xd3, 0x11, 0xe7, 0x48, 0x46,
  0x7f, 0x6a, 0xf4, 0xfb, 0x4f, 0x55, 0x8a, 0x1c, 0xd4, 0x57, 0x69, 0x7f,
  0xdc, 0x3c, 0x23, 0xc2, 0x1c, 0x31, 0x7f, 0xda, 0x65, 0xc9, 0xdc, 0x0b,
  0x3d, 0x2c, 0x1e, 0x0a, 0xb3, 0x81, 0x1b, 0xda, 0x23, 0xce, 0x0c, 0x7f,
  0xec, 0x46, 0x03, 0x48, 0xf6, 0x95, 0x40, 0xd3, 0x7f, 0xe8, 0x4d, 0x13,
  0xee, 0xe6, 0xa1, 0xd6, 0x7f, 0x37, 0xac, 0x79, 0x6c, 0xe1, 0x7f, 0xf6,
  0x0c, 0x29, 0xc9, 0x03, 0xe9, 0x1e, 0x17, 0xe4, 0x95, 0x81, 0xf5, 0x66,
  0xc3, 0x4c, 0x47, 0x20, 0xff, 0xea, 0x24, 0x81, 0x22, 0xe6, 0x13, 0x7f,
  0xf6, 0x96, 0x5b, 0x49, 0xfa, 0xe9, 0xff, 0xff, 0x04, 0x00, 0x00, 0x00,
  0xc0, 0x00, 0x00, 0x00, 0x26, 0x02, 0x00, 0x00, 0x87, 0x20, 0x00, 0x00,
  0xe1, 0xde, 0xff, 0xff, 0x4e, 0x17, 0x00, 0x00, 0x79, 0x0b, 0x00, 0x00,
  0x14, 0x12, 0x00, 0x00, 0x77, 0x0f, 0x00, 0x00, 0x81, 0x37, 0x00, 0x00,
  0xcc, 0x2c, 0x00, 0x00, 0x0c, 0x1e, 0x00, 0x00, 0x7e, 0xf6, 0xff, 0xff,
  0x8c, 0xfd, 0xff, 0xff, 0xc8, 0x05, 0x00, 0x00, 0xd4, 0x0f, 0x00, 0x00,
  0xd3, 0x0d, 0x00, 0x00, 0x69, 0xfc, 0xff, 0xff, 0x4e, 0xff, 0xff, 0xff,
  0xca, 0x1a, 0x00, 0x00, 0xdb, 0x28, 0x00, 0x00, 0xec, 0x02, 0x00, 0x00,
  0x43, 0x0d, 0x00, 0x00, 0x91, 0x22, 0x00, 0x00, 0x51, 0x11, 0x00, 0x00,
  0x0f, 0x1f, 0x00, 0x00, 0x4b, 0x4c, 0x00, 0x00, 0x4e, 0x1e, 0x00, 0x00,
  0x11, 0x08, 0x00, 0x00, 0x25, 0x23, 0x00, 0x00, 0x58, 0x08, 0x00, 0x00,
  0xd4, 0x1c, 0x00, 0x00, 0xec, 0xf2, 0xff, 0xff, 0x47, 0x1c, 0x00, 0x00,
  0x4b, 0x05, 0x00, 0x00, 0x84, 0x24, 0x00, 0x00, 0x2e, 0x1d, 0x00, 0x00,
  0xe0, 0x13, 0x00, 0x00, 0x1a, 0xc0, 0x01, 0x00, 0x2d, 0x2d, 0x00, 0x00,
  0xc2, 0x1a, 0x00, 0x00, 0x34, 0x3c, 0x00, 0x00, 0xd5, 0x08, 0x00, 0x00,
  0xc9, 0x03, 0x00, 0x00, 0x20, 0x11, 0x00, 0x00, 0xb0, 0x05, 0x00, 0x00,
  0xb9, 0x0f, 0x00, 0x00, 0x3a, 0x0b, 0x00, 0x00, 0x59, 0x0a, 0x00, 0x00,
  0xf8, 0x0c, 0x00, 0x00, 0xc6, 0xea, 0xff, 0xff, 0x04, 0x00, 0x00, 0x00,
  0xb0, 0x01, 0x00, 0x00, 0xd7, 0xf3, 0x35, 0x0d, 0x7f, 0xca, 0x20, 0x08,
  0xfc, 0x20, 0x19, 0xf9, 0x05, 0x0d, 0xba, 0x0c, 0x53, 0xcb, 0xe9, 0x2d,
  0xe5, 0x07, 0xc4, 0xec, 0xe8, 0xfd, 0x18, 0xd8, 0xe9, 0x7f, 0x1c, 0x98,
  0xd0, 0x63, 0x7f, 0xc3, 0x0a, 0xc4, 0x81, 0xde, 0x0c, 0xf2, 0xfa, 0xbc,
  0xfa, 0xc1, 0x8c, 0x1b, 0xc9, 0x50, 0x09, 0x25, 0xf9, 0xa5, 0x7e, 0xee,
  0x43, 0x10, 0x24, 0x7f, 0x44, 0x7f, 0xeb, 0x2d, 0x7d, 0xb1, 0x07, 0x66,
  0xe0, 0xe3, 0x6a, 0x8b, 0xfd, 0x2b, 0x94, 0x1a, 0xea, 0xab, 0x68, 0x81,
  0x81, 0xaf, 0x0f, 0xf7, 0xc2, 0xd3, 0x93, 0x0f, 0xc6, 0xea, 0x17, 0x81,
  0x13, 0xa7, 0x12, 0x43, 0xf4, 0x07, 0x15, 0x03, 0x31, 0xd8, 0x1f, 0xff,
  0x0b, 0x1a, 0xe4, 0xda, 0xf7, 0x04, 0xd4, 0x22, 0x52, 0xf1, 0xf4, 0x36,
  0xef, 0xfc, 0xbb, 0xf8, 0x0f, 0xfa, 0x15, 0xa2, 0xe2, 0x2d, 0xd4, 0xb9,
  0x06, 0x01, 0x6f, 0xdc, 0x0d, 0xe1, 0xae, 0x03, 0x0d, 0x05, 0x07, 0xc9,
  0xf2, 0x9e, 0x81, 0xf9, 0x81, 0x7f, 0xeb, 0xc3, 0x0a, 0xa5, 0x16, 0xf7,
  0x10, 0x14, 0x37, 0x2e, 0x41, 0x57, 0xd3, 0x1e, 0x7f, 0x82, 0x0b, 0x64,
  0xf3, 0xca, 0x9c, 0xd9, 0x81, 0xfb, 0xe5, 0x11, 0xfa, 0x08, 0x4e, 0xaa,
  0xbf, 0x7f, 0x94, 0xb1, 0x26, 0xb2, 0x1b, 0x3a, 0xa2, 0x15, 0xb6, 0x40,
  0xf0, 0x81, 0xfb, 0xd0, 0xf9, 0x77, 0x7f, 0x7f, 0xdd, 0x57, 0x81, 0x7f,
  0x7f, 0x81, 0xa4, 0x44, 0x7f, 0x6c, 0x7f, 0x9c, 0xca, 0x81, 0x7f, 0x04,
  0x81, 0x7f, 0x7f, 0x02, 0x57, 0x78, 0x4e, 0x7f, 0x7f, 0xbb, 0x7f, 0x01,
  0xcb, 0xa3, 0xe4, 0x81, 0x7f, 0x7f, 0x53, 0x3b, 0xd3, 0x7f, 0xec, 0x54,
  0x7f, 0x25, 0xed, 0x81, 0xc0, 0x50, 0xd7, 0xd0, 0xcd, 0x8e, 0x14, 0xe5,
  0xfa, 0x07, 0x60, 0x32, 0x17, 0x4d, 0xd1, 0x78, 0x75, 0x95, 0xf9, 0x5b,
  0x21, 0xab, 0x8b, 0xe1, 0x12, 0xea, 0xe8, 0x18, 0x00, 0x0c, 0x48, 0xc3,
  0xf4, 0xed, 0x84, 0xc2, 0x18, 0xa8, 0x24, 0x81, 0xba, 0x26, 0x7f, 0x3b,
  0xe2, 0x85, 0x00, 0x72, 0xfa, 0x02, 0x0b, 0xf2, 0x23, 0xdd, 0x13, 0x00,
  0x15, 0x1d, 0x7f, 0x2e, 0xff, 0x08, 0xea, 0x6b, 0x54, 0xce, 0xd1, 0xff,
  0xe0, 0x05, 0xbf, 0x25, 0xf6, 0xfa, 0xdf, 0xe8, 0x08, 0x47, 0x03, 0xef,
  0xee, 0x1d, 0xcb, 0x0a, 0xdb, 0xc6, 0x3b, 0xdb, 0x4c, 0xf3, 0x02, 0xfc,
  0xf0, 0xee, 0xf9, 0xdf, 0xb4, 0x79, 0x0e, 0x0d, 0xb3, 0x81, 0x45, 0xb2,
  0x42, 0x18, 0x1d, 0xc9, 0xce, 0x27, 0xe0, 0x7f, 0x56, 0x0f, 0xff, 0x7f,
  0xbc, 0x11, 0x48, 0x7f, 0x11, 0x81, 0x7f, 0x0a, 0x11, 0xe1, 0xe4, 0x85,
  0x08, 0xc9, 0xcd, 0x8f, 0xbd, 0xb7, 0x2b, 0x23, 0x7f, 0x30, 0xe2, 0x21,
  0xed, 0x98, 0xa3, 0xfb, 0x2d, 0xfe, 0x1c, 0xf7, 0xfa, 0xd2, 0x0f, 0x08,
  0x15, 0x1a, 0x6e, 0x1c, 0x13, 0x0b, 0xeb, 0x37, 0x2a, 0xde, 0xcb, 0x1a,
  0xdb, 0x01, 0xc9, 0x2a, 0x03, 0xec, 0xe1, 0xcb, 0x05, 0x00, 0xfa, 0xf6,
  0x00, 0xfc, 0xf8, 0x29, 0xe2, 0xd2, 0x36, 0x00, 0x34, 0xfa, 0x28, 0xf7,
  0xeb, 0xcb, 0x0c, 0x1a, 0x82, 0xec, 0xff, 0xff, 0x04, 0x00, 0x00, 0x00,
  0xc0, 0x00, 0x00, 0x00, 0x88, 0x3c, 0x00, 0x00, 0x5e, 0xa6, 0xff, 0xff,
  0xeb, 0xfb, 0xff, 0xff, 0x87, 0x0c, 0x00, 0x00, 0x4b, 0xf9, 0xff, 0xff,
  0x88, 0x37, 0x00, 0x00, 0x9f, 0x0a, 0x00, 0x00, 0xde, 0xfb, 0xff, 0xff,
  0x19, 0xe1, 0xff, 0xff, 0x05, 0x04, 0x00, 0x00, 0xf0, 0xf3, 0xff, 0xff,
  0xd7, 0xf6, 0xff, 0xff, 0x65, 0xe0, 0xff, 0xff, 0x1c, 0xbc, 0xff, 0xff,
  0xc8, 0x12, 0x00, 0x00, 0xdb, 0x05, 0x00, 0x00, 0x6a, 0xd3, 0xff, 0xff,
  0x21, 0x82, 0x00, 0x00, 0x63, 0xf5, 0xff, 0xff, 0xe9, 0xc9, 0xff, 0xff,
  0x1e, 0x3e, 0x00, 0x00, 0xd3, 0xfe, 0xff, 0xff, 0xce, 0x02, 0x00, 0x00,
  0x53, 0xff, 0xff, 0xff, 0xf5, 0x03, 0x00, 0x00, 0xc8, 0xff, 0xff, 0xff,
  0xf1, 0xef, 0xff, 0xff, 0x8a, 0xfa, 0xff, 0xff, 0x2b, 0xfa, 0xff, 0xff,
  0x6c, 0xfb, 0xff, 0xff, 0xb4, 0xfe, 0xff, 0xff, 0xc3, 0x6d, 0x00, 0x00,
  0xa5, 0x3f, 0x00, 0x00, 0x47, 0xfb, 0xff, 0xff, 0x24, 0x0f, 0x00, 0x00,
  0x8f, 0x4e, 0x00, 0x00, 0x1e, 0xf9, 0xff, 0xff, 0x19, 0x58, 0x00, 0x00,
  0x21, 0x07, 0x00, 0x00, 0x08, 0x06, 0x00, 0x00, 0x23, 0xf0, 0xff, 0xff,
  0x7e, 0xe0, 0xff, 0xff, 0xbe, 0xf4, 0xff, 0xff, 0xe8, 0x0c, 0x00, 0x00,
  0x7b, 0x10, 0x00, 0x00, 0x02, 0x88, 0x00, 0x00, 0xe7, 0x3f, 0x00, 0x00,
  0x33, 0xea, 0xff, 0xff, 0x4e, 0xed, 0xff, 0xff, 0x04, 0x00, 0x00, 0x00,
  0x80, 0x01, 0x00, 0x00, 0x2b, 0x2e, 0xb1, 0x30, 0x12, 0x1b, 0xa6, 0xde,
  0x08, 0xee, 0xfd, 0xd6, 0xf0, 0x03, 0x31, 0x02, 0x2e, 0xee, 0x2d, 0xe5,
  0x17, 0xdc, 0x29, 0x01, 0x0f, 0xe5, 0xe8, 0x16, 0xf1, 0xfa, 0xf0, 0x02,
  0x33, 0x13, 0x13, 0x0f, 0x7f, 0x41, 0x24, 0xe2, 0xff, 0xef, 0xfa, 0xe8,
  0x4f, 0x1c, 0x18, 0xd0, 0x3b, 0x12, 0x0e, 0xf7, 0x24, 0x5c, 0xf7, 0xe4,
  0x24, 0x41, 0xd8, 0xb2, 0x68, 0xf4, 0x14, 0x2d, 0x15, 0x20, 0x17, 0xa4,
  0x7f, 0xe3, 0x25, 0x36, 0x29, 0x18, 0x29, 0x1b, 0x17, 0xba, 0x36, 0x48,
  0x3f, 0x65, 0x08, 0x6d, 0x3f, 0x25, 0x1b, 0x15, 0x4c, 0x10, 0x1e, 0x1b,
  0x16, 0x29, 0x72, 0xb7, 0xf0, 0x09, 0x4f, 0x7f, 0xd1, 0x1e, 0xfd, 0x39,
  0x2a, 0x53, 0x10, 0xaa, 0xd4, 0x7f, 0x20, 0x25, 0xa2, 0x9e, 0x4b, 0xfd,
  0x08, 0x3a, 0xc1, 0xb1, 0xdc, 0xd3, 0x1e, 0xfe, 0x87, 0x10, 0xfd, 0xfd,
  0xe0, 0xe5, 0x9f, 0xce, 0x0c, 0x1b, 0xab, 0xe9, 0xe2, 0xcc, 0xd7, 0x11,
  0x43, 0xa9, 0xe9, 0x21, 0xe0, 0x33, 0xb2, 0xf4, 0x15, 0xad, 0x00, 0x47,
  0x6d, 0xa8, 0xd7, 0x12, 0xfa, 0xe8, 0x08, 0x41, 0x1b, 0x08, 0xf4, 0xe3,
  0xf5, 0x13, 0xaf, 0x23, 0xea, 0xdc, 0x2c, 0xf3, 0x49, 0xd8, 0x30, 0xc3,
  0x23, 0xe7, 0xe6, 0xd0, 0x81, 0x00, 0xa6, 0x15, 0xe9, 0xbe, 0x25, 0x00,
  0xcb, 0x15, 0xf4, 0xd6, 0x3c, 0xf4, 0x1c, 0xf1, 0xbf, 0x3d, 0x1c, 0x4a,
  0x83, 0xc9, 0x3b, 0x2e, 0x48, 0xcb, 0xb7, 0xc6, 0x57, 0x43, 0x42, 0xe9,
  0x0b, 0xa9, 0xf4, 0x30, 0xe2, 0x09, 0xd8, 0x81, 0xc9, 0xd0, 0x58, 0x26,
  0x4a, 0x06, 0x71, 0x53, 0x44, 0x39, 0x30, 0x29, 0x11, 0x28, 0xd6, 0xe7,
  0x50, 0x4a, 0x53, 0xd6, 0x25, 0x58, 0x11, 0x5e, 0x1c, 0x14, 0xd2, 0x9c,
  0x96, 0x1e, 0xf3, 0x04, 0x15, 0x40, 0x20, 0xbc, 0x56, 0x70, 0xe9, 0x27,
  0xee, 0xbb, 0xf0, 0xb4, 0x8f, 0xb1, 0xd6, 0x37, 0xf8, 0x30, 0xde, 0x30,
  0xf9, 0xab, 0x49, 0x00, 0xd8, 0x7d, 0xd6, 0x81, 0xf3, 0xd8, 0xf5, 0xd7,
  0xfb, 0xe9, 0xcf, 0x6a, 0x73, 0x2f, 0x05, 0x7f, 0xa9, 0x21, 0x16, 0x3e,
  0x1a, 0xab, 0x44, 0x5f, 0x59, 0xd6, 0xe8, 0xc4, 0x40, 0x1a, 0xae, 0x15,
  0x54, 0xdd, 0xe2, 0x02, 0x07, 0x49, 0xcf, 0xd7, 0x15, 0xd1, 0x46, 0x42,
  0x1b, 0xd0, 0xfb, 0x63, 0x6b, 0xb3, 0x08, 0x06, 0x9d, 0x54, 0x8d, 0x3c,
  0x42, 0x68, 0x6f, 0xc6, 0x13, 0x0a, 0x7f, 0x25, 0xe1, 0x40, 0xae, 0x07,
  0xde, 0x66, 0xf4, 0xf0, 0x2a, 0x41, 0x0f, 0xf7, 0xc8, 0xf6, 0xc1, 0x01,
  0xfb, 0x1f, 0xfd, 0xdc, 0xf6, 0x28, 0x2e, 0xf6, 0xff, 0xfd, 0x10, 0xf4,
  0xaa, 0xef, 0x3c, 0x1c, 0x59, 0x04, 0x2a, 0xf2, 0xe6, 0xde, 0xe1, 0xca,
  0x00, 0xe0, 0x0e, 0x1a, 0xda, 0xee, 0xff, 0xff, 0x04, 0x00, 0x00, 0x00,
  0x20, 0x00, 0x00, 0x00, 0xbf, 0xcf, 0xff, 0xff, 0xa9, 0x80, 0xff, 0xff,
  0x2a, 0x08, 0x00, 0x00, 0xa1, 0x1c, 0x00, 0x00, 0x3f, 0xc1, 0xff, 0xff,
  0xe3, 0x05, 0x00, 0x00, 0x9a, 0x96, 0xff, 0xff, 0x61, 0xfc, 0xff, 0xff,
  0x06, 0xef, 0xff, 0xff, 0x04, 0x00, 0x00, 0x00, 0x80, 0x01, 0x00, 0x00,
  0x81, 0x28, 0xe8, 0xeb, 0x47, 0x2b, 0x02, 0xc3, 0x00, 0xc9, 0xdb, 0xf0,
  0xcd, 0x81, 0x06, 0x15, 0xba, 0x4e, 0x00, 0xc2, 0xd1, 0x32, 0xb8, 0x7f,
  0x36, 0x25, 0x2c, 0xea, 0xd2, 0x81, 0x2c, 0xf0, 0x1a, 0x38, 0x81, 0x19,
  0x91, 0x5a, 0x22, 0x16, 0xe7, 0x29, 0x1b, 0xdb, 0xad, 0x81, 0xca, 0xf2,
  0xbc, 0x7f, 0x67, 0xdf, 0xad, 0xd3, 0x1d, 0xd0, 0xf3, 0xfc, 0x2a, 0x3d,
  0x04, 0x81, 0xf6, 0x36, 0x7f, 0x1b, 0xb5, 0x49, 0xab, 0xc1, 0x98, 0xfd,
  0x5f, 0xdc, 0xba, 0xbf, 0x01, 0xe6, 0xda, 0x7f, 0xb0, 0x04, 0x05, 0x7f,
  0x09, 0x49, 0x16, 0xa6, 0x1a, 0x0f, 0x33, 0xec, 0x08, 0x6e, 0x7f, 0x60,
  0xb6, 0xa8, 0xc2, 0x9e, 0x7f, 0xd7, 0xf8, 0x33, 0xe2, 0xf5, 0xf9, 0x2a,
  0x17, 0x81, 0x24, 0x3f, 0x46, 0x4b, 0x68, 0x11, 0x3d, 0x81, 0xb0, 0xe9,
  0xdc, 0x49, 0x7f, 0x39, 0xff, 0x11, 0x29, 0xa5, 0xa8, 0xde, 0x23, 0xb4,
  0x7f, 0x10, 0xc1, 0xf6, 0x25, 0xd0, 0xd4, 0x06, 0xf0, 0x7f, 0xe8, 0x2e,
  0xef, 0x7f, 0x41, 0xda, 0xc6, 0x37, 0x4a, 0xb1, 0x0a, 0x6d, 0x5e, 0x7f,
  0xe8, 0x28, 0x22, 0x1e, 0x10, 0x01, 0x36, 0x81, 0xcd, 0x03, 0x3a, 0xea,
  0x99, 0x52, 0x2c, 0x81, 0x67, 0x3a, 0x7e, 0x12, 0x55, 0xd9, 0x96, 0x45,
  0x3f, 0xce, 0xbd, 0x7f, 0x31, 0xa2, 0x81, 0xce, 0x4d, 0xec, 0xb3, 0x5a,
  0x2a, 0xea, 0xa0, 0x0e, 0xcc, 0x2b, 0x81, 0x72, 0xf7, 0xf0, 0x2f, 0x06,
  0x7f, 0xf7, 0xb0, 0xd9, 0x07, 0x65, 0x7f, 0xe8, 0xd8, 0xf3, 0x39, 0xc8,
  0xd2, 0x28, 0x7f, 0xae, 0x20, 0x0f, 0x5f, 0x87, 0x3a, 0xfe, 0x59, 0x7f,
  0x43, 0xe6, 0x27, 0x67, 0x52, 0x50, 0x6e, 0x0e, 0xb9, 0x1d, 0x81, 0x66,
  0x36, 0xfb, 0x9b, 0x3a, 0x81, 0xdf, 0xcd, 0x34, 0x14, 0x7f, 0x5d, 0xc0,
  0xae, 0x2c, 0x70, 0x91, 0x39, 0xf4, 0xfa, 0x23, 0x6b, 0x7f, 0x27, 0xe1,
  0x10, 0xd3, 0x81, 0x01, 0x16, 0xe8, 0xde, 0x53, 0x12, 0xcf, 0x1b, 0x81,
  0xf7, 0x45, 0xf2, 0x0d, 0xea, 0x1b, 0x56, 0xfc, 0x07, 0x81, 0x06, 0xee,
  0xf8, 0x11, 0xe1, 0x81, 0xf5, 0x0c, 0x0b, 0xd7, 0x3c, 0xef, 0xe9, 0xa0,
  0xaa, 0x7f, 0xbd, 0xac, 0x54, 0xc7, 0xe4, 0x5f, 0x40, 0x22, 0xde, 0x7f,
  0x7f, 0x62, 0x26, 0x52, 0xf8, 0x68, 0xcc, 0xf8, 0x1f, 0x8e, 0x81, 0xe8,
  0x01, 0x08, 0xd2, 0x76, 0xf6, 0xc6, 0x81, 0xa2, 0x01, 0xb7, 0xd2, 0xee,
  0x3f, 0x78, 0x6d, 0x7f, 0xb9, 0xec, 0x18, 0x36, 0x7f, 0xde, 0x9a, 0x95,
  0xbb, 0xd9, 0x1e, 0x3c, 0x01, 0x51, 0x63, 0xb2, 0xa7, 0xf8, 0x45, 0x81,
  0x24, 0x10, 0x81, 0x34, 0xdf, 0x1b, 0x0e, 0x44, 0x29, 0xcf, 0xbc, 0x81,
  0x16, 0xe6, 0xd9, 0x2c, 0x55, 0x90, 0x7f, 0xc3, 0x48, 0xe7, 0x0b, 0x0e,
  0x92, 0xf0, 0xff, 0xff, 0x04, 0x00, 0x00, 0x00, 0xc0, 0x00, 0x00, 0x00,
  0x13, 0xd3, 0x00, 0x00, 0x93, 0x1f, 0x00, 0x00, 0xe2, 0x05, 0x00, 0x00,
  0xf6, 0x03, 0x00, 0x00, 0xa7, 0x13, 0x00, 0x00, 0xd6, 0x08, 0x00, 0x00,
  0x3e, 0x22, 0x00, 0x00, 0xe0, 0x0d, 0x00, 0x00, 0x7d, 0x0a, 0x00, 0x00,
  0xc5, 0xe1, 0xff, 0xff, 0xfb, 0x39, 0x00, 0x00, 0x67, 0x04, 0x00, 0x00,
  0xef, 0x2e, 0x00, 0x00, 0xac, 0x08, 0x00, 0x00, 0x78, 0x10, 0x00, 0x00,
  0xc9, 0x0c, 0x00, 0x00, 0x7b, 0x19, 0x00, 0x00, 0x7d, 0xfd, 0xff, 0xff,
  0x0e, 0x2e, 0x00, 0x00, 0x26, 0x01, 0x00, 0x00, 0x0e, 0x0c, 0x00, 0x00,
  0x0a, 0xfe, 0xff, 0xff, 0xb1, 0x13, 0x00, 0x00, 0x97, 0x24, 0x00, 0x00,
  0x75, 0x0a, 0x00, 0x00, 0x31, 0xf0, 0xff, 0xff, 0x2a, 0x0b, 0x00, 0x00,
  0xc4, 0x35, 0x00, 0x00, 0x5f, 0x03, 0x00, 0x00, 0xe4, 0x20, 0x00, 0x00,
  0x1f, 0x06, 0x00, 0x00, 0x4c, 0x3e, 0x00, 0x00, 0x8b, 0x03, 0x00, 0x00,
  0xd6, 0x1c, 0x00, 0x00, 0x85, 0xfe, 0xff, 0xff, 0x6a, 0xfb, 0xff, 0xff,
  0x13, 0x0a, 0x00, 0x00, 0x5b, 0x0a, 0x00, 0x00, 0xfc, 0x00, 0x00, 0x00,
  0x2b, 0x0a, 0x00, 0x00, 0x3a, 0x39, 0x00, 0x00, 0x4e, 0xfa, 0xff, 0xff,
  0x55, 0x30, 0x00, 0x00, 0x8d, 0x11, 0x00, 0x00, 0x30, 0x06, 0x00, 0x00,
  0xd6, 0x0f, 0x00, 0x00, 0x53, 0x16, 0x00, 0x00, 0xc8, 0xf9, 0xff, 0xff,
  0x5e, 0xf1, 0xff, 0xff, 0x04, 0x00, 0x00, 0x00, 0xb0, 0x01, 0x00, 0x00,
  0x46, 0x4e, 0xe1, 0x40, 0xfa, 0x03, 0xc7, 0x13, 0x23, 0xa2, 0x23, 0x08,
  0x07, 0x9c, 0xde, 0x23, 0x6d, 0x33, 0xc2, 0x09, 0x67, 0x12, 0xeb, 0xf1,
  0x45, 0x14, 0x1b, 0x00, 0xa7, 0x0d, 0xf8, 0xc1, 0x7f, 0x0e, 0x72, 0x11,
  0xd7, 0x2f, 0x7f, 0x2c, 0xb6, 0x54, 0xb7, 0xc7, 0x19, 0xb5, 0xe0, 0xf6,
  0x59, 0x7f, 0xb0, 0x61, 0x17, 0x37, 0xaf, 0x81, 0x32, 0x25, 0x7f, 0x20,
  0xe9, 0xdd, 0xec, 0xf6, 0xc4, 0x7f, 0xa2, 0x1f, 0x4d, 0x7f, 0x2c, 0xe5,
  0x18, 0x06, 0x09, 0x7f, 0x81, 0x49, 0xe2, 0x81, 0x0c, 0xe2, 0x18, 0x5c,
  0xb2, 0x7f, 0x73, 0x20, 0x81, 0xbb, 0x42, 0xf9, 0x08, 0x15, 0x81, 0x68,
  0x26, 0x33, 0xf7, 0x25, 0x08, 0xfd, 0xd6, 0x18, 0x1a, 0x91, 0x1c, 0x09,
  0x0f, 0xa3, 0xe8, 0xe9, 0x5f, 0xf7, 0xd6, 0xf9, 0x5f, 0x0f, 0xe2, 0x34,
  0x38, 0x36, 0x16, 0xfb, 0xfe, 0x00, 0xf5, 0xde, 0x63, 0x0c, 0x5d, 0x1a,
  0xea, 0x11, 0x7b, 0x09, 0xde, 0x46, 0x27, 0x3c, 0x1c, 0x5f, 0x18, 0xed,
  0xed, 0xcb, 0x84, 0x5c, 0x16, 0x2b, 0x49, 0xe4, 0x1e, 0x27, 0xd3, 0x7f,
  0x7f, 0x02, 0xe4, 0xc0, 0xe3, 0x63, 0x54, 0xf6, 0x92, 0x0a, 0x22, 0x97,
  0x1a, 0x3f, 0x1b, 0x10, 0xf4, 0x44, 0x1f, 0x2b, 0x42, 0x7f, 0x1a, 0x28,
  0xad, 0x0d, 0xbe, 0x69, 0x50, 0xff, 0x58, 0x92, 0x05, 0xa1, 0x08, 0x7f,
  0x33, 0x96, 0xc9, 0x81, 0x7f, 0x0c, 0x7f, 0xa7, 0x81, 0x7c, 0x03, 0x46,
  0x90, 0x7f, 0x7f, 0xf3, 0x81, 0x47, 0x0b, 0x7f, 0x35, 0xf6, 0x7f, 0xf5,
  0x81, 0x7f, 0x26, 0xb8, 0x9f, 0x1b, 0x81, 0x65, 0x67, 0x9e, 0x1a, 0x7f,
  0x7f, 0x44, 0xfc, 0x7f, 0x78, 0xb8, 0xf8, 0x06, 0x6c, 0xcd, 0x00, 0x26,
  0xeb, 0xd0, 0x81, 0x3d, 0xed, 0x7f, 0x38, 0xe4, 0x1a, 0x2f, 0xd7, 0x40,
  0xef, 0x11, 0xe0, 0xef, 0xbc, 0x64, 0x7f, 0xdb, 0x81, 0x10, 0xbe, 0x7f,
  0x0b, 0x1c, 0x1e, 0x24, 0x3d, 0x3c, 0x36, 0x25, 0x0d, 0xf6, 0xd6, 0x9d,
  0xd9, 0xef, 0x03, 0x25, 0x3f, 0x46, 0xf5, 0x7f, 0xf0, 0x7f, 0xee, 0x5c,
  0xd6, 0xed, 0x02, 0x17, 0xf1, 0x0f, 0xfb, 0x06, 0x16, 0xe9, 0x01, 0x12,
  0x1b, 0xac, 0xd5, 0x26, 0x65, 0x15, 0x0e, 0x08, 0xc1, 0x20, 0xf7, 0xf9,
  0x18, 0x0b, 0xfe, 0xfc, 0xfd, 0x19, 0x31, 0xff, 0x15, 0x08, 0x7f, 0xf7,
  0xfd, 0x50, 0x65, 0x41, 0x15, 0x53, 0x7f, 0xe5, 0xc6, 0x9c, 0xf7, 0xf0,
  0x81, 0xf4, 0xa9, 0x29, 0x84, 0x04, 0xc3, 0xf8, 0x10, 0x7f, 0xae, 0x42,
  0xe6, 0xd5, 0xec, 0x7f, 0xa8, 0x2f, 0x97, 0xde, 0xb5, 0x24, 0xfe, 0xde,
  0xf3, 0x47, 0x81, 0xeb, 0xa9, 0x7f, 0x49, 0x14, 0x2d, 0xe4, 0x0b, 0x1c,
  0xef, 0x46, 0xd2, 0x3e, 0xc9, 0x81, 0xa8, 0xe3, 0x81, 0x45, 0x92, 0x6f,
  0xd7, 0xe7, 0x06, 0x13, 0x06, 0x03, 0xfb, 0x04, 0x0e, 0xc8, 0xf4, 0xf6,
  0xf5, 0xb8, 0xe9, 0x08, 0x69, 0xe6, 0x5e, 0x10, 0xbd, 0x04, 0xff, 0x21,
  0x16, 0xec, 0xfe, 0xf8, 0x06, 0x0f, 0x29, 0x01, 0x33, 0x06, 0x59, 0x12,
  0x02, 0x4a, 0x6a, 0x14, 0x17, 0x55, 0xdd, 0x2f, 0xd9, 0x68, 0xf4, 0xd6,
  0x1a, 0xf3, 0xff, 0xff, 0x04, 0x00, 0x00, 0x00, 0xc0, 0x00, 0x00, 0x00,
  0xe1, 0xff, 0xff, 0xff, 0xf7, 0x03, 0x00, 0x00, 0xee, 0x31, 0x00, 0x00,
  0xfd, 0x03, 0x00, 0x00, 0x65, 0xfc, 0xff, 0xff, 0x5c, 0xe4, 0xff, 0xff,
  0x17, 0xf9, 0xff, 0xff, 0x22, 0x30, 0x00, 0x00, 0xde, 0x1f, 0x00, 0x00,
  0x42, 0xf1, 0xff, 0xff, 0x1f, 0xf1, 0xff, 0xff, 0x4c, 0xe4, 0xff, 0xff,
  0x00, 0xff, 0xff, 0xff, 0x09, 0x3d, 0x00, 0x00, 0x6b, 0x2c, 0x00, 0x00,
  0x59, 0xfd, 0xff, 0xff, 0x78, 0x1a, 0x00, 0x00, 0xb1, 0xe2, 0xff, 0xff,
  0x42, 0x12, 0x00, 0x00, 0xcb, 0xf7, 0xff, 0xff, 0x61, 0x39, 0x00, 0x00,
  0x49, 0xf2, 0xff, 0xff, 0x3b, 0xfa, 0xff, 0xff, 0x4a, 0xfc, 0xff, 0xff,
  0x94, 0x0d, 0x00, 0x00, 0x3d, 0xee, 0xff, 0xff, 0x34, 0xfb, 0xff, 0xff,
  0xe7, 0xef, 0xff, 0xff, 0x27, 0x27, 0x00, 0x00, 0xdc, 0xa4, 0xff, 0xff,
  0x95, 0xed, 0xff, 0xff, 0x97, 0x06, 0x00, 0x00, 0x0e, 0xf0, 0xff, 0xff,
  0xa4, 0xfb, 0xff, 0xff, 0x82, 0xf9, 0xff, 0xff, 0x5c, 0xf8, 0xff, 0xff,
  0xec, 0x22, 0x00, 0x00, 0xc5, 0xe0, 0xff, 0xff, 0xd7, 0xfd, 0xff, 0xff,
  0x9d, 0xc1, 0xff, 0xff, 0xb8, 0xf2, 0xff, 0xff, 0xbc, 0x19, 0x00, 0x00,
  0xdc, 0xe1, 0xff, 0xff, 0x5b, 0xfa, 0xff, 0xff, 0xa4, 0x11, 0x00, 0x00,
  0xef, 0xed, 0xff, 0xff, 0x0b, 0x21, 0x00, 0x00, 0x5f, 0xed, 0xff, 0xff,
  0xe6, 0xf3, 0xff, 0xff, 0x04, 0x00, 0x00, 0x00, 0x80, 0x01, 0x00, 0x00,
  0x7f, 0xe4, 0x14, 0xe8, 0x1b, 0x3a, 0x04, 0x2c, 0x6d, 0xb2, 0x35, 0x0d,
  0xda, 0x3b, 0x11, 0xd7, 0x0b, 0xe3, 0xe4, 0xee, 0x05, 0xc4, 0x06, 0xe5,
  0xc7, 0xe3, 0xd4, 0xd7, 0xe0, 0x4c, 0xe5, 0x20, 0x19, 0xe0, 0x0a, 0xdd,
  0x40, 0xbe, 0xc8, 0x01, 0x1b, 0xed, 0xb3, 0xf9, 0x37, 0xe0, 0x3d, 0xde,
  0x31, 0xfc, 0xf7, 0x42, 0x35, 0x40, 0x0f, 0x27, 0x45, 0xae, 0xfb, 0x08,
  0x2f, 0x12, 0xd9, 0xf7, 0xdd, 0xd3, 0xb5, 0xfa, 0x02, 0xce, 0x2f, 0x4a,
  0xfd, 0xc5, 0xf7, 0x25, 0xe6, 0x38, 0xc6, 0x7f, 0xe8, 0x32, 0xe7, 0xe3,
  0xc4, 0xf2, 0xf5, 0xe2, 0xcd, 0xec, 0xd6, 0x25, 0x13, 0xf6, 0x0d, 0xab,
  0xd5, 0xe8, 0xad, 0x29, 0xb5, 0xe9, 0xf5, 0x31, 0xa2, 0xa7, 0xa5, 0xe8,
  0xe3, 0x27, 0x81, 0x04, 0x4b, 0xa3, 0x1a, 0xf4, 0x6f, 0x4a, 0xe2, 0xfc,
  0x32, 0x58, 0x07, 0x9c, 0xcd, 0x0a, 0x37, 0x02, 0xe1, 0x2f, 0x3f, 0xb8,
  0x3c, 0x00, 0x49, 0x62, 0xcf, 0x65, 0x22, 0xf8, 0xab, 0x3b, 0xe1, 0x3e,
  0x03, 0xe9, 0xf9, 0x22, 0xe3, 0x00, 0xf7, 0x30, 0x4f, 0x63, 0x81, 0xdd,
  0x12, 0xeb, 0xe9, 0x4c, 0xc2, 0xf2, 0xf6, 0x2e, 0xed, 0x06, 0x48, 0x17,
  0x06, 0x0f, 0xd0, 0x38, 0xdf, 0x15, 0xde, 0xe3, 0x10, 0x1f, 0x21, 0x16,
  0x3a, 0xf7, 0x31, 0xfd, 0xca, 0x54, 0x48, 0x12, 0x20, 0xf5, 0xdc, 0xdb,
  0xeb, 0xbc, 0x15, 0xce, 0x02, 0x53, 0xcd, 0xbd, 0xfc, 0xd6, 0x4b, 0x1f,
  0xc3, 0xee, 0xf3, 0x15, 0x3f, 0x11, 0xeb, 0x28, 0xbe, 0xea, 0x74, 0xf6,
  0xa4, 0xeb, 0xff, 0x12, 0x15, 0xe8, 0xf7, 0x3e, 0xd0, 0x27, 0xee, 0x3d,
  0xe3, 0x27, 0x01, 0x17, 0xe1, 0x24, 0xe6, 0x2e, 0x7f, 0x3c, 0xf0, 0x08,
  0xbe, 0xbd, 0x35, 0x81, 0xe8, 0x17, 0xe1, 0xc4, 0xfe, 0x47, 0xce, 0x43,
  0xb1, 0x18, 0x35, 0x08, 0x4c, 0x34, 0x44, 0x0b, 0x20, 0x00, 0xf1, 0xc3,
  0x2e, 0xb0, 0x06, 0xd4, 0xf1, 0xd9, 0x28, 0xaf, 0xf2, 0xd6, 0x39, 0xfd,
  0xea, 0x1d, 0x26, 0x3c, 0x5e, 0x11, 0x17, 0xeb, 0xf5, 0xfa, 0xe3, 0x21,
  0xbe, 0xc3, 0x27, 0x23, 0xcb, 0xcb, 0xfd, 0xc6, 0xa3, 0x0a, 0x81, 0x2d,
  0x16, 0xcf, 0x2f, 0x16, 0xde, 0x0f, 0x0d, 0x70, 0xeb, 0xf9, 0x49, 0x27,
  0xb3, 0xf2, 0x31, 0x0d, 0x0e, 0xe3, 0xdc, 0xc1, 0xe2, 0x3d, 0x3b, 0xa1,
  0xdb, 0x4c, 0x2f, 0xe6, 0xbb, 0x33, 0x45, 0xc1, 0xf3, 0xce, 0xe3, 0x02,
  0x14, 0xfa, 0x0c, 0xf7, 0x0d, 0x1d, 0xd0, 0xd9, 0x81, 0xdf, 0x60, 0x1c,
  0x0b, 0xe2, 0x1b, 0x08, 0x10, 0x28, 0xff, 0xec, 0xd0, 0x09, 0xf0, 0xd3,
  0x24, 0x07, 0xd5, 0x0a, 0xf5, 0xea, 0xe1, 0xd2, 0x9a, 0xcf, 0xda, 0x01,
  0x3a, 0xe0, 0xe3, 0xfd, 0x36, 0x05, 0x2a, 0xe8, 0x0f, 0xd1, 0x2d, 0x11,
  0x72, 0xf5, 0xff, 0xff, 0x04, 0x00, 0x00, 0x00, 0x20, 0x00, 0x00, 0x00,
  0xb5, 0xd4, 0xff, 0xff, 0xc5, 0xf4, 0xff, 0xff, 0xbf, 0x01, 0x00, 0x00,
  0xd4, 0xca, 0xff, 0xff, 0x47, 0x02, 0x00, 0x00, 0x69, 0xf3, 0xff, 0xff,
  0xb6, 0x36, 0x00, 0x00, 0xb7, 0x31, 0x00, 0x00, 0x9e, 0xf5, 0xff, 0xff,
  0x04, 0x00, 0x00, 0x00, 0x80, 0x01, 0x00, 0x00, 0xf7, 0x11, 0x7f, 0xf4,
  0xf7, 0x30, 0x01, 0xaf, 0x5c, 0xb9, 0x3c, 0xaa, 0xf6, 0xbd, 0x7f, 0x1e,
  0x44, 0x3e, 0x4e, 0xb3, 0xbe, 0x1a, 0x7f, 0xe7, 0x07, 0x1f, 0x03, 0xea,
  0x0f, 0xc5, 0x7f, 0x04, 0x7f, 0xd9, 0xc8, 0xdf, 0x9c, 0xbd, 0xec, 0x46,
  0x17, 0x44, 0x7f, 0xfd, 0x1a, 0xda, 0x18, 0xd3, 0x7a, 0x7a, 0xe9, 0x7f,
  0xa8, 0x1a, 0x1d, 0x5f, 0xe5, 0xf9, 0x01, 0x24, 0x24, 0x89, 0x81, 0xd8,
  0x7a, 0x50, 0xcd, 0x55, 0xbb, 0x17, 0x81, 0xcd, 0x7f, 0xe4, 0xdc, 0x2d,
  0x06, 0xda, 0x12, 0xa6, 0x49, 0x1c, 0xfc, 0x10, 0xdf, 0x7f, 0x29, 0x0c,
  0x7f, 0xee, 0xf2, 0x88, 0x59, 0xba, 0xd0, 0x52, 0xcb, 0x6f, 0x49, 0xdf,
  0x08, 0x3c, 0xaf, 0x7f, 0x7f, 0xf7, 0x9f, 0x06, 0x24, 0xb0, 0x18, 0x9a,
  0x6a, 0x23, 0xfe, 0xf2, 0x81, 0x19, 0xb8, 0xf2, 0x04, 0x05, 0x96, 0xd8,
  0x81, 0xc4, 0x6e, 0x6f, 0x0a, 0xd5, 0x7c, 0x02, 0x7f, 0xc9, 0xc6, 0xe8,
  0x11, 0xeb, 0x4e, 0xf2, 0x7f, 0xca, 0xba, 0xfe, 0x67, 0xd2, 0x7f, 0x2c,
  0xe6, 0x22, 0xd6, 0xff, 0x4c, 0x37, 0x33, 0xc1, 0xd1, 0x81, 0x1a, 0xd6,
  0x31, 0xe0, 0x31, 0x7f, 0x07, 0xbc, 0xb9, 0x4f, 0x60, 0xf3, 0xb9, 0x81,
  0x37, 0xc1, 0x0a, 0x72, 0xd6, 0x86, 0xb8, 0xc7, 0x30, 0xd6, 0x7f, 0xbe,
  0xf0, 0x11, 0x20, 0xd2, 0x99, 0x81, 0x02, 0xe4, 0x7f, 0x03, 0x3e, 0x30,
  0xf9, 0xe5, 0x96, 0x51, 0x5e, 0x30, 0xf4, 0xb5, 0xf2, 0xfb, 0xe0, 0x7f,
  0xa4, 0xe8, 0x14, 0x81, 0x60, 0xf6, 0xde, 0xaf, 0x66, 0x7f, 0xf9, 0xd1,
  0x06, 0x36, 0x20, 0x04, 0x17, 0x7f, 0xfe, 0x12, 0xfd, 0xcd, 0xfe, 0x67,
  0x7f, 0x20, 0x5d, 0x76, 0x29, 0xd3, 0x8c, 0x3a, 0x7f, 0x9c, 0xaf, 0x6c,
  0x2e, 0x01, 0xbe, 0x5f, 0x5a, 0xac, 0x19, 0x2f, 0xb4, 0x9e, 0x81, 0x33,
  0xb6, 0xc6, 0x16, 0x81, 0x39, 0xe4, 0xe2, 0xbf, 0x1e, 0x0a, 0x17, 0x1a,
  0x19, 0xba, 0x7f, 0x24, 0xb7, 0x44, 0x73, 0xb1, 0x7f, 0xb7, 0xab, 0x5f,
  0xbe, 0x1c, 0x0e, 0x7e, 0xf9, 0x7f, 0x2e, 0xec, 0x56, 0x1b, 0xe2, 0x81,
  0x2e, 0xfa, 0x15, 0x2b, 0x2d, 0x32, 0xf1, 0x0b, 0xb2, 0x7f, 0x43, 0x2c,
  0xe9, 0xc3, 0x1a, 0x64, 0x0c, 0x30, 0x06, 0x7f, 0x0f, 0xff, 0x81, 0x28,
  0xfb, 0xda, 0xe4, 0x41, 0x3a, 0x0a, 0xa6, 0xff, 0xd6, 0x38, 0xc6, 0x7f,
  0x29, 0x07, 0x11, 0xd4, 0x8e, 0x81, 0xf7, 0xfc, 0xaa, 0x36, 0xad, 0x6a,
  0xf8, 0x5d, 0xdf, 0x81, 0xf7, 0x00, 0xe8, 0x81, 0xec, 0x08, 0xf5, 0xba,
  0x38, 0x12, 0x18, 0x3c, 0x1c, 0x7f, 0xcc, 0x1f, 0xfe, 0x48, 0xea, 0x0f,
  0x7f, 0xe0, 0xb5, 0xf6, 0x53, 0xb9, 0xfb, 0x7f, 0x47, 0x14, 0xd7, 0x66,
  0xf5, 0xa8, 0x27, 0xee, 0x7f, 0x0c, 0x2a, 0x19, 0x2a, 0xf7, 0xff, 0xff,
  0x04, 0x00, 0x00, 0x00, 0xc0, 0x00, 0x00, 0x00, 0x09, 0x0a, 0x00, 0x00,
  0xa7, 0xf7, 0xff, 0xff, 0x38, 0x18, 0x00, 0x00, 0xaa, 0x07, 0x00, 0x00,
  0xa2, 0x0f, 0x00, 0x00, 0xd4, 0xff, 0xff, 0xff, 0x2a, 0x09, 0x00, 0x00,
  0x1f, 0x10, 0x00, 0x00, 0xb5, 0xf7, 0xff, 0xff, 0x28, 0xf9, 0xff, 0xff,
  0x1c, 0xfc, 0xff, 0xff, 0x83, 0x34, 0x00, 0x00, 0xf9, 0x0f, 0x00, 0x00,
  0xf7, 0x10, 0x00, 0x00, 0xfa, 0x15, 0x00, 0x00, 0x4c, 0xea, 0xff, 0xff,
  0xd2, 0xf3, 0xff, 0xff, 0x9a, 0x28, 0x00, 0x00, 0x5d, 0x0c, 0x00, 0x00,
  0x37, 0x10, 0x00, 0x00, 0xbc, 0x10, 0x00, 0x00, 0xf4, 0x78, 0x00, 0x00,
  0xdc, 0x5f, 0x00, 0x00, 0x19, 0x03, 0x00, 0x00, 0x9c, 0xf8, 0xff, 0xff,
  0xa3, 0x07, 0x00, 0x00, 0x82, 0xfd, 0xff, 0xff, 0x65, 0xfc, 0xff, 0xff,
  0x6e, 0x08, 0x00, 0x00, 0xd6, 0x08, 0x00, 0x00, 0x61, 0x1f, 0x00, 0x00,
  0xe8, 0x20, 0x00, 0x00, 0x93, 0xfd, 0xff, 0xff, 0x6e, 0x01, 0x00, 0x00,
  0x05, 0x21, 0x00, 0x00, 0xbe, 0x16, 0x00, 0x00, 0xb4, 0x26, 0x00, 0x00,
  0x61, 0x0c, 0x00, 0x00, 0x02, 0x05, 0x00, 0x00, 0x04, 0xf8, 0xff, 0xff,
  0x5e, 0x11, 0x00, 0x00, 0x99, 0xf8, 0xff, 0xff, 0x40, 0x30, 0x00, 0x00,
  0xba, 0xfe, 0xff, 0xff, 0xd2, 0x00, 0x00, 0x00, 0x0f, 0x0a, 0x00, 0x00,
  0xcf, 0xf5, 0xff, 0xff, 0xe4, 0x13, 0x00, 0x00, 0xf6, 0xf7, 0xff, 0xff,
  0x04, 0x00, 0x00, 0x00, 0x00, 0x06, 0x00, 0x00, 0xc8, 0xc2, 0x5d, 0xfc,
  0x5b, 0xe3, 0xa1, 0x8b, 0x40, 0x97, 0x8c, 0xf5, 0x2f, 0x06, 0xcd, 0x2f,
  0xc4, 0xd3, 0xb6, 0xb6, 0xb3, 0x88, 0xf8, 0x62, 0x86, 0xff, 0x45, 0xc8,
  0x69, 0xfc, 0xe0, 0xa0, 0x4c, 0xbd, 0x92, 0x34, 0x81, 0xa0, 0x96, 0x14,
  0x45, 0x9c, 0x89, 0x5d, 0x33, 0x88, 0x6d, 0xe2, 0xd2, 0x2e, 0xc7, 0x0a,
  0xe5, 0x5c, 0x31, 0x0b, 0x5e, 0xa8, 0xa7, 0x70, 0x4b, 0xf1, 0x23, 0x4d,
  0x4e, 0xdf, 0x2d, 0x7f, 0xdb, 0x05, 0x2c, 0x26, 0x2d, 0x1d, 0xbe, 0x77,
  0x16, 0x11, 0x65, 0xc9, 0x21, 0x73, 0x00, 0x26, 0x3e, 0x48, 0xf7, 0xcb,
  0xce, 0x13, 0xf3, 0x9f, 0xe5, 0x2a, 0xc8, 0xc3, 0x39, 0x34, 0xcf, 0x6c,
  0xf6, 0xd2, 0x67, 0x63, 0xaa, 0x63, 0xe9, 0x7f, 0x68, 0xfc, 0x60, 0x9c,
  0xa8, 0xeb, 0x2e, 0x44, 0xa7, 0xfb, 0x7a, 0x21, 0xf2, 0x5e, 0x4f, 0x18,
  0xc6, 0x5e, 0x55, 0x69, 0x9f, 0xf9, 0xab, 0x9d, 0xb3, 0x6d, 0x70, 0xef,
  0x94, 0xc0, 0x18, 0xf7, 0xb2, 0x7d, 0xcb, 0xa9, 0x4c, 0x12, 0x23, 0xea,
  0xbb, 0x32, 0x93, 0x27, 0x2d, 0x14, 0x3f, 0x04, 0x5b, 0x5a, 0x44, 0x05,
  0x7f, 0x5f, 0xcd, 0x0c, 0x6c, 0xad, 0xc4, 0x92, 0xe8, 0x94, 0xcc, 0x64,
  0x29, 0xa2, 0x52, 0x07, 0xe2, 0xde, 0xf4, 0xf3, 0xa8, 0xe7, 0x2a, 0x2d,
  0xe6, 0xad, 0xa5, 0x17, 0x47, 0x1d, 0xeb, 0xbe, 0x32, 0x6a, 0xf8, 0x33,
  0xe1, 0xdd, 0x1a, 0x15, 0x3b, 0x60, 0xef, 0x3b, 0x17, 0xd7, 0xed, 0xb4,
  0x05, 0xfb, 0xb8, 0x09, 0x73, 0x9a, 0x5a, 0x16, 0x07, 0xf9, 0x61, 0xb7,
  0xc5, 0x2e, 0xcb, 0xc6, 0x68, 0x76, 0x0d, 0x8c, 0xc7, 0xf0, 0x83, 0x3a,
  0xc8, 0xb7, 0xac, 0xa4, 0x2e, 0x7f, 0x45, 0x43, 0x70, 0xae, 0x5f, 0x64,
  0x36, 0x95, 0x2a, 0x3e, 0x7f, 0x91, 0x0b, 0xc2, 0x24, 0x74, 0x31, 0x34,
  0x22, 0x47, 0xbe, 0x74, 0x2b, 0x41, 0x1b, 0xef, 0x9e, 0xc9, 0xd1, 0xae,
  0x3f, 0x2c, 0x17, 0xa0, 0xba, 0x10, 0xbf, 0x1c, 0x92, 0xe6, 0x35, 0x22,
  0xad, 0xd6, 0x34, 0x64, 0xe3, 0x20, 0x08, 0xc2, 0x0f, 0xca, 0x6a, 0x45,
  0xa6, 0xba, 0xf7, 0x40, 0xec, 0xa7, 0x01, 0xa3, 0x51, 0x31, 0x6d, 0x83,
  0x24, 0xfe, 0xfa, 0x60, 0xac, 0x84, 0x68, 0x35, 0xbe, 0xa8, 0x12, 0xc0,
  0xde, 0x89, 0x29, 0xae, 0xb8, 0x81, 0xce, 0x93, 0xf1, 0x21, 0x90, 0x49,
  0x50, 0x32, 0x13, 0xf5, 0x8d, 0x66, 0xab, 0xd1, 0x7a, 0x4e, 0xe5, 0xe0,
  0xc2, 0x7d, 0xf7, 0x01, 0x7f, 0x0f, 0xa9, 0x16, 0x3f, 0xb4, 0x37, 0x54,
  0x26, 0x15, 0x07, 0x7a, 0x3d, 0x2b, 0x02, 0x5f, 0xc1, 0x6e, 0x10, 0x43,
  0xbd, 0x72, 0xf0, 0x2b, 0x06, 0x23, 0x48, 0x6c, 0xa1, 0x60, 0xf7, 0xed,
  0x66, 0xbe, 0x5d, 0x3c, 0x35, 0x02, 0x4e, 0x89, 0x0a, 0x24, 0xcd, 0xa0,
  0x38, 0x14, 0xad, 0xe9, 0xff, 0x24, 0x2b, 0x61, 0xff, 0xd0, 0xa5, 0xb1,
  0xd7, 0x60, 0xbd, 0x0c, 0x1e, 0xe4, 0x50, 0x69, 0x92, 0x5a, 0x47, 0x45,
  0xb6, 0x15, 0xad, 0x73, 0x79, 0xdb, 0x2e, 0xf9, 0x73, 0xfc, 0xf9, 0x4b,
  0x4e, 0x61, 0x8c, 0x8b, 0xfc, 0xed, 0x05, 0x7f, 0x16, 0x22, 0x71, 0x35,
  0x5b, 0xa3, 0xd4, 0xaf, 0x25, 0x43, 0xf9, 0x45, 0xef, 0xc0, 0xa5, 0xed,
  0x20, 0x14, 0xad, 0xc8, 0x12, 0x6b, 0xa8, 0xa4, 0x7f, 0x03, 0x0d, 0x1b,
  0xfb, 0xd3, 0xbc, 0x6e, 0x54, 0x0b, 0x2b, 0xf3, 0xc4, 0x13, 0xee, 0xe5,
  0x37, 0xd7, 0x38, 0xc2, 0x51, 0x27, 0xb9, 0x4f, 0xd3, 0x55, 0x5d, 0xd1,
  0xfc, 0x69, 0x6a, 0x1b, 0x30, 0x25, 0x21, 0xcd, 0x62, 0x52, 0xed, 0x16,
  0xc7, 0x4d, 0xb3, 0xd4, 0xf8, 0x23, 0x3a, 0xce, 0x27, 0x3b, 0x81, 0xaa,
  0xe0, 0x51, 0xb2, 0xc1, 0x33, 0x64, 0x71, 0x4a, 0xe6, 0x11, 0xe7, 0x27,
  0xeb, 0x72, 0xa7, 0xd9, 0xb2, 0xd3, 0xe8, 0xc5, 0x77, 0x19, 0xfe, 0x72,
  0x7f, 0x3a, 0x42, 0x21, 0x7c, 0x66, 0xc1, 0x78, 0x05, 0xb8, 0x27, 0xcc,
  0xac, 0xa2, 0x49, 0x34, 0x28, 0x54, 0x21, 0x9f, 0xa3, 0xaf, 0xd1, 0x54,
  0x5a, 0x05, 0x1f, 0xf5, 0x8f, 0xc6, 0x3d, 0x37, 0xcd, 0x56, 0xe8, 0xd0,
  0xf1, 0x74, 0xc0, 0x03, 0xde, 0xcc, 0x8e, 0xa1, 0x0d, 0x49, 0xd1, 0x09,
  0x5f, 0x11, 0xe6, 0x23, 0xbd, 0x41, 0xfb, 0x10, 0xd7, 0x14, 0x38, 0xbb,
  0x81, 0xdc, 0xd1, 0xb6, 0x1c, 0xfa, 0x14, 0x6b, 0xb6, 0xd5, 0x4c, 0xa8,
  0x66, 0x0c, 0xd5, 0x79, 0x8f, 0xc3, 0xd3, 0x13, 0x02, 0xbe, 0xdc, 0x31,
  0x7a, 0x32, 0x95, 0xd5, 0xda, 0xa0, 0xbd, 0x62, 0x69, 0xd6, 0x65, 0x5f,
  0x5c, 0x70, 0x52, 0x3b, 0x4c, 0xb0, 0x14, 0xef, 0x59, 0x49, 0x44, 0xe1,
  0x81, 0xc8, 0xcb, 0x24, 0x44, 0xf1, 0x6f, 0xe1, 0xcf, 0x2d, 0xee, 0x1d,
  0xbd, 0xbb, 0x4d, 0x29, 0x0d, 0x66, 0xf5, 0x29, 0xc0, 0xf1, 0x19, 0x45,
  0xd1, 0x4e, 0xda, 0x07, 0xe0, 0x1e, 0xe8, 0xdf, 0xd3, 0xb1, 0x63, 0x51,
  0x59, 0xf3, 0xff, 0x95, 0xc4, 0xe9, 0x51, 0x5c, 0xf0, 0xbe, 0xb5, 0xbb,
  0xb3, 0xcf, 0x19, 0x26, 0xe1, 0x2c, 0x09, 0x49, 0xa1, 0xc9, 0xc7, 0x2e,
  0x9f, 0x9c, 0xbc, 0x30, 0x4c, 0xf8, 0xeb, 0x11, 0x6a, 0x7f, 0x28, 0xa1,
  0x07, 0xa3, 0x2c, 0x55, 0x4a, 0x9c, 0x26, 0xad, 0x05, 0xd3, 0xd7, 0x3e,
  0x53, 0x98, 0x32, 0x97, 0x2e, 0xf4, 0xa7, 0xfe, 0x5e, 0xf9, 0x98, 0x81,
  0x64, 0x01, 0x95, 0x0c, 0x26, 0x08, 0x41, 0x64, 0x3f, 0x37, 0x34, 0x4f,
  0x08, 0x29, 0x39, 0x8f, 0x13, 0xf9, 0xb4, 0xf1, 0xb0, 0x66, 0x64, 0xaf,
  0x05, 0x64, 0xc6, 0xe3, 0x0e, 0xa5, 0xd0, 0xa3, 0xb7, 0xf5, 0x54, 0xbd,
  0x1d, 0x5c, 0xc3, 0x23, 0x21, 0x23, 0x91, 0x3a, 0xe9, 0xca, 0xc6, 0xbe,
  0x7f, 0x43, 0x38, 0x32, 0x5e, 0x40, 0xd5, 0x27, 0xd7, 0x28, 0xd9, 0x2e,
  0x98, 0x02, 0x22, 0x04, 0xb7, 0x3c, 0x2c, 0x2d, 0xd6, 0x27, 0xcd, 0xb9,
  0x0b, 0xca, 0x3b, 0x56, 0x33, 0x5a, 0x78, 0xfc, 0x33, 0xab, 0x2f, 0x5f,
  0xe8, 0xaa, 0xd5, 0xa0, 0x3f, 0xb8, 0x68, 0x3f, 0x75, 0x47, 0xa7, 0x42,
  0x04, 0x39, 0x73, 0x7f, 0xb5, 0x03, 0x17, 0xe1, 0x2f, 0x54, 0xa2, 0x30,
  0x78, 0xe5, 0xe3, 0x53, 0xca, 0xfd, 0x2e, 0x15, 0xe4, 0x72, 0xb4, 0xf1,
  0xb7, 0xef, 0xfe, 0xf3, 0x17, 0x13, 0x41, 0x90, 0xc2, 0x7f, 0x79, 0xca,
  0x0c, 0xa1, 0xa0, 0x1b, 0xf5, 0x59, 0xa4, 0xe8, 0xf7, 0x34, 0x4d, 0xdc,
  0x34, 0x01, 0x53, 0xf8, 0x7c, 0xe8, 0x2c, 0xbd, 0x35, 0xb4, 0x0e, 0x74,
  0x28, 0x39, 0x18, 0x41, 0x4b, 0xf5, 0xae, 0xab, 0xf5, 0x2d, 0xff, 0x52,
  0xeb, 0x11, 0xe0, 0x14, 0xac, 0x24, 0x36, 0x1d, 0x13, 0x1c, 0x4e, 0x26,
  0x3b, 0xa4, 0x63, 0x60, 0x61, 0xbb, 0x1c, 0xf2, 0x98, 0x21, 0xc3, 0x3d,
  0x6c, 0x8f, 0x71, 0x3b, 0xe6, 0x53, 0xc3, 0x0b, 0x54, 0xa9, 0x3e, 0xb5,
  0x9c, 0x81, 0xb9, 0x2f, 0x75, 0xa5, 0x21, 0xfc, 0x07, 0xb4, 0xc3, 0x93,
  0x2d, 0x82, 0xa6, 0x0c, 0xa4, 0x1f, 0x70, 0x9f, 0xeb, 0x3e, 0x40, 0x5a,
  0x99, 0x57, 0x09, 0x3a, 0x05, 0x04, 0x97, 0xf9, 0xed, 0x54, 0x21, 0xa7,
  0xe3, 0xd0, 0xae, 0xd3, 0x0f, 0xc6, 0xa5, 0xaa, 0x49, 0xa7, 0xa3, 0x26,
  0x0d, 0x02, 0xcd, 0x71, 0x7f, 0x24, 0xe6, 0x32, 0x22, 0xd2, 0xe5, 0x83,
  0x9c, 0xd0, 0x98, 0x90, 0xda, 0xb2, 0xc9, 0x6d, 0x62, 0x54, 0x50, 0xa7,
  0x67, 0xc2, 0x52, 0x12, 0x09, 0xcb, 0xc4, 0x30, 0x0d, 0x2f, 0xd8, 0xb3,
  0x81, 0xe8, 0x23, 0xfd, 0x70, 0xd9, 0x4c, 0xb9, 0x3e, 0xb6, 0xc5, 0x53,
  0x19, 0x0d, 0xfc, 0xf3, 0xec, 0x1e, 0xae, 0x9a, 0x74, 0x68, 0x90, 0xe8,
  0x02, 0x11, 0x24, 0xeb, 0xa6, 0xb4, 0x9a, 0x51, 0x1c, 0xc8, 0xae, 0x95,
  0x5a, 0xbe, 0x6b, 0x35, 0x9d, 0x5b, 0xb3, 0x8f, 0x70, 0x8c, 0x84, 0xa5,
  0x28, 0x52, 0x86, 0xbb, 0x55, 0xad, 0x1b, 0x1b, 0x5d, 0xf9, 0x8d, 0x69,
  0xbc, 0xa9, 0xb9, 0x88, 0x38, 0x3a, 0x0c, 0x07, 0xff, 0xea, 0xbc, 0x86,
  0xfd, 0xef, 0xfc, 0x6a, 0x39, 0x81, 0x5f, 0xe8, 0x4f, 0xac, 0x12, 0x4b,
  0x75, 0x91, 0x12, 0x93, 0x4d, 0xb2, 0x6b, 0x5b, 0x1f, 0x96, 0x20, 0xe1,
  0x40, 0xe1, 0x95, 0x7a, 0x6f, 0xb1, 0x7a, 0xe6, 0xf9, 0xfd, 0x3c, 0x27,
  0x5a, 0x40, 0x52, 0xde, 0xb8, 0x3c, 0x1e, 0x2f, 0x75, 0x05, 0x8a, 0x10,
  0x97, 0x0d, 0x13, 0x81, 0xbb, 0xa3, 0x5c, 0x14, 0xb4, 0xbf, 0x9e, 0xb6,
  0xaa, 0x97, 0xc3, 0xa7, 0x42, 0x59, 0x41, 0x1f, 0x63, 0x31, 0xdc, 0x81,
  0xa0, 0x1f, 0x14, 0xce, 0x53, 0xb0, 0xc5, 0xd9, 0x29, 0xd6, 0x30, 0x26,
  0x5f, 0x2e, 0xfc, 0xc2, 0xeb, 0xfd, 0x24, 0x17, 0xc7, 0xb1, 0x2e, 0xd9,
  0xb9, 0x94, 0x5c, 0xf3, 0x0f, 0xd8, 0x12, 0x31, 0xaa, 0xb5, 0xb0, 0xe1,
  0x44, 0xb5, 0x9b, 0x26, 0x2b, 0x81, 0xd0, 0x03, 0x3a, 0xee, 0x91, 0xd5,
  0xa4, 0x2b, 0x18, 0x8e, 0x34, 0x41, 0xe6, 0xb8, 0xf9, 0xb9, 0x89, 0x11,
  0x38, 0xa3, 0x14, 0x5f, 0x41, 0x83, 0x1a, 0x3e, 0x4c, 0xc3, 0xd9, 0xd9,
  0xa1, 0x46, 0x96, 0xed, 0x57, 0x19, 0x27, 0x0e, 0x3a, 0xa0, 0xec, 0xf3,
  0xa8, 0x01, 0xf5, 0xf5, 0xa0, 0x9a, 0x63, 0x4f, 0xbe, 0xd5, 0x09, 0xf0,
  0x7f, 0x21, 0xc6, 0xc5, 0x0f, 0x40, 0x59, 0x0b, 0x48, 0x37, 0x26, 0x2a,
  0x0b, 0x22, 0xb6, 0xfe, 0x00, 0xc9, 0xab, 0xa8, 0xc7, 0x4b, 0xdc, 0x5f,
  0xa8, 0x59, 0x33, 0x1f, 0xdd, 0x50, 0xf6, 0x6d, 0x29, 0x21, 0xd9, 0xaa,
  0xaa, 0xd0, 0xc6, 0x10, 0x2f, 0x79, 0x31, 0xbc, 0xf6, 0x52, 0x60, 0xe1,
  0x5b, 0x11, 0x58, 0xc3, 0xc7, 0x28, 0x05, 0xeb, 0xb0, 0x3a, 0xb9, 0x05,
  0x3f, 0x32, 0x02, 0x16, 0x57, 0x45, 0xca, 0xce, 0xcb, 0xd2, 0xb7, 0x6b,
  0xc0, 0x09, 0x38, 0x2d, 0x77, 0x34, 0x5e, 0x7f, 0x56, 0xf6, 0x54, 0x2b,
  0x86, 0xc1, 0xa0, 0xb5, 0xda, 0x8c, 0x28, 0x3b, 0xa3, 0xaa, 0xff, 0x52,
  0x51, 0x69, 0xb9, 0x46, 0xe4, 0x11, 0x94, 0xb6, 0x81, 0x40, 0x9f, 0xb6,
  0xb1, 0xa7, 0xef, 0xe9, 0x8c, 0x10, 0x48, 0x46, 0x0a, 0x92, 0xc7, 0x0f,
  0x56, 0x21, 0xa4, 0x22, 0x8b, 0xe8, 0xff, 0x28, 0x44, 0x4e, 0x47, 0xe4,
  0xc9, 0x22, 0xa4, 0x1b, 0x65, 0x12, 0xc5, 0xc2, 0x76, 0xb8, 0xe8, 0xf3,
  0xc2, 0x74, 0x2d, 0xdb, 0xce, 0xf7, 0x48, 0x1c, 0xf9, 0x23, 0xf3, 0x00,
  0xb7, 0x0b, 0x75, 0x12, 0x4a, 0x12, 0xcd, 0xe0, 0x0e, 0x70, 0x0b, 0x74,
  0x43, 0x7f, 0xea, 0x69, 0x12, 0x75, 0xed, 0x02, 0x37, 0xd9, 0xe0, 0x34,
  0xb8, 0x2d, 0xd8, 0x10, 0x7a, 0x0d, 0x17, 0xf4, 0xbb, 0x2b, 0x51, 0x11,
  0x17, 0x40, 0x73, 0xb5, 0x42, 0xbf, 0xb6, 0x1c, 0xa8, 0x29, 0xdd, 0x7f,
  0x04, 0xb2, 0xc7, 0x22, 0xce, 0xcd, 0xae, 0xeb, 0x29, 0x09, 0x1a, 0x2a,
  0x6c, 0xbc, 0x13, 0x7a, 0x7e, 0xf3, 0x7d, 0x58, 0x48, 0x9a, 0x1c, 0x5b,
  0x2a, 0x34, 0xbd, 0x9b, 0xda, 0xe6, 0xa8, 0xa2, 0x59, 0x81, 0xc9, 0x66,
  0xda, 0xa1, 0x1c, 0x28, 0x37, 0x1c, 0xdb, 0x61, 0x25, 0x87, 0x39, 0x1d,
  0xb0, 0xae, 0x29, 0x65, 0x29, 0x0b, 0x9e, 0xf1, 0x58, 0xd9, 0xb5, 0x8b,
  0x34, 0xb4, 0xdb, 0x1f, 0xfe, 0xc5, 0xe7, 0x15, 0x02, 0xfe, 0xff, 0xff,
  0x04, 0x00, 0x00, 0x00, 0x80, 0x00, 0x00, 0x00, 0xfc, 0xfd, 0xff, 0xff,
  0xe3, 0x01, 0x00, 0x00, 0xfc, 0x01, 0x00, 0x00, 0xa4, 0xff, 0xff, 0xff,
  0xda, 0xfe, 0xff, 0xff, 0x0e, 0x02, 0x00, 0x00, 0x6c, 0xfe, 0xff, 0xff,
  0x90, 0x01, 0x00, 0x00, 0x4b, 0xff, 0xff, 0xff, 0xb2, 0x01, 0x00, 0x00,
  0xca, 0x01, 0x00, 0x00, 0xe8, 0x01, 0x00, 0x00, 0xeb, 0x00, 0x00, 0x00,
  0x97, 0x01, 0x00, 0x00, 0x10, 0x02, 0x00, 0x00, 0x9f, 0xfd, 0xff, 0xff,
  0x25, 0xfe, 0xff, 0xff, 0x6f, 0x02, 0x00, 0x00, 0xac, 0x03, 0x00, 0x00,
  0xc6, 0xfe, 0xff, 0xff, 0x9c, 0xfd, 0xff, 0xff, 0xc8, 0x01, 0x00, 0x00,
  0xd5, 0xfe, 0xff, 0xff, 0x26, 0x02, 0x00, 0x00, 0xf9, 0xfe, 0xff, 0xff,
  0x09, 0xfe, 0xff, 0xff, 0x9a, 0xff, 0xff, 0xff, 0x18, 0x05, 0x00, 0x00,
  0x91, 0xff, 0xff, 0xff, 0x42, 0x03, 0x00, 0x00, 0x37, 0x05, 0x00, 0x00,
  0x02, 0xfe, 0xff, 0xff, 0x8e, 0xfe, 0xff, 0xff, 0x04, 0x00, 0x00, 0x00,
  0x40, 0x00, 0x00, 0x00, 0x4c, 0xd3, 0xca, 0x5d, 0xc7, 0x00, 0xc3, 0x39,
  0x7f, 0xed, 0xd0, 0xe4, 0xf4, 0x41, 0xc1, 0x14, 0x68, 0xa8, 0xe7, 0xa1,
  0x56, 0x3e, 0x4e, 0xbb, 0xd1, 0xc1, 0xe0, 0x5e, 0x0b, 0x9b, 0xe3, 0x36,
  0x32, 0x53, 0x50, 0xba, 0xb2, 0x52, 0xf9, 0x13, 0xd3, 0xe7, 0x2d, 0x72,
  0x6c, 0x31, 0x2d, 0x03, 0xdb, 0x07, 0xad, 0xa5, 0xb6, 0x2c, 0x17, 0x75,
  0x49, 0x3e, 0xcc, 0xe3, 0x61, 0x85, 0x81, 0xf3, 0xda, 0xfe, 0xff, 0xff,
  0x04, 0x00, 0x00, 0x00, 0x08, 0x00, 0x00, 0x00, 0x00, 0xc5, 0x00, 0x00,
  0xa2, 0x33, 0xff, 0xff, 0xee, 0xfe, 0xff, 0xff, 0x04, 0x00, 0x00, 0x00,
  0x20, 0x00, 0x00, 0x00, 0x00, 0x00, 0x00, 0x00, 0x00, 0x00, 0x00, 0x00,
  0x00, 0x00, 0x00, 0x00, 0x01, 0x00, 0x00, 0x00, 0x00, 0x00, 0x00, 0x00,
  0x01, 0x00, 0x00, 0x00, 0x00, 0x00, 0x00, 0x00, 0x00, 0x00, 0x00, 0x00,
  0x88, 0x94, 0xff, 0xff, 0x8c, 0x94, 0xff, 0xff, 0x0f, 0x00, 0x00, 0x00,
  0x4d, 0x4c, 0x49, 0x52, 0x20, 0x43, 0x6f, 0x6e, 0x76, 0x65, 0x72, 0x74,
  0x65, 0x64, 0x2e, 0x00, 0x01, 0x00, 0x00, 0x00, 0x14, 0x00, 0x00, 0x00,
  0x00, 0x00, 0x0e, 0x00, 0x18, 0x00, 0x14, 0x00, 0x10, 0x00, 0x0c, 0x00,
  0x08, 0x00, 0x04, 0x00, 0x0e, 0x00, 0x00, 0x00, 0x14, 0x00, 0x00, 0x00,
  0x1c, 0x00, 0x00, 0x00, 0x64, 0x07, 0x00, 0x00, 0x68, 0x07, 0x00, 0x00,
  0x6c, 0x07, 0x00, 0x00, 0x04, 0x00, 0x00, 0x00, 0x6d, 0x61, 0x69, 0x6e,
  0x00, 0x00, 0x00, 0x00, 0x1c, 0x00, 0x00, 0x00, 0x00, 0x07, 0x00, 0x00,
  0x98, 0x06, 0x00, 0x00, 0x40, 0x06, 0x00, 0x00, 0x0c, 0x06, 0x00, 0x00,
  0xcc, 0x05, 0x00, 0x00, 0x98, 0x05, 0x00, 0x00, 0x3c, 0x05, 0x00, 0x00,
  0x00, 0x05, 0x00, 0x00, 0xc0, 0x04, 0x00, 0x00, 0x78, 0x04, 0x00, 0x00,
  0x3c, 0x04, 0x00, 0x00, 0x08, 0x04, 0x00, 0x00, 0xc8, 0x03, 0x00, 0x00,
  0x94, 0x03, 0x00, 0x00, 0x48, 0x03, 0x00, 0x00, 0x0c, 0x03, 0x00, 0x00,
  0xcc, 0x02, 0x00, 0x00, 0x84, 0x02, 0x00, 0x00, 0x48, 0x02, 0x00, 0x00,
  0x14, 0x02, 0x00, 0x00, 0xd4, 0x01, 0x00, 0x00, 0x8c, 0x01, 0x00, 0x00,
  0x50, 0x01, 0x00, 0x00, 0x1c, 0x01, 0x00, 0x00, 0xdc, 0x00, 0x00, 0x00,
  0x8c, 0x00, 0x00, 0x00, 0x40, 0x00, 0x00, 0x00, 0x04, 0x00, 0x00, 0x00,
  0xe2, 0xf9, 0xff, 0xff, 0x1c, 0x00, 0x00, 0x00, 0x00, 0x00, 0x00, 0x09,
  0x1c, 0x00, 0x00, 0x00, 0x20, 0x00, 0x00, 0x00, 0x04, 0x00, 0x00, 0x00,
  0x00, 0x00, 0x06, 0x00, 0x08, 0x00, 0x04, 0x00, 0x06, 0x00, 0x00, 0x00,
  0x00, 0x00, 0x80, 0x3f, 0x01, 0x00, 0x00, 0x00, 0x47, 0x00, 0x00, 0x00,
  0x01, 0x00, 0x00, 0x00, 0x46, 0x00, 0x00, 0x00, 0xb6, 0xf9, 0xff, 0xff,
  0x1c, 0x00, 0x00, 0x00, 0x00, 0x00, 0x00, 0x01, 0x24, 0x00, 0x00, 0x00,
  0x28, 0x00, 0x00, 0x00, 0x00, 0x00, 0x0a, 0x00, 0x10, 0x00, 0x0f, 0x00,
  0x08, 0x00, 0x04, 0x00, 0x0a, 0x00, 0x00, 0x00, 0x01, 0x00, 0x00, 0x00,
  0x01, 0x00, 0x00, 0x00, 0x00, 0x00, 0x00, 0x01, 0x01, 0x00, 0x00, 0x00,
  0x46, 0x00, 0x00, 0x00, 0x03, 0x00, 0x00, 0x00, 0x45, 0x00, 0x00, 0x00,
  0x03, 0x00, 0x00, 0x00, 0x02, 0x00, 0x00, 0x00, 0xfe, 0xf9, 0xff, 0xff,
  0x1c, 0x00, 0x00, 0x00, 0x00, 0x00, 0x00, 0x01, 0x28, 0x00, 0x00, 0x00,
  0x2c, 0x00, 0x00, 0x00, 0x0c, 0x00, 0x14, 0x00, 0x13, 0x00, 0x0c, 0x00,
  0x08, 0x00, 0x07, 0x00, 0x0c, 0x00, 0x00, 0x00, 0x00, 0x00, 0x00, 0x01,
  0x01, 0x00, 0x00, 0x00, 0x01, 0x00, 0x00, 0x00, 0x00, 0x00, 0x00, 0x01,
  0x01, 0x00, 0x00, 0x00, 0x45, 0x00, 0x00, 0x00, 0x03, 0x00, 0x00, 0x00,
  0x44, 0x00, 0x00, 0x00, 0x05, 0x00, 0x00, 0x00, 0x04, 0x00, 0x00, 0x00,
  0x4a, 0xfa, 0xff, 0xff, 0x10, 0x00, 0x00, 0x00, 0x00, 0x00, 0x00, 0x01,
  0x18, 0x00, 0x00, 0x00, 0x1c, 0x00, 0x00, 0x00, 0x3c, 0xfa, 0xff, 0xff,
  0x00, 0x00, 0x00, 0x03, 0x01, 0x00, 0x00, 0x00, 0x01, 0x00, 0x00, 0x00,
  0x01, 0x00, 0x00, 0x00, 0x44, 0x00, 0x00, 0x00, 0x03, 0x00, 0x00, 0x00,
  0x43, 0x00, 0x00, 0x00, 0x07, 0x00, 0x00, 0x00, 0x06, 0x00, 0x00, 0x00,
  0xea, 0xfa, 0xff, 0xff, 0x14, 0x00, 0x00, 0x00, 0x00, 0x00, 0x00, 0x0b,
  0x10, 0x00, 0x00, 0x00, 0x14, 0x00, 0x00, 0x00, 0x02, 0x00, 0x00, 0x00,
  0x74, 0x96, 0xff, 0xff, 0x01, 0x00, 0x00, 0x00, 0x43, 0x00, 0x00, 0x00,
  0x02, 0x00, 0x00, 0x00, 0x3f, 0x00, 0x00, 0x00, 0x42, 0x00, 0x00, 0x00,
  0xb6, 0xfa, 0xff, 0xff, 0x10, 0x00, 0x00, 0x00, 0x00, 0x00, 0x00, 0x01,
  0x14, 0x00, 0x00, 0x00, 0x18, 0x00, 0x00, 0x00, 0x5e, 0xfb, 0xff, 0xff,
  0x01, 0x00, 0x00, 0x00, 0x01, 0x00, 0x00, 0x00, 0x01, 0x00, 0x00, 0x00,
  0x42, 0x00, 0x00, 0x00, 0x03, 0x00, 0x00, 0x00, 0x41, 0x00, 0x00, 0x00,
  0x09, 0x00, 0x00, 0x00, 0x08, 0x00, 0x00, 0x00, 0x52, 0xfb, 0xff, 0xff,
  0x14, 0x00, 0x00, 0x00, 0x00, 0x00, 0x00, 0x02, 0x20, 0x00, 0x00, 0x00,
  0x24, 0x00, 0x00, 0x00, 0x01, 0x00, 0x00, 0x00, 0x42, 0xfb, 0xff, 0xff,
  0x00, 0x00, 0x00, 0x03, 0x01, 0x00, 0x00, 0x00, 0x01, 0x00, 0x00, 0x00,
  0x01, 0x00, 0x00, 0x00, 0x01, 0x00, 0x00, 0x00, 0x41, 0x00, 0x00, 0x00,
  0x03, 0x00, 0x00, 0x00, 0x40, 0x00, 0x00, 0x00, 0x0b, 0x00, 0x00, 0x00,
  0x0a, 0x00, 0x00, 0x00, 0x32, 0xfb, 0xff, 0xff, 0x10, 0x00, 0x00, 0x00,
  0x00, 0x00, 0x00, 0x01, 0x18, 0x00, 0x00, 0x00, 0x1c, 0x00, 0x00, 0x00,
  0x24, 0xfb, 0xff, 0xff, 0x00, 0x00, 0x00, 0x03, 0x01, 0x00, 0x00, 0x00,
  0x01, 0x00, 0x00, 0x00, 0x01, 0x00, 0x00, 0x00, 0x40, 0x00, 0x00, 0x00,
  0x03, 0x00, 0x00, 0x00, 0x3f, 0x00, 0x00, 0x00, 0x0d, 0x00, 0x00, 0x00,
  0x0c, 0x00, 0x00, 0x00, 0xd2, 0xfb, 0xff, 0xff, 0x14, 0x00, 0x00, 0x00,
  0x00, 0x00, 0x00, 0x0b, 0x10, 0x00, 0x00, 0x00, 0x14, 0x00, 0x00, 0x00,
  0x02, 0x00, 0x00, 0x00, 0x5c, 0x97, 0xff, 0xff, 0x01, 0x00, 0x00, 0x00,
  0x3f, 0x00, 0x00, 0x00, 0x02, 0x00, 0x00, 0x00, 0x3b, 0x00, 0x00, 0x00,
  0x3e, 0x00, 0x00, 0x00, 0x9e, 0xfb, 0xff, 0xff, 0x10, 0x00, 0x00, 0x00,
  0x00, 0x00, 0x00, 0x01, 0x14, 0x00, 0x00, 0x00, 0x18, 0x00, 0x00, 0x00,
  0x46, 0xfc, 0xff, 0xff, 0x01, 0x00, 0x00, 0x00, 0x01, 0x00, 0x00, 0x00,
  0x01, 0x00, 0x00, 0x00, 0x3e, 0x00, 0x00, 0x00, 0x03, 0x00, 0x00, 0x00,
  0x3d, 0x00, 0x00, 0x00, 0x0f, 0x00, 0x00, 0x00, 0x0e, 0x00, 0x00, 0x00,
  0x3a, 0xfc, 0xff, 0xff, 0x14, 0x00, 0x00, 0x00, 0x00, 0x00, 0x00, 0x02,
  0x20, 0x00, 0x00, 0x00, 0x24, 0x00, 0x00, 0x00, 0x01, 0x00, 0x00, 0x00,
  0x2a, 0xfc, 0xff, 0xff, 0x00, 0x00, 0x00, 0x03, 0x01, 0x00, 0x00, 0x00,
  0x01, 0x00, 0x00, 0x00, 0x01, 0x00, 0x00, 0x00, 0x01, 0x00, 0x00, 0x00,
  0x3d, 0x00, 0x00, 0x00, 0x03, 0x00, 0x00, 0x00, 0x3c, 0x00, 0x00, 0x00,
  0x11, 0x00, 0x00, 0x00, 0x10, 0x00, 0x00, 0x00, 0x1a, 0xfc, 0xff, 0xff,
  0x10, 0x00, 0x00, 0x00, 0x00, 0x00, 0x00, 0x01, 0x18, 0x00, 0x00, 0x00,
  0x1c, 0x00, 0x00, 0x00, 0x0c, 0xfc, 0xff, 0xff, 0x00, 0x00, 0x00, 0x03,
  0x01, 0x00, 0x00, 0x00, 0x01, 0x00, 0x00, 0x00, 0x01, 0x00, 0x00, 0x00,
  0x3c, 0x00, 0x00, 0x00, 0x03, 0x00, 0x00, 0x00, 0x3b, 0x00, 0x00, 0x00,
  0x13, 0x00, 0x00, 0x00, 0x12, 0x00, 0x00, 0x00, 0x56, 0xfc, 0xff, 0xff,
  0x10, 0x00, 0x00, 0x00, 0x00, 0x00, 0x00, 0x01, 0x14, 0x00, 0x00, 0x00,
  0x18, 0x00, 0x00, 0x00, 0xfe, 0xfc, 0xff, 0xff, 0x01, 0x00, 0x00, 0x00,
  0x01, 0x00, 0x00, 0x00, 0x01, 0x00, 0x00, 0x00, 0x3b, 0x00, 0x00, 0x00,
  0x03, 0x00, 0x00, 0x00, 0x3a, 0x00, 0x00, 0x00, 0x15, 0x00, 0x00, 0x00,
  0x14, 0x00, 0x00, 0x00, 0xf2, 0xfc, 0xff, 0xff, 0x14, 0x00, 0x00, 0x00,
  0x00, 0x00, 0x00, 0x02, 0x24, 0x00, 0x00, 0x00, 0x28, 0x00, 0x00, 0x00,
  0x01, 0x00, 0x00, 0x00, 0x2a, 0xfe, 0xff, 0xff, 0x00, 0x00, 0x00, 0x03,
  0x01, 0x00, 0x00, 0x00, 0x02, 0x00, 0x00, 0x00, 0x02, 0x00, 0x00, 0x00,
  0x00, 0x00, 0x00, 0x01, 0x01, 0x00, 0x00, 0x00, 0x3a, 0x00, 0x00, 0x00,
  0x03, 0x00, 0x00, 0x00, 0x39, 0x00, 0x00, 0x00, 0x17, 0x00, 0x00, 0x00,
  0x16, 0x00, 0x00, 0x00, 0x3a, 0xfd, 0xff, 0xff, 0x14, 0x00, 0x00, 0x00,
  0x00, 0x00, 0x00, 0x16, 0x10, 0x00, 0x00, 0x00, 0x14, 0x00, 0x00, 0x00,
  0x03, 0x00, 0x00, 0x00, 0xc4, 0x98, 0xff, 0xff, 0x01, 0x00, 0x00, 0x00,
  0x39, 0x00, 0x00, 0x00, 0x02, 0x00, 0x00, 0x00, 0x38, 0x00, 0x00, 0x00,
  0x01, 0x00, 0x00, 0x00, 0x06, 0xfd, 0xff, 0xff, 0x10, 0x00, 0x00, 0x00,
  0x00, 0x00, 0x00, 0x01, 0x18, 0x00, 0x00, 0x00, 0x1c, 0x00, 0x00, 0x00,
  0xf8, 0xfc, 0xff, 0xff, 0x00, 0x00, 0x00, 0x03, 0x01, 0x00, 0x00, 0x00,
  0x01, 0x00, 0x00, 0x00, 0x01, 0x00, 0x00, 0x00, 0x38, 0x00, 0x00, 0x00,
  0x03, 0x00, 0x00, 0x00, 0x37, 0x00, 0x00, 0x00, 0x19, 0x00, 0x00, 0x00,
  0x18, 0x00, 0x00, 0x00, 0xa6, 0xfd, 0xff, 0xff, 0x14, 0x00, 0x00, 0x00,
  0x00, 0x00, 0x00, 0x0b, 0x10, 0x00, 0x00, 0x00, 0x14, 0x00, 0x00, 0x00,
  0x02, 0x00, 0x00, 0x00, 0x30, 0x99, 0xff, 0xff, 0x01, 0x00, 0x00, 0x00,
  0x37, 0x00, 0x00, 0x00, 0x02, 0x00, 0x00, 0x00, 0x33, 0x00, 0x00, 0x00,
  0x36, 0x00, 0x00, 0x00, 0x72, 0xfd, 0xff, 0xff, 0x10, 0x00, 0x00, 0x00,
  0x00, 0x00, 0x00, 0x01, 0x14, 0x00, 0x00, 0x00, 0x18, 0x00, 0x00, 0x00,
  0x1a, 0xfe, 0xff, 0xff, 0x01, 0x00, 0x00, 0x00, 0x01, 0x00, 0x00, 0x00,
  0x01, 0x00, 0x00, 0x00, 0x36, 0x00, 0x00, 0x00, 0x03, 0x00, 0x00, 0x00,
  0x35, 0x00, 0x00, 0x00, 0x1b, 0x00, 0x00, 0x00, 0x1a, 0x00, 0x00, 0x00,
  0x0e, 0xfe, 0xff, 0xff, 0x14, 0x00, 0x00, 0x00, 0x00, 0x00, 0x00, 0x02,
  0x20, 0x00, 0x00, 0x00, 0x24, 0x00, 0x00, 0x00, 0x01, 0x00, 0x00, 0x00,
  0xfe, 0xfd, 0xff, 0xff, 0x00, 0x00, 0x00, 0x03, 0x01, 0x00, 0x00, 0x00,
  0x01, 0x00, 0x00, 0x00, 0x01, 0x00, 0x00, 0x00, 0x01, 0x00, 0x00, 0x00,
  0x35, 0x00, 0x00, 0x00, 0x03, 0x00, 0x00, 0x00, 0x34, 0x00, 0x00, 0x00,
  0x1d, 0x00, 0x00, 0x00, 0x1c, 0x00, 0x00, 0x00, 0xee, 0xfd, 0xff, 0xff,
  0x10, 0x00, 0x00, 0x00, 0x00, 0x00, 0x00, 0x01, 0x18, 0x00, 0x00, 0x00,
  0x1c, 0x00, 0x00, 0x00, 0xe0, 0xfd, 0xff, 0xff, 0x00, 0x00, 0x00, 0x03,
  0x01, 0x00, 0x00, 0x00, 0x01, 0x00, 0x00, 0x00, 0x01, 0x00, 0x00, 0x00,
  0x34, 0x00, 0x00, 0x00, 0x03, 0x00, 0x00, 0x00, 0x33, 0x00, 0x00, 0x00,
  0x1f, 0x00, 0x00, 0x00, 0x1e, 0x00, 0x00, 0x00, 0x2a, 0xfe, 0xff, 0xff,
  0x10, 0x00, 0x00, 0x00, 0x00, 0x00, 0x00, 0x01, 0x14, 0x00, 0x00, 0x00,
  0x18, 0x00, 0x00, 0x00, 0xd2, 0xfe, 0xff, 0xff, 0x01, 0x00, 0x00, 0x00,
  0x01, 0x00, 0x00, 0x00, 0x01, 0x00, 0x00, 0x00, 0x33, 0x00, 0x00, 0x00,
  0x03, 0x00, 0x00, 0x00, 0x32, 0x00, 0x00, 0x00, 0x21, 0x00, 0x00, 0x00,
  0x20, 0x00, 0x00, 0x00, 0xc6, 0xfe, 0xff, 0xff, 0x24, 0x00, 0x00, 0x00,
  0x00, 0x00, 0x00, 0x02, 0x34, 0x00, 0x00, 0x00, 0x38, 0x00, 0x00, 0x00,
  0x01, 0x00, 0x00, 0x00, 0x00, 0x00, 0x0e, 0x00, 0x18, 0x00, 0x17, 0x00,
  0x10, 0x00, 0x0c, 0x00, 0x08, 0x00, 0x07, 0x00, 0x0e, 0x00, 0x00, 0x00,
  0x00, 0x00, 0x00, 0x03, 0x01, 0x00, 0x00, 0x00, 0x02, 0x00, 0x00, 0x00,
  0x02, 0x00, 0x00, 0x00, 0x00, 0x00, 0x00, 0x01, 0x01, 0x00, 0x00, 0x00,
  0x32, 0x00, 0x00, 0x00, 0x03, 0x00, 0x00, 0x00, 0x31, 0x00, 0x00, 0x00,
  0x23, 0x00, 0x00, 0x00, 0x22, 0x00, 0x00, 0x00, 0x1e, 0xff, 0xff, 0xff,
  0x14, 0x00, 0x00, 0x00, 0x00, 0x00, 0x00, 0x16, 0x10, 0x00, 0x00, 0x00,
  0x14, 0x00, 0x00, 0x00, 0x03, 0x00, 0x00, 0x00, 0xa8, 0x9a, 0xff, 0xff,
  0x01, 0x00, 0x00, 0x00, 0x31, 0x00, 0x00, 0x00, 0x02, 0x00, 0x00, 0x00,
  0x30, 0x00, 0x00, 0x00, 0x01, 0x00, 0x00, 0x00, 0xea, 0xfe, 0xff, 0xff,
  0x10, 0x00, 0x00, 0x00, 0x00, 0x00, 0x00, 0x01, 0x18, 0x00, 0x00, 0x00,
  0x1c, 0x00, 0x00, 0x00, 0xdc, 0xfe, 0xff, 0xff, 0x00, 0x00, 0x00, 0x03,
  0x01, 0x00, 0x00, 0x00, 0x01, 0x00, 0x00, 0x00, 0x01, 0x00, 0x00, 0x00,
  0x30, 0x00, 0x00, 0x00, 0x03, 0x00, 0x00, 0x00, 0x2f, 0x00, 0x00, 0x00,
  0x25, 0x00, 0x00, 0x00, 0x24, 0x00, 0x00, 0x00, 0x8a, 0xff, 0xff, 0xff,
  0x14, 0x00, 0x00, 0x00, 0x00, 0x00, 0x00, 0x0b, 0x10, 0x00, 0x00, 0x00,
  0x14, 0x00, 0x00, 0x00, 0x02, 0x00, 0x00, 0x00, 0x14, 0x9b, 0xff, 0xff,
  0x01, 0x00, 0x00, 0x00, 0x2f, 0x00, 0x00, 0x00, 0x02, 0x00, 0x00, 0x00,
  0x2c, 0x00, 0x00, 0x00, 0x2e, 0x00, 0x00, 0x00, 0x56, 0xff, 0xff, 0xff,
  0x1c, 0x00, 0x00, 0x00, 0x00, 0x00, 0x00, 0x01, 0x20, 0x00, 0x00, 0x00,
  0x24, 0x00, 0x00, 0x00, 0x00, 0x00, 0x0a, 0x00, 0x0c, 0x00, 0x00, 0x00,
  0x08, 0x00, 0x04, 0x00, 0x0a, 0x00, 0x00, 0x00, 0x01, 0x00, 0x00, 0x00,
  0x01, 0x00, 0x00, 0x00, 0x01, 0x00, 0x00, 0x00, 0x2e, 0x00, 0x00, 0x00,
  0x03, 0x00, 0x00, 0x00, 0x2d, 0x00, 0x00, 0x00, 0x27, 0x00, 0x00, 0x00,
  0x26, 0x00, 0x00, 0x00, 0x00, 0x00, 0x0e, 0x00, 0x1a, 0x00, 0x14, 0x00,
  0x10, 0x00, 0x0c, 0x00, 0x0b, 0x00, 0x04, 0x00, 0x0e, 0x00, 0x00, 0x00,
  0x24, 0x00, 0x00, 0x00, 0x00, 0x00, 0x00, 0x02, 0x30, 0x00, 0x00, 0x00,
  0x34, 0x00, 0x00, 0x00, 0x01, 0x00, 0x00, 0x00, 0x00, 0x00, 0x0e, 0x00,
  0x14, 0x00, 0x00, 0x00, 0x10, 0x00, 0x0c, 0x00, 0x08, 0x00, 0x07, 0x00,
  0x0e, 0x00, 0x00, 0x00, 0x00, 0x00, 0x00, 0x03, 0x01, 0x00, 0x00, 0x00,
  0x01, 0x00, 0x00, 0x00, 0x01, 0x00, 0x00, 0x00, 0x01, 0x00, 0x00, 0x00,
  0x2d, 0x00, 0x00, 0x00, 0x03, 0x00, 0x00, 0x00, 0x2c, 0x00, 0x00, 0x00,
  0x29, 0x00, 0x00, 0x00, 0x28, 0x00, 0x00, 0x00, 0x00, 0x00, 0x0e, 0x00,
  0x14, 0x00, 0x00, 0x00, 0x10, 0x00, 0x0c, 0x00, 0x0b, 0x00, 0x04, 0x00,
  0x0e, 0x00, 0x00, 0x00, 0x1c, 0x00, 0x00, 0x00, 0x00, 0x00, 0x00, 0x01,
  0x24, 0x00, 0x00, 0x00, 0x28, 0x00, 0x00, 0x00, 0x0c, 0x00, 0x10, 0x00,
  0x00, 0x00, 0x0c, 0x00, 0x08, 0x00, 0x07, 0x00, 0x0c, 0x00, 0x00, 0x00,
  0x00, 0x00, 0x00, 0x03, 0x02, 0x00, 0x00, 0x00, 0x02, 0x00, 0x00, 0x00,
  0x01, 0x00, 0x00, 0x00, 0x2c, 0x00, 0x00, 0x00, 0x03, 0x00, 0x00, 0x00,
  0x00, 0x00, 0x00, 0x00, 0x2b, 0x00, 0x00, 0x00, 0x2a, 0x00, 0x00, 0x00,
  0x01, 0x00, 0x00, 0x00, 0x47, 0x00, 0x00, 0x00, 0x01, 0x00, 0x00, 0x00,
  0x00, 0x00, 0x00, 0x00, 0x48, 0x00, 0x00, 0x00, 0x14, 0x64, 0x00, 0x00,
  0xa0, 0x63, 0x00, 0x00, 0x20, 0x63, 0x00, 0x00, 0xa4, 0x62, 0x00, 0x00,
  0xc0, 0x60, 0x00, 0x00, 0xdc, 0x5e, 0x00, 0x00, 0x30, 0x5c, 0x00, 0x00,
  0x84, 0x59, 0x00, 0x00, 0xb8, 0x58, 0x00, 0x00, 0xec, 0x57, 0x00, 0x00,
  0x38, 0x55, 0x00, 0x00, 0x24, 0x52, 0x00, 0x00, 0x78, 0x4f, 0x00, 0x00,
  0xcc, 0x4c, 0x00, 0x00, 0x00, 0x4c, 0x00, 0x00, 0x34, 0x4b, 0x00, 0x00,
  0x80, 0x48, 0x00, 0x00, 0x80, 0x45, 0x00, 0x00, 0xd0, 0x42, 0x00, 0x00,
  0x24, 0x40, 0x00, 0x00, 0x58, 0x3f, 0x00, 0x00, 0x8c, 0x3e, 0x00, 0x00,
  0xd8, 0x3b, 0x00, 0x00, 0xd8, 0x38, 0x00, 0x00, 0x28, 0x36, 0x00, 0x00,
  0x7c, 0x33, 0x00, 0x00, 0xb0, 0x32, 0x00, 0x00, 0xe4, 0x31, 0x00, 0x00,
  0x30, 0x2f, 0x00, 0x00, 0x30, 0x2c, 0x00, 0x00, 0x80, 0x29, 0x00, 0x00,
  0xd4, 0x26, 0x00, 0x00, 0x08, 0x26, 0x00, 0x00, 0x3c, 0x25, 0x00, 0x00,
  0x88, 0x22, 0x00, 0x00, 0x88, 0x1f, 0x00, 0x00, 0xd8, 0x1c, 0x00, 0x00,
  0x2c, 0x1a, 0x00, 0x00, 0x58, 0x19, 0x00, 0x00, 0x84, 0x18, 0x00, 0x00,
  0xb0, 0x17, 0x00, 0x00, 0x80, 0x16, 0x00, 0x00, 0xb8, 0x15, 0x00, 0x00,
  0xf4, 0x14, 0x00, 0x00, 0x28, 0x14, 0x00, 0x00, 0x24, 0x13, 0x00, 0x00,
  0x50, 0x12, 0x00, 0x00, 0xd4, 0x11, 0x00, 0x00, 0xf0, 0x10, 0x00, 0x00,
  0x7c, 0x10, 0x00, 0x00, 0x88, 0x0f, 0x00, 0x00, 0xc4, 0x0e, 0x00, 0x00,
  0xe0, 0x0d, 0x00, 0x00, 0xec, 0x0c, 0x00, 0x00, 0x28, 0x0c, 0x00, 0x00,
  0xb4, 0x0b, 0x00, 0x00, 0xd0, 0x0a, 0x00, 0x00, 0x5c, 0x0a, 0x00, 0x00,
  0x68, 0x09, 0x00, 0x00, 0xa4, 0x08, 0x00, 0x00, 0xc0, 0x07, 0x00, 0x00,
  0xcc, 0x06, 0x00, 0x00, 0x08, 0x06, 0x00, 0x00, 0x94, 0x05, 0x00, 0x00,
  0xb0, 0x04, 0x00, 0x00, 0xbc, 0x03, 0x00, 0x00, 0x18, 0x03, 0x00, 0x00,
  0xa4, 0x02, 0x00, 0x00, 0xe0, 0x01, 0x00, 0x00, 0x24, 0x01, 0x00, 0x00,
  0x78, 0x00, 0x00, 0x00, 0x04, 0x00, 0x00, 0x00, 0x22, 0x9d, 0xff, 0xff,
  0x00, 0x00, 0x00, 0x01, 0x14, 0x00, 0x00, 0x00, 0x30, 0x00, 0x00, 0x00,
  0x48, 0x00, 0x00, 0x00, 0x00, 0x00, 0x00, 0x09, 0x44, 0x00, 0x00, 0x00,
  0x0c, 0x9d, 0xff, 0xff, 0x08, 0x00, 0x00, 0x00, 0x10, 0x00, 0x00, 0x00,
  0x01, 0x00, 0x00, 0x00, 0x80, 0xff, 0xff, 0xff, 0xff, 0xff, 0xff, 0xff,
  0x01, 0x00, 0x00, 0x00, 0x00, 0x00, 0x80, 0x3b, 0x19, 0x00, 0x00, 0x00,
  0x53, 0x74, 0x61, 0x74, 0x65, 0x66, 0x75, 0x6c, 0x50, 0x61, 0x72, 0x74,
  0x69, 0x74, 0x69, 0x6f, 0x6e, 0x65, 0x64, 0x43, 0x61, 0x6c, 0x6c, 0x3a,
  0x30, 0x00, 0x00, 0x00, 0x04, 0x00, 0x00, 0x00, 0x01, 0x00, 0x00, 0x00,
  0x0c, 0x00, 0x00, 0x00, 0x0c, 0x00, 0x00, 0x00, 0x02, 0x00, 0x00, 0x00,
  0x92, 0x9d, 0xff, 0xff, 0x00, 0x00, 0x00, 0x01, 0x14, 0x00, 0x00, 0x00,
  0x30, 0x00, 0x00, 0x00, 0x47, 0x00, 0x00, 0x00, 0x00, 0x00, 0x00, 0x09,
  0x7c, 0x00, 0x00, 0x00, 0x7c, 0x9d, 0xff, 0xff, 0x08, 0x00, 0x00, 0x00,
  0x10, 0x00, 0x00, 0x00, 0x01, 0x00, 0x00, 0x00, 0x0e, 0x00, 0x00, 0x00,
  0x00, 0x00, 0x00, 0x00, 0x01, 0x00, 0x00, 0x00, 0x4b, 0xfa, 0x6a, 0x3d,
  0x52, 0x00, 0x00, 0x00, 0x6d, 0x6f, 0x64, 0x65, 0x6c, 0x5f, 0x31, 0x2f,
  0x6c, 0x6f, 0x67, 0x69, 0x74, 0x73, 0x2f, 0x42, 0x69, 0x61, 0x73, 0x41,
  0x64, 0x64, 0x3b, 0x6d, 0x6f, 0x64, 0x65, 0x6c, 0x5f, 0x31, 0x2f, 0x6c,
  0x6f, 0x67, 0x69, 0x74, 0x73, 0x2f, 0x43, 0x6f, 0x6e, 0x76, 0x32, 0x44,
  0x3b, 0x6d, 0x6f, 0x64, 0x65, 0x6c, 0x5f, 0x31, 0x2f, 0x6c, 0x6f, 0x67,
  0x69, 0x74, 0x73, 0x2f, 0x42, 0x69, 0x61, 0x73, 0x41, 0x64, 0x64, 0x2f,
  0x52, 0x65, 0x61, 0x64, 0x56, 0x61, 0x72, 0x69, 0x61, 0x62, 0x6c, 0x65,
  0x4f, 0x70, 0x00, 0x00, 0x04, 0x00, 0x00, 0x00, 0x01, 0x00, 0x00, 0x00,
  0x0c, 0x00, 0x00, 0x00, 0x0c, 0x00, 0x00, 0x00, 0x02, 0x00, 0x00, 0x00,
  0x3a, 0x9e, 0xff, 0xff, 0x00, 0x00, 0x00, 0x01, 0x14, 0x00, 0x00, 0x00,
  0x34, 0x00, 0x00, 0x00, 0x46, 0x00, 0x00, 0x00, 0x00, 0x00, 0x00, 0x09,
  0x8c, 0x00, 0x00, 0x00, 0x24, 0x9e, 0xff, 0xff, 0x08, 0x00, 0x00, 0x00,
  0x14, 0x00, 0x00, 0x00, 0x01, 0x00, 0x00, 0x00, 0x80, 0xff, 0xff, 0xff,
  0xff, 0xff, 0xff, 0xff, 0x00, 0x00, 0x00, 0x00, 0x01, 0x00, 0x00, 0x00,
  0x0d, 0x67, 0xda, 0x3c, 0x5e, 0x00, 0x00, 0x00, 0x6d, 0x6f, 0x64, 0x65,
  0x6c, 0x5f, 0x31, 0x2f, 0x68, 0x65, 0x61, 0x64, 0x2f, 0x52, 0x65, 0x6c,
  0x75, 0x3b, 0x6d, 0x6f, 0x64, 0x65, 0x6c, 0x5f, 0x31, 0x2f, 0x68, 0x65,
  0x61, 0x64, 0x2f, 0x42, 0x69, 0x61, 0x73, 0x41, 0x64, 0x64, 0x3b, 0x6d,
  0x6f, 0x64, 0x65, 0x6c, 0x5f, 0x31, 0x2f, 0x68, 0x65, 0x61, 0x64, 0x2f,
  0x43, 0x6f, 0x6e, 0x76, 0x32, 0x44, 0x3b, 0x6d, 0x6f, 0x64, 0x65, 0x6c,
  0x5f, 0x31, 0x2f, 0x68, 0x65, 0x61, 0x64, 0x2f, 0x42, 0x69, 0x61, 0x73,
  0x41, 0x64, 0x64, 0x2f, 0x52, 0x65, 0x61, 0x64, 0x56, 0x61, 0x72, 0x69,
  0x61, 0x62, 0x6c, 0x65, 0x4f, 0x70, 0x00, 0x00, 0x04, 0x00, 0x00, 0x00,
  0x01, 0x00, 0x00, 0x00, 0x0c, 0x00, 0x00, 0x00, 0x0c, 0x00, 0x00, 0x00,
  0x20, 0x00, 0x00, 0x00, 0xf2, 0x9e, 0xff, 0xff, 0x00, 0x00, 0x00, 0x01,
  0x14, 0x00, 0x00, 0x00, 0x30, 0x00, 0x00, 0x00, 0x45, 0x00, 0x00, 0x00,
  0x00, 0x00, 0x00, 0x09, 0x94, 0x00, 0x00, 0x00, 0xdc, 0x9e, 0xff, 0xff,
  0x08, 0x00, 0x00, 0x00, 0x10, 0x00, 0x00, 0x00, 0x01, 0x00, 0x00, 0x00,
  0x80, 0xff, 0xff, 0xff, 0xff, 0xff, 0xff, 0xff, 0x01, 0x00, 0x00, 0x00,
  0x68, 0x94, 0xaf, 0x3c, 0x6a, 0x00, 0x00, 0x00, 0x6d, 0x6f, 0x64, 0x65,
  0x6c, 0x5f, 0x31, 0x2f, 0x62, 0x6c, 0x6f, 0x63, 0x6b, 0x5f, 0x36, 0x5f,
  0x65, 0x78, 0x70, 0x61, 0x6e, 0x64, 0x5f, 0x72, 0x65, 0x6c, 0x75, 0x2f,
  0x52, 0x65, 0x6c, 0x75, 0x36, 0x3b, 0x6d, 0x6f, 0x64, 0x65, 0x6c, 0x5f,
  0x31, 0x2f, 0x62, 0x6c, 0x6f, 0x63, 0x6b, 0x5f, 0x36, 0x5f, 0x65, 0x78,
  0x70, 0x61, 0x6e, 0x64, 0x5f, 0x42, 0x4e, 0x2f, 0x46, 0x75, 0x73, 0x65,
  0x64, 0x42, 0x61, 0x74, 0x63, 0x68, 0x4e, 0x6f, 0x72, 0x6d, 0x56, 0x33,
  0x3b, 0x6d, 0x6f, 0x64, 0x65, 0x6c, 0x5f, 0x31, 0x2f, 0x62, 0x6c, 0x6f,
  0x63, 0x6b, 0x5f, 0x36, 0x5f, 0x65, 0x78, 0x70, 0x61, 0x6e, 0x64, 0x2f,
  0x43, 0x6f, 0x6e, 0x76, 0x32, 0x44, 0x00, 0x00, 0x04, 0x00, 0x00, 0x00,
  0x01, 0x00, 0x00, 0x00, 0x0c, 0x00, 0x00, 0x00, 0x0c, 0x00, 0x00, 0x00,
  0x30, 0x00, 0x00, 0x00, 0xb2, 0x9f, 0xff, 0xff, 0x00, 0x00, 0x00, 0x01,
  0x14, 0x00, 0x00, 0x00, 0x34, 0x00, 0x00, 0x00, 0x44, 0x00, 0x00, 0x00,
  0x00, 0x00, 0x00, 0x09, 0x44, 0x00, 0x00, 0x00, 0x9c, 0x9f, 0xff, 0xff,
  0x08, 0x00, 0x00, 0x00, 0x14, 0x00, 0x00, 0x00, 0x01, 0x00, 0x00, 0x00,
  0xfb, 0xff, 0xff, 0xff, 0xff, 0xff, 0xff, 0xff, 0x00, 0x00, 0x00, 0x00,
  0x01, 0x00, 0x00, 0x00, 0xcc, 0x05, 0x8b, 0x3d, 0x17, 0x00, 0x00, 0x00,
  0x6d, 0x6f, 0x64, 0x65, 0x6c, 0x5f, 0x31, 0x2f, 0x62, 0x6c, 0x6f, 0x63,
  0x6b, 0x5f, 0x35, 0x5f, 0x61, 0x64, 0x64, 0x2f, 0x61, 0x64, 0x64, 0x00,
  0x04, 0x00, 0x00, 0x00, 0x01, 0x00, 0x00, 0x00, 0x0c, 0x00, 0x00, 0x00,
  0x0c, 0x00, 0x00, 0x00, 0x08, 0x00, 0x00, 0x00, 0x22, 0xa0, 0xff, 0xff,
  0x00, 0x00, 0x00, 0x01, 0x14, 0x00, 0x00, 0x00, 0x30, 0x00, 0x00, 0x00,
  0x43, 0x00, 0x00, 0x00, 0x00, 0x00, 0x00, 0x09, 0x74, 0x00, 0x00, 0x00,
  0x0c, 0xa0, 0xff, 0xff, 0x08, 0x00, 0x00, 0x00, 0x10, 0x00, 0x00, 0x00,
  0x01, 0x00, 0x00, 0x00, 0xf9, 0xff, 0xff, 0xff, 0xff, 0xff, 0xff, 0xff,
  0x01, 0x00, 0x00, 0x00, 0xef, 0x88, 0x3d, 0x3d, 0x4a, 0x00, 0x00, 0x00,
  0x6d, 0x6f, 0x64, 0x65, 0x6c, 0x5f, 0x31, 0x2f, 0x62, 0x6c, 0x6f, 0x63,
  0x6b, 0x5f, 0x35, 0x5f, 0x70, 0x72, 0x6f, 0x6a, 0x65, 0x63, 0x74, 0x5f,
  0x42, 0x4e, 0x2f, 0x46, 0x75, 0x73, 0x65, 0x64, 0x42, 0x61, 0x74, 0x63,
  0x68, 0x4e, 0x6f, 0x72, 0x6d, 0x56, 0x33, 0x3b, 0x6d, 0x6f, 0x64, 0x65,
  0x6c, 0x5f, 0x31, 0x2f, 0x62, 0x6c, 0x6f, 0x63, 0x6b, 0x5f, 0x35, 0x5f,
  0x70, 0x72, 0x6f, 0x6a, 0x65, 0x63, 0x74, 0x2f, 0x43, 0x6f, 0x6e, 0x76,
  0x32, 0x44, 0x00, 0x00, 0x04, 0x00, 0x00, 0x00, 0x01, 0x00, 0x00, 0x00,
  0x0c, 0x00, 0x00, 0x00, 0x0c, 0x00, 0x00, 0x00, 0x08, 0x00, 0x00, 0x00,
  0xc2, 0xa0, 0xff, 0xff, 0x00, 0x00, 0x00, 0x01, 0x14, 0x00, 0x00, 0x00,
  0x34, 0x00, 0x00, 0x00, 0x42, 0x00, 0x00, 0x00, 0x00, 0x00, 0x00, 0x09,
  0xc4, 0x00, 0x00, 0x00, 0xac, 0xa0, 0xff, 0xff, 0x08, 0x00, 0x00, 0x00,
  0x14, 0x00, 0x00, 0x00, 0x01, 0x00, 0x00, 0x00, 0x80, 0xff, 0xff, 0xff,
  0xff, 0xff, 0xff, 0xff, 0x00, 0x00, 0x00, 0x00, 0x01, 0x00, 0x00, 0x00,
  0x7a, 0x8c, 0x9b, 0x3c, 0x94, 0x00, 0x00, 0x00, 0x6d, 0x6f, 0x64, 0x65,
  0x6c, 0x5f, 0x31, 0x2f, 0x62, 0x6c, 0x6f, 0x63, 0x6b, 0x5f, 0x35, 0x5f,
  0x64, 0x65, 0x70, 0x74, 0x68, 0x77, 0x69, 0x73, 0x65, 0x5f, 0x72, 0x65,
  0x6c, 0x75, 0x2f, 0x52, 0x65, 0x6c, 0x75, 0x36, 0x3b, 0x6d, 0x6f, 0x64,
  0x65, 0x6c, 0x5f, 0x31, 0x2f, 0x62, 0x6c, 0x6f, 0x63, 0x6b, 0x5f, 0x35,
  0x5f, 0x64, 0x65, 0x70, 0x74, 0x68, 0x77, 0x69, 0x73, 0x65, 0x5f, 0x42,
  0x4e, 0x2f, 0x46, 0x75, 0x73, 0x65, 0x64, 0x42, 0x61, 0x74, 0x63, 0x68,
  0x4e, 0x6f, 0x72, 0x6d, 0x56, 0x33, 0x3b, 0x6d, 0x6f, 0x64, 0x65, 0x6c,
  0x5f, 0x31, 0x2f, 0x62, 0x6c, 0x6f, 0x63, 0x6b, 0x5f, 0x36, 0x5f, 0x65,
  0x78, 0x70, 0x61, 0x6e, 0x64, 0x2f, 0x43, 0x6f, 0x6e, 0x76, 0x32, 0x44,
  0x3b, 0x6d, 0x6f, 0x64, 0x65, 0x6c, 0x5f, 0x31, 0x2f, 0x62, 0x6c, 0x6f,
  0x63, 0x6b, 0x5f, 0x35, 0x5f, 0x64, 0x65, 0x70, 0x74, 0x68, 0x77, 0x69,
  0x73, 0x65, 0x2f, 0x64, 0x65, 0x70, 0x74, 0x68, 0x77, 0x69, 0x73, 0x65,
  0x00, 0x00, 0x00, 0x00, 0x04, 0x00, 0x00, 0x00, 0x01, 0x00, 0x00, 0x00,
  0x0c, 0x00, 0x00, 0x00, 0x0c, 0x00, 0x00, 0x00, 0x30, 0x00, 0x00, 0x00,
  0xb2, 0xa1, 0xff, 0xff, 0x00, 0x00, 0x00, 0x01, 0x14, 0x00, 0x00, 0x00,
  0x30, 0x00, 0x00, 0x00, 0x41, 0x00, 0x00, 0x00, 0x00, 0x00, 0x00, 0x09,
  0xb4, 0x00, 0x00, 0x00, 0x9c, 0xa1, 0xff, 0xff, 0x08, 0x00, 0x00, 0x00,
  0x10, 0x00, 0x00, 0x00, 0x01, 0x00, 0x00, 0x00, 0x80, 0xff, 0xff, 0xff,
  0xff, 0xff, 0xff, 0xff, 0x01, 0x00, 0x00, 0x00, 0x34, 0xea, 0x9b, 0x3c,
  0x88, 0x00, 0x00, 0x00, 0x6d, 0x6f, 0x64, 0x65, 0x6c, 0x5f, 0x31, 0x2f,
  0x62, 0x6c, 0x6f, 0x63, 0x6b, 0x5f, 0x35, 0x5f, 0x65, 0x78, 0x70, 0x61,
  0x6e, 0x64, 0x5f, 0x72, 0x65, 0x6c, 0x75, 0x2f, 0x52, 0x65, 0x6c, 0x75,
  0x36, 0x3b, 0x6d, 0x6f, 0x64, 0x65, 0x6c, 0x5f, 0x31, 0x2f, 0x62, 0x6c,
  0x6f, 0x63, 0x6b, 0x5f, 0x35, 0x5f, 0x65, 0x78, 0x70, 0x61, 0x6e, 0x64,
  0x5f, 0x42, 0x4e, 0x2f, 0x46, 0x75, 0x73, 0x65, 0x64, 0x42, 0x61, 0x74,
  0x63, 0x68, 0x4e, 0x6f, 0x72, 0x6d, 0x56, 0x33, 0x3b, 0x6d, 0x6f, 0x64,
  0x65, 0x6c, 0x5f, 0x31, 0x2f, 0x62, 0x6c, 0x6f, 0x63, 0x6b, 0x5f, 0x36,
  0x5f, 0x65, 0x78, 0x70, 0x61, 0x6e, 0x64, 0x2f, 0x43, 0x6f, 0x6e, 0x76,
  0x32, 0x44, 0x3b, 0x6d, 0x6f, 0x64, 0x65, 0x6c, 0x5f, 0x31, 0x2f, 0x62,
  0x6c, 0x6f, 0x63, 0x6b, 0x5f, 0x35, 0x5f, 0x65, 0x78, 0x70, 0x61, 0x6e,
  0x64, 0x2f, 0x43, 0x6f, 0x6e, 0x76, 0x32, 0x44, 0x00, 0x00, 0x00, 0x00,
  0x04, 0x00, 0x00, 0x00, 0x01, 0x00, 0x00, 0x00, 0x0c, 0x00, 0x00, 0x00,
  0x0c, 0x00, 0x00, 0x00, 0x30, 0x00, 0x00, 0x00, 0x92, 0xa2, 0xff, 0xff,
  0x00, 0x00, 0x00, 0x01, 0x14, 0x00, 0x00, 0x00, 0x34, 0x00, 0x00, 0x00,
  0x40, 0x00, 0x00, 0x00, 0x00, 0x00, 0x00, 0x09, 0x44, 0x00, 0x00, 0x00,
  0x7c, 0xa2, 0xff, 0xff, 0x08, 0x00, 0x00, 0x00, 0x14, 0x00, 0x00, 0x00,
  0x01, 0x00, 0x00, 0x00, 0x0b, 0x00, 0x00, 0x00, 0x00, 0x00, 0x00, 0x00,
  0x00, 0x00, 0x00, 0x00, 0x01, 0x00, 0x00, 0x00, 0x12, 0xbd, 0x67, 0x3d,
  0x17, 0x00, 0x00, 0x00, 0x6d, 0x6f, 0x64, 0x65, 0x6c, 0x5f, 0x31, 0x2f,
  0x62, 0x6c, 0x6f, 0x63, 0x6b, 0x5f, 0x34, 0x5f, 0x61, 0x64, 0x64, 0x2f,
  0x61, 0x64, 0x64, 0x00, 0x04, 0x00, 0x00, 0x00, 0x01, 0x00, 0x00, 0x00,
  0x0c, 0x00, 0x00, 0x00, 0x0c, 0x00, 0x00, 0x00, 0x08, 0x00, 0x00, 0x00,
  0x02, 0xa3, 0xff, 0xff, 0x00, 0x00, 0x00, 0x01, 0x14, 0x00, 0x00, 0x00,
  0x30, 0x00, 0x00, 0x00, 0x3f, 0x00, 0x00, 0x00, 0x00, 0x00, 0x00, 0x09,
  0x94, 0x00, 0x00, 0x00, 0xec, 0xa2, 0xff, 0xff, 0x08, 0x00, 0x00, 0x00,
  0x10, 0x00, 0x00, 0x00, 0x01, 0x00, 0x00, 0x00, 0xd6, 0xff, 0xff, 0xff,
  0xff, 0xff, 0xff, 0xff, 0x01, 0x00, 0x00, 0x00, 0xa0, 0x21, 0x17, 0x3d,
