/* Generated by Edge Impulse
 *
 * Permission is hereby granted, free of charge, to any person obtaining a copy
 * of this software and associated documentation files (the "Software"), to deal
 * in the Software without restriction, including without limitation the rights
 * to use, copy, modify, merge, publish, distribute, sublicense, and/or sell
 * copies of the Software, and to permit persons to whom the Software is
 * furnished to do so, subject to the following conditions:
 *
 * The above copyright notice and this permission notice shall be included in
 * all copies or substantial portions of the Software.
 *
 * THE SOFTWARE IS PROVIDED "AS IS", WITHOUT WARRANTY OF ANY KIND, EXPRESS OR
 * IMPLIED, INCLUDING BUT NOT LIMITED TO THE WARRANTIES OF MERCHANTABILITY,
 * FITNESS FOR A PARTICULAR PURPOSE AND NONINFRINGEMENT. IN NO EVENT SHALL THE
 * AUTHORS OR COPYRIGHT HOLDERS BE LIABLE FOR ANY CLAIM, DAMAGES OR OTHER
 * LIABILITY, WHETHER IN AN ACTION OF CONTRACT, TORT OR OTHERWISE, ARISING FROM,
 * OUT OF OR IN CONNECTION WITH THE SOFTWARE OR THE USE OR OTHER DEALINGS IN THE
 * SOFTWARE.
 */

#ifndef _EI_CLASSIFIER_TFLITE_LEARN_5_H_
#define _EI_CLASSIFIER_TFLITE_LEARN_5_H_

#define EI_CLASSIFIER_TFLITE_LEARN_5_ARENA_SIZE     286604
const size_t tflite_learn_5_arena_size = 286604;

#ifdef EI_CLASSIFIER_TFLITE_ARENA_SIZE
#if EI_CLASSIFIER_TFLITE_ARENA_SIZE < EI_CLASSIFIER_TFLITE_LEARN_5_ARENA_SIZE
#undef EI_CLASSIFIER_TFLITE_ARENA_SIZE
#define EI_CLASSIFIER_TFLITE_ARENA_SIZE EI_CLASSIFIER_TFLITE_LEARN_5_ARENA_SIZE
#endif // #if EI_CLASSIFIER_TFLITE_ARENA_SIZE < EI_CLASSIFIER_TFLITE_LEARN_5_ARENA_SIZE
#else
#define EI_CLASSIFIER_TFLITE_ARENA_SIZE EI_CLASSIFIER_TFLITE_LEARN_5_ARENA_SIZE
#endif // #ifdef EI_CLASSIFIER_TFLITE_ARENA_SIZE

#if defined __GNUC__
#define ALIGN(X) __attribute__((aligned(X)))
#elif defined _MSC_VER
#define ALIGN(X) __declspec(align(X))
#elif defined __TASKING__
#define ALIGN(X) __align(X)
#else
#define ALIGN(X)
#endif
ALIGN(16) const unsigned char tflite_learn_5[] = {
  0x20, 0x00, 0x00, 0x00, 0x54, 0x46, 0x4c, 0x33, 0x00, 0x00, 0x00, 0x00,
  0x14, 0x00, 0x20, 0x00, 0x1c, 0x00, 0x18, 0x00, 0x14, 0x00, 0x10, 0x00,
  0x0c, 0x00, 0x00, 0x00, 0x08, 0x00, 0x04, 0x00, 0x14, 0x00, 0x00, 0x00,
  0x1c, 0x00, 0x00, 0x00, 0x8c, 0x00, 0x00, 0x00, 0xbc, 0x00, 0x00, 0x00,
  0x88, 0x2e, 0x00, 0x00, 0x98, 0x2e, 0x00, 0x00, 0xc0, 0x9e, 0x00, 0x00,
  0x03, 0x00, 0x00, 0x00, 0x01, 0x00, 0x00, 0x00, 0x10, 0x00, 0x00, 0x00,
  0x00, 0x00, 0x0a, 0x00, 0x10, 0x00, 0x0c, 0x00, 0x08, 0x00, 0x04, 0x00,
  0x0a, 0x00, 0x00, 0x00, 0x0c, 0x00, 0x00, 0x00, 0x1c, 0x00, 0x00, 0x00,
  0x3c, 0x00, 0x00, 0x00, 0x0f, 0x00, 0x00, 0x00, 0x73, 0x65, 0x72, 0x76,
  0x69, 0x6e, 0x67, 0x5f, 0x64, 0x65, 0x66, 0x61, 0x75, 0x6c, 0x74, 0x00,
  0x01, 0x00, 0x00, 0x00, 0x04, 0x00, 0x00, 0x00, 0xc4, 0xff, 0xff, 0xff,
  0x47, 0x00, 0x00, 0x00, 0x04, 0x00, 0x00, 0x00, 0x08, 0x00, 0x00, 0x00,
  0x6f, 0x75, 0x74, 0x70, 0x75, 0x74, 0x5f, 0x30, 0x00, 0x00, 0x00, 0x00,
  0x01, 0x00, 0x00, 0x00, 0x04, 0x00, 0x00, 0x00, 0x0e, 0xd1, 0xff, 0xff,
  0x04, 0x00, 0x00, 0x00, 0x01, 0x00, 0x00, 0x00, 0x78, 0x00, 0x00, 0x00,
  0x01, 0x00, 0x00, 0x00, 0x0c, 0x00, 0x00, 0x00, 0x08, 0x00, 0x0c, 0x00,
  0x08, 0x00, 0x04, 0x00, 0x08, 0x00, 0x00, 0x00, 0x49, 0x00, 0x00, 0x00,
  0x04, 0x00, 0x00, 0x00, 0x13, 0x00, 0x00, 0x00, 0x6d, 0x69, 0x6e, 0x5f,
  0x72, 0x75, 0x6e, 0x74, 0x69, 0x6d, 0x65, 0x5f, 0x76, 0x65, 0x72, 0x73,
  0x69, 0x6f, 0x6e, 0x00, 0x4a, 0x00, 0x00, 0x00, 0xc8, 0x2d, 0x00, 0x00,
  0xc0, 0x2d, 0x00, 0x00, 0x90, 0x2d, 0x00, 0x00, 0x38, 0x2d, 0x00, 0x00,
  0x08, 0x2d, 0x00, 0x00, 0xb0, 0x2c, 0x00, 0x00, 0x80, 0x2c, 0x00, 0x00,
  0x30, 0x2c, 0x00, 0x00, 0x00, 0x2c, 0x00, 0x00, 0x70, 0x2a, 0x00, 0x00,
  0xa0, 0x29, 0x00, 0x00, 0xe0, 0x27, 0x00, 0x00, 0x10, 0x27, 0x00, 0x00,
  0x80, 0x25, 0x00, 0x00, 0x50, 0x25, 0x00, 0x00, 0xc0, 0x23, 0x00, 0x00,
  0xf0, 0x22, 0x00, 0x00, 0x30, 0x21, 0x00, 0x00, 0x60, 0x20, 0x00, 0x00,
  0xd0, 0x1e, 0x00, 0x00, 0xa0, 0x1e, 0x00, 0x00, 0x10, 0x1d, 0x00, 0x00,
  0x40, 0x1c, 0x00, 0x00, 0x80, 0x1a, 0x00, 0x00, 0xb0, 0x19, 0x00, 0x00,
  0x20, 0x18, 0x00, 0x00, 0xf0, 0x17, 0x00, 0x00, 0x60, 0x16, 0x00, 0x00,
  0x90, 0x15, 0x00, 0x00, 0xd0, 0x13, 0x00, 0x00, 0x00, 0x13, 0x00, 0x00,
  0x70, 0x11, 0x00, 0x00, 0x40, 0x11, 0x00, 0x00, 0xb0, 0x0f, 0x00, 0x00,
  0xe0, 0x0e, 0x00, 0x00, 0x20, 0x0d, 0x00, 0x00, 0x50, 0x0c, 0x00, 0x00,
  0xc0, 0x0a, 0x00, 0x00, 0x90, 0x0a, 0x00, 0x00, 0x00, 0x09, 0x00, 0x00,
  0x30, 0x08, 0x00, 0x00, 0x20, 0x02, 0x00, 0x00, 0x90, 0x01, 0x00, 0x00,
  0x20, 0x01, 0x00, 0x00, 0x04, 0x01, 0x00, 0x00, 0xfc, 0x00, 0x00, 0x00,
  0xf4, 0x00, 0x00, 0x00, 0xec, 0x00, 0x00, 0x00, 0xe4, 0x00, 0x00, 0x00,
  0xdc, 0x00, 0x00, 0x00, 0xd4, 0x00, 0x00, 0x00, 0xcc, 0x00, 0x00, 0x00,
  0xc4, 0x00, 0x00, 0x00, 0xbc, 0x00, 0x00, 0x00, 0xb4, 0x00, 0x00, 0x00,
  0xac, 0x00, 0x00, 0x00, 0xa4, 0x00, 0x00, 0x00, 0x9c, 0x00, 0x00, 0x00,
  0x94, 0x00, 0x00, 0x00, 0x8c, 0x00, 0x00, 0x00, 0x84, 0x00, 0x00, 0x00,
  0x7c, 0x00, 0x00, 0x00, 0x74, 0x00, 0x00, 0x00, 0x6c, 0x00, 0x00, 0x00,
  0x64, 0x00, 0x00, 0x00, 0x5c, 0x00, 0x00, 0x00, 0x54, 0x00, 0x00, 0x00,
  0x4c, 0x00, 0x00, 0x00, 0x44, 0x00, 0x00, 0x00, 0x3c, 0x00, 0x00, 0x00,
  0x34, 0x00, 0x00, 0x00, 0x2c, 0x00, 0x00, 0x00, 0x24, 0x00, 0x00, 0x00,
  0x04, 0x00, 0x00, 0x00, 0x7e, 0xd2, 0xff, 0xff, 0x04, 0x00, 0x00, 0x00,
  0x10, 0x00, 0x00, 0x00, 0x31, 0x2e, 0x31, 0x34, 0x2e, 0x30, 0x00, 0x00,
  0x00, 0x00, 0x00, 0x00, 0x00, 0x00, 0x00, 0x00, 0xf8, 0x63, 0xff, 0xff,
  0xfc, 0x63, 0xff, 0xff, 0x00, 0x64, 0xff, 0xff, 0x04, 0x64, 0xff, 0xff,
  0x08, 0x64, 0xff, 0xff, 0x0c, 0x64, 0xff, 0xff, 0x10, 0x64, 0xff, 0xff,
  0x14, 0x64, 0xff, 0xff, 0x18, 0x64, 0xff, 0xff, 0x1c, 0x64, 0xff, 0xff,
  0x20, 0x64, 0xff, 0xff, 0x24, 0x64, 0xff, 0xff, 0x28, 0x64, 0xff, 0xff,
  0x2c, 0x64, 0xff, 0xff, 0x30, 0x64, 0xff, 0xff, 0x34, 0x64, 0xff, 0xff,
  0x38, 0x64, 0xff, 0xff, 0x3c, 0x64, 0xff, 0xff, 0x40, 0x64, 0xff, 0xff,
  0x44, 0x64, 0xff, 0xff, 0x48, 0x64, 0xff, 0xff, 0x4c, 0x64, 0xff, 0xff,
  0x50, 0x64, 0xff, 0xff, 0x54, 0x64, 0xff, 0xff, 0x58, 0x64, 0xff, 0xff,
  0x5c, 0x64, 0xff, 0xff, 0x60, 0x64, 0xff, 0xff, 0x64, 0x64, 0xff, 0xff,
  0x0a, 0xd3, 0xff, 0xff, 0x04, 0x00, 0x00, 0x00, 0x0c, 0x00, 0x00, 0x00,
  0x0b, 0xd1, 0x00, 0x00, 0x71, 0x19, 0xff, 0xff, 0x74, 0xfa, 0xfe, 0xff,
  0x22, 0xd3, 0xff, 0xff, 0x04, 0x00, 0x00, 0x00, 0x60, 0x00, 0x00, 0x00,
  0xb7, 0x7f, 0xdd, 0xf3, 0x53, 0xb8, 0xc0, 0xb6, 0x73, 0xe6, 0xf9, 0x8c,
  0x42, 0x6d, 0xbe, 0xcd, 0xb8, 0x0d, 0xbc, 0x23, 0x04, 0xa0, 0x54, 0xbc,
  0x19, 0x1e, 0x4d, 0xdc, 0x10, 0x5a, 0xdf, 0x60, 0x5e, 0xc3, 0xba, 0x0d,
  0x0c, 0x31, 0xa1, 0xcb, 0x9e, 0x78, 0x40, 0x15, 0x5d, 0x53, 0x07, 0xc9,
  0x6a, 0x0c, 0x81, 0xb2, 0x73, 0xf1, 0x0a, 0x35, 0xbb, 0x49, 0xf4, 0xe7,
  0x49, 0x0f, 0xc7, 0xe8, 0xfa, 0x81, 0x74, 0x72, 0x0c, 0x4f, 0x92, 0x39,
  0xb1, 0x28, 0x83, 0x6e, 0x0f, 0xaf, 0x71, 0x44, 0x66, 0x88, 0x9f, 0x68,
  0x12, 0x10, 0x1e, 0x3b, 0x89, 0xce, 0xfe, 0xf4, 0x18, 0x54, 0xc5, 0x3f,
  0x8e, 0xd3, 0xff, 0xff, 0x04, 0x00, 0x00, 0x00, 0x80, 0x00, 0x00, 0x00,
  0x57, 0x02, 0x00, 0x00, 0x4e, 0x05, 0x00, 0x00, 0xe8, 0xfe, 0xff, 0xff,
  0x39, 0x01, 0x00, 0x00, 0x34, 0x01, 0x00, 0x00, 0x59, 0x01, 0x00, 0x00,
  0x08, 0xff, 0xff, 0xff, 0xe5, 0xfe, 0xff, 0xff, 0x91, 0x08, 0x00, 0x00,
  0x11, 0x02, 0x00, 0x00, 0x36, 0xfd, 0xff, 0xff, 0x27, 0x01, 0x00, 0x00,
  0xf5, 0x01, 0x00, 0x00, 0x06, 0x03, 0x00, 0x00, 0x54, 0x01, 0x00, 0x00,
  0x92, 0x00, 0x00, 0x00, 0x01, 0x02, 0x00, 0x00, 0xfa, 0x05, 0x00, 0x00,
  0x00, 0x03, 0x00, 0x00, 0x94, 0xfe, 0xff, 0xff, 0x25, 0x02, 0x00, 0x00,
  0x50, 0xfb, 0xff, 0xff, 0xc7, 0x01, 0x00, 0x00, 0xc1, 0x01, 0x00, 0x00,
  0xb2, 0xfe, 0xff, 0xff, 0xf6, 0x02, 0x00, 0x00, 0xdc, 0xfd, 0xff, 0xff,
  0x7a, 0xfe, 0xff, 0xff, 0xfb, 0x01, 0x00, 0x00, 0x96, 0x00, 0x00, 0x00,
  0xf3, 0xfd, 0xff, 0xff, 0x2c, 0x00, 0x00, 0x00, 0x1a, 0xd4, 0xff, 0xff,
  0x04, 0x00, 0x00, 0x00, 0x00, 0x06, 0x00, 0x00, 0x17, 0x32, 0x2c, 0xba,
  0xc4, 0x1c, 0x0e, 0x55, 0x05, 0xe6, 0x9e, 0xb7, 0xab, 0x7f, 0xda, 0x30,
  0xfb, 0x67, 0x26, 0x11, 0xeb, 0xaa, 0xdf, 0x22, 0x7b, 0xad, 0xe3, 0x7f,
  0x4b, 0xc3, 0x56, 0x10, 0x92, 0x5f, 0x2b, 0xcb, 0xf4, 0x1c, 0xa5, 0xf3,
  0xae, 0xd8, 0x78, 0xae, 0x59, 0x03, 0xb3, 0x63, 0x60, 0x1a, 0x51, 0x3a,
  0x2a, 0xb4, 0xf9, 0x7f, 0x05, 0x32, 0xa5, 0x57, 0xa7, 0xa6, 0x24, 0xc6,
  0xf1, 0xf8, 0x16, 0xf2, 0x6f, 0x69, 0xce, 0xc5, 0x29, 0x06, 0x08, 0xbb,
  0x5b, 0x2d, 0xfc, 0xd5, 0xd3, 0xbe, 0xc0, 0xcd, 0x38, 0xbe, 0xf0, 0x20,
  0x11, 0x76, 0x02, 0x42, 0x18, 0x09, 0xf8, 0x49, 0xfd, 0xcc, 0xa4, 0x83,
  0xd7, 0x08, 0x4d, 0xfc, 0x1c, 0xd0, 0xb6, 0xca, 0x31, 0x56, 0xb4, 0x8b,
  0x81, 0x1f, 0xcc, 0x24, 0x99, 0xc7, 0x1d, 0x1d, 0xa9, 0x4d, 0xc8, 0xce,
  0xe5, 0xd6, 0xa6, 0x21, 0x24, 0xb9, 0x30, 0xfb, 0xac, 0x16, 0xa8, 0x4e,
  0x3f, 0xe3, 0x75, 0x55, 0xb6, 0xe6, 0x4d, 0x10, 0xc5, 0x5b, 0x3e, 0xc6,
  0x5f, 0x62, 0x4b, 0x40, 0x63, 0x22, 0x30, 0xd3, 0x55, 0x30, 0x63, 0x6a,
  0x81, 0x42, 0xdc, 0x5f, 0xcd, 0x47, 0xc6, 0x0d, 0x5c, 0x49, 0x93, 0x1d,
  0x38, 0x27, 0xe3, 0x62, 0x93, 0x25, 0x1a, 0xbc, 0xbc, 0xeb, 0xbf, 0xdb,
  0xc0, 0xe8, 0xd5, 0x0f, 0xce, 0xb3, 0xe0, 0xe0, 0xab, 0xfc, 0x52, 0xf5,
  0x37, 0x08, 0xe6, 0xdf, 0x15, 0x3a, 0x91, 0xc2, 0xc1, 0x5d, 0x1d, 0x8b,
  0x41, 0x2f, 0xde, 0xb4, 0xac, 0x4c, 0x90, 0xe3, 0xcb, 0x81, 0x49, 0x22,
  0x0a, 0x94, 0x70, 0x21, 0x83, 0x28, 0xcd, 0xd7, 0x5a, 0xed, 0x8c, 0x8b,
  0x64, 0x50, 0xa2, 0x83, 0xf1, 0x5a, 0xc4, 0xcf, 0xb2, 0x58, 0xe2, 0xdb,
  0x1c, 0xf3, 0xe3, 0x34, 0xfd, 0xc1, 0x38, 0x21, 0xc2, 0x22, 0x5f, 0x5d,
  0x81, 0x64, 0x58, 0x00, 0x5f, 0x0b, 0xd8, 0x5d, 0xad, 0x2f, 0xc5, 0xd9,
  0xf1, 0x26, 0x39, 0x03, 0xa8, 0x3f, 0x3a, 0x34, 0x5b, 0xd7, 0xcd, 0xe2,
  0x47, 0x01, 0xfa, 0xc2, 0x5f, 0x66, 0xfb, 0xf0, 0x6a, 0xdf, 0xf9, 0x92,
  0x82, 0xd7, 0x2e, 0x90, 0x0f, 0x47, 0x12, 0x70, 0x2c, 0xac, 0xdb, 0x6e,
  0xd7, 0x5b, 0x1c, 0x54, 0x81, 0x6a, 0x54, 0x16, 0xb1, 0x20, 0x9e, 0x85,
  0xc4, 0x94, 0xf9, 0x2a, 0xb8, 0x05, 0x41, 0x49, 0x81, 0xbf, 0xfe, 0x33,
  0x95, 0x21, 0x48, 0xfa, 0x86, 0x4f, 0x96, 0xdd, 0x51, 0x41, 0xc5, 0x89,
  0x76, 0xe9, 0xe0, 0xbc, 0x1a, 0xaf, 0xf4, 0xe1, 0xc9, 0x7d, 0x6a, 0x52,
  0x76, 0xfc, 0xcf, 0x3c, 0x51, 0x98, 0xf3, 0xc2, 0x73, 0xb7, 0x54, 0x75,
  0x9c, 0xde, 0xf3, 0x0d, 0x99, 0xe1, 0x48, 0xd7, 0x7f, 0xfb, 0x03, 0xa6,
  0x8b, 0x30, 0xba, 0x5f, 0x09, 0xbb, 0xaa, 0xc9, 0xff, 0xfa, 0xd2, 0x22,
  0x4e, 0x1b, 0x0c, 0xd9, 0x4c, 0xbc, 0x6e, 0xdc, 0x12, 0xd7, 0xcc, 0x20,
  0x3d, 0x62, 0x60, 0xef, 0x6e, 0x56, 0x73, 0xfc, 0xd0, 0xc7, 0x35, 0xbf,
  0xe3, 0xda, 0xd7, 0x23, 0x08, 0x22, 0xe3, 0x7f, 0xd0, 0xd8, 0x03, 0xe5,
  0x13, 0x2b, 0x47, 0x1d, 0x0f, 0xf1, 0x13, 0x70, 0xe6, 0xce, 0x25, 0x56,
  0x28, 0x4c, 0x65, 0x2e, 0x22, 0x3f, 0x55, 0x43, 0x77, 0x45, 0xef, 0xea,
  0xcf, 0xce, 0xca, 0xbd, 0xb4, 0x5d, 0x1e, 0xf4, 0xc4, 0xce, 0xb4, 0x46,
  0x50, 0x9f, 0xeb, 0x3f, 0x81, 0xca, 0x7c, 0xef, 0xed, 0x0c, 0xc0, 0xc3,
  0x77, 0x62, 0x0e, 0xf6, 0x3c, 0x4b, 0x16, 0xe8, 0xa5, 0x23, 0xae, 0x9c,
  0xc0, 0x5f, 0x86, 0x92, 0x54, 0x9b, 0x5f, 0x31, 0xe7, 0x1c, 0x41, 0xf6,
  0x5b, 0xff, 0xab, 0x20, 0xe4, 0xb1, 0xc5, 0x52, 0x17, 0x59, 0xca, 0xe5,
  0x87, 0xab, 0xd9, 0x81, 0x1f, 0x23, 0x5c, 0x90, 0x64, 0xac, 0x0e, 0x62,
  0x41, 0x15, 0x21, 0x2c, 0xee, 0x16, 0xde, 0xdd, 0x43, 0x3e, 0xd1, 0xc4,
  0x51, 0x01, 0xe6, 0xb1, 0xc2, 0x33, 0x30, 0xf8, 0x0f, 0xcd, 0x32, 0xca,
  0x81, 0x3c, 0xf5, 0xdd, 0xdf, 0xe3, 0x39, 0xc6, 0xb7, 0x58, 0x19, 0x54,
  0x0d, 0x2c, 0x05, 0x25, 0x0e, 0x4f, 0x9e, 0xc8, 0x10, 0x6b, 0xcf, 0xcb,
  0x31, 0xad, 0x5f, 0x8f, 0x51, 0x1d, 0xa0, 0xe0, 0xb0, 0xb5, 0xb6, 0x7a,
  0x0c, 0xe0, 0xd2, 0xbc, 0x00, 0x0a, 0xd7, 0x28, 0xbe, 0xa8, 0xd9, 0x3e,
  0xfe, 0xdb, 0x2b, 0x7f, 0xa8, 0xe3, 0x44, 0x39, 0xf9, 0x63, 0x87, 0x0c,
  0x72, 0xb8, 0x54, 0x56, 0xfb, 0xdf, 0x04, 0xb7, 0x0a, 0xaf, 0x4d, 0x3e,
  0x5e, 0x5a, 0x3c, 0x91, 0x33, 0x01, 0xaf, 0x4a, 0x40, 0x0b, 0x53, 0xb6,
  0x61, 0x1f, 0x29, 0xd7, 0x1a, 0x81, 0x2a, 0x26, 0x04, 0x4f, 0x33, 0x31,
  0x34, 0x41, 0x0f, 0x55, 0x7f, 0xfc, 0xfd, 0xb3, 0x6a, 0xb7, 0xe9, 0xb3,
  0x26, 0xae, 0xd4, 0x02, 0xd6, 0x89, 0x2b, 0x09, 0x4c, 0xa2, 0x52, 0x18,
  0xfc, 0xb0, 0x54, 0x47, 0x49, 0x04, 0x3c, 0x43, 0xd3, 0xce, 0x60, 0x42,
  0x3d, 0xb5, 0x1a, 0xf0, 0x06, 0x50, 0xed, 0xbd, 0xf6, 0x76, 0xec, 0x30,
  0x81, 0xe3, 0xf0, 0xa7, 0xfb, 0x2a, 0xd1, 0xe0, 0xd6, 0xf0, 0x20, 0x23,
  0x51, 0xb4, 0x4f, 0xd9, 0xb4, 0x68, 0x70, 0x1d, 0x21, 0x51, 0xa1, 0xad,
  0x6d, 0x7a, 0x77, 0x09, 0x55, 0xbe, 0xe9, 0xc1, 0x0d, 0x4f, 0x0a, 0xd8,
  0xc0, 0x58, 0x19, 0x2b, 0xa6, 0xf4, 0x6d, 0xd5, 0xdf, 0xe5, 0xde, 0xfd,
  0xf1, 0x47, 0x99, 0x1e, 0xe2, 0xb6, 0xd0, 0xf7, 0xfa, 0x07, 0x59, 0x72,
  0xfc, 0xad, 0xa0, 0x20, 0x1d, 0x77, 0xca, 0xe3, 0xec, 0x6a, 0xd8, 0xc9,
  0xd3, 0x7f, 0x69, 0xc4, 0x42, 0x2a, 0xa3, 0x9d, 0x01, 0x14, 0xac, 0x7f,
  0x61, 0xd0, 0x71, 0x73, 0xed, 0x3b, 0x64, 0xc6, 0xda, 0x62, 0x9a, 0xec,
  0xfd, 0x5a, 0xd7, 0xf2, 0x9b, 0xf5, 0xa3, 0x19, 0x7d, 0xcd, 0x95, 0x29,
  0xdc, 0x71, 0x77, 0x2e, 0x92, 0xdf, 0x1c, 0x16, 0xfe, 0x68, 0x95, 0x46,
  0x3b, 0x29, 0x5a, 0xbd, 0xb5, 0x03, 0x97, 0xc2, 0x0f, 0x3d, 0x9f, 0xde,
  0xed, 0x2c, 0xdc, 0x7f, 0x1f, 0xd1, 0x53, 0x0b, 0x07, 0x61, 0x31, 0xb2,
  0x39, 0x6b, 0xfe, 0x4c, 0x2d, 0x09, 0xe7, 0xfc, 0xaf, 0x11, 0x03, 0xb3,
  0xe8, 0x3f, 0x4d, 0xba, 0x63, 0xd1, 0x07, 0x49, 0x35, 0xd3, 0x11, 0x28,
  0xe9, 0x6c, 0xfd, 0xda, 0x77, 0x2d, 0xd4, 0xce, 0x53, 0xcd, 0xa5, 0xfa,
  0x40, 0x12, 0xa2, 0xbc, 0xdc, 0x2b, 0xdf, 0xd7, 0x15, 0x5a, 0x1d, 0x26,
  0x47, 0x5f, 0xc8, 0xe4, 0xc7, 0x3c, 0x26, 0x23, 0x26, 0x00, 0x4f, 0xab,
  0xf5, 0xbc, 0x3d, 0xae, 0x16, 0x4e, 0x6f, 0xdd, 0x2b, 0xe7, 0x05, 0xd2,
  0xc1, 0x18, 0x6d, 0xea, 0x10, 0x36, 0x7f, 0xf2, 0x38, 0x61, 0x9c, 0x57,
  0x6b, 0x40, 0xc1, 0xef, 0x56, 0xe7, 0x06, 0xca, 0x2f, 0x54, 0x66, 0xe5,
  0x47, 0x8e, 0xc9, 0x6e, 0x92, 0xaa, 0x1c, 0x78, 0x29, 0xf1, 0x39, 0xe6,
  0x47, 0x0f, 0x61, 0x81, 0x66, 0xf5, 0x93, 0x47, 0x93, 0xe5, 0xb0, 0x1e,
  0x37, 0x2f, 0x29, 0x3e, 0xc3, 0x19, 0x9a, 0x61, 0x01, 0x92, 0xf8, 0x4b,
  0x6d, 0x2b, 0x65, 0x3e, 0xdc, 0xc7, 0x25, 0x08, 0xf1, 0xb6, 0x0f, 0x9f,
  0xc7, 0xd2, 0x7f, 0x38, 0x4c, 0x95, 0x6b, 0xf1, 0xa9, 0x7f, 0x8e, 0x24,
  0x15, 0xc6, 0xd9, 0x14, 0x0b, 0x72, 0x62, 0xce, 0x76, 0x21, 0x9a, 0x18,
  0x74, 0x93, 0xb3, 0xd6, 0x44, 0x25, 0xd0, 0xd0, 0x35, 0x65, 0x5c, 0xa7,
  0xdc, 0xc6, 0xa9, 0xc4, 0xe1, 0x61, 0x0f, 0x9a, 0xb9, 0xb0, 0x97, 0x9f,
  0xd3, 0xda, 0xaa, 0x91, 0xd4, 0x27, 0x59, 0xc4, 0x5c, 0x1b, 0x38, 0xed,
  0xc2, 0x97, 0x5a, 0xf9, 0x8f, 0x17, 0x4f, 0x53, 0x86, 0xa4, 0x81, 0x12,
  0xfd, 0x2f, 0xc6, 0xf8, 0xac, 0x50, 0x83, 0x32, 0xe3, 0xc2, 0x4e, 0xdf,
  0xa6, 0x94, 0x73, 0x45, 0x38, 0xee, 0xe3, 0x1b, 0xc2, 0x29, 0xe3, 0x8f,
  0x83, 0xf9, 0xa7, 0x58, 0x38, 0x7d, 0xf0, 0x5e, 0x90, 0x2e, 0xb1, 0x44,
  0xd5, 0xae, 0xb8, 0xad, 0xad, 0x7f, 0x25, 0x37, 0x21, 0x96, 0xb0, 0xb5,
  0xe4, 0xfa, 0xac, 0x00, 0x45, 0xd0, 0x6c, 0xa5, 0xd9, 0xfb, 0x14, 0xe4,
  0xaa, 0x14, 0x4a, 0x11, 0x24, 0xa8, 0x48, 0x98, 0x95, 0x62, 0x4c, 0xd8,
  0xf5, 0x2f, 0x3d, 0x21, 0x3b, 0x6b, 0x41, 0x02, 0x43, 0xd4, 0x92, 0xce,
  0xa7, 0x5b, 0x00, 0x7a, 0x2c, 0xc8, 0x6f, 0xf1, 0x03, 0x7a, 0x4e, 0xb2,
  0x7f, 0x33, 0x6d, 0x88, 0xab, 0x09, 0x92, 0x5f, 0xf9, 0x58, 0x57, 0x4f,
  0x32, 0xe4, 0x9f, 0x53, 0xf0, 0xa5, 0xb1, 0x4b, 0x0e, 0xf9, 0xf3, 0xc7,
  0x0f, 0x1f, 0xc7, 0x40, 0x5c, 0xe8, 0xea, 0x15, 0xe9, 0x32, 0xe3, 0xc6,
  0x42, 0x57, 0x51, 0xe5, 0x7f, 0xd2, 0xf3, 0xe6, 0x0a, 0xd3, 0xb7, 0xb6,
  0xff, 0x56, 0xb6, 0x32, 0xcf, 0x37, 0x3a, 0xd2, 0xf3, 0xdc, 0xfa, 0x42,
  0x06, 0x1f, 0xad, 0x3f, 0xf7, 0x33, 0x42, 0x42, 0xb2, 0x46, 0x67, 0x88,
  0xad, 0x01, 0xb8, 0x0c, 0x55, 0x74, 0xe8, 0x5b, 0x41, 0xbe, 0xab, 0xcd,
  0x4f, 0x5b, 0xaf, 0x52, 0x8c, 0xae, 0x6b, 0x7f, 0x9c, 0x46, 0xa6, 0x65,
  0xaf, 0x5d, 0x50, 0xfa, 0x10, 0xbf, 0x9a, 0x94, 0x44, 0xb4, 0xf3, 0xf0,
  0x48, 0x90, 0x58, 0xd0, 0x1f, 0xd5, 0x9f, 0xfb, 0xcf, 0xb4, 0x1a, 0xe2,
  0x7f, 0x01, 0xaa, 0xab, 0x24, 0xc4, 0x3e, 0x50, 0xeb, 0xd4, 0x4c, 0x20,
  0x0b, 0xed, 0xc7, 0xcf, 0x05, 0x26, 0x22, 0x68, 0xf6, 0x50, 0x87, 0x5e,
  0x53, 0xfc, 0xdb, 0xa7, 0xed, 0x26, 0x6e, 0x0b, 0x2c, 0x2c, 0x94, 0x61,
  0xe2, 0xdd, 0xfd, 0xf8, 0xa6, 0x4a, 0xdd, 0xf6, 0x94, 0x3b, 0x41, 0xd1,
  0x4b, 0x94, 0xed, 0x97, 0xe2, 0x2c, 0x45, 0xa9, 0xa2, 0x3e, 0xf8, 0x27,
  0x4a, 0xc0, 0x36, 0x92, 0x7f, 0xab, 0x1a, 0x55, 0x5c, 0x2c, 0xb7, 0xdc,
  0x1a, 0x2e, 0xe1, 0x40, 0x32, 0xa8, 0x62, 0xbd, 0x93, 0x64, 0xdc, 0x56,
  0x13, 0x69, 0xa3, 0x03, 0x48, 0xc8, 0xa9, 0x53, 0x4a, 0xc0, 0x20, 0x99,
  0x91, 0x52, 0x31, 0x67, 0x6d, 0x53, 0x0f, 0xb2, 0x54, 0xc6, 0x2f, 0x7f,
  0xd7, 0x22, 0xf1, 0x2f, 0xc7, 0x19, 0xe5, 0xd1, 0x2e, 0x6e, 0xdd, 0x75,
  0xac, 0xe8, 0x04, 0x2e, 0x7a, 0x79, 0xe8, 0xff, 0x15, 0xdf, 0x27, 0x17,
  0xe0, 0x08, 0x1b, 0x94, 0xcd, 0xe7, 0xd4, 0xa9, 0x41, 0xf0, 0xb5, 0xe4,
  0x3d, 0x5a, 0xbc, 0x62, 0x1e, 0xc0, 0xb0, 0xad, 0x44, 0xbe, 0x89, 0xd2,
  0xd5, 0x55, 0xc1, 0x1a, 0x87, 0x73, 0x67, 0x03, 0xe6, 0xaa, 0x16, 0xdb,
  0x6b, 0xc7, 0xf2, 0x0e, 0xb2, 0x39, 0x81, 0xfc, 0xb1, 0xbf, 0xa0, 0xc0,
  0x31, 0x46, 0x22, 0xf9, 0xa5, 0x11, 0x0b, 0x33, 0x4d, 0x26, 0x90, 0x8a,
  0x7f, 0x5f, 0x3e, 0xf8, 0xe8, 0xac, 0x68, 0xad, 0x03, 0x2b, 0x03, 0xfb,
  0x3e, 0xc7, 0xfd, 0x1e, 0x1e, 0xd4, 0x0c, 0x0f, 0xa4, 0xd0, 0x42, 0xe1,
  0xe9, 0xa1, 0xb0, 0xcb, 0x3c, 0x5f, 0xdc, 0xdd, 0x26, 0x7f, 0x44, 0xe8,
  0xcd, 0xfc, 0x58, 0xb3, 0xc0, 0xe1, 0x39, 0xc7, 0xaf, 0xc2, 0x50, 0x21,
  0x22, 0x21, 0xdc, 0x1f, 0xe0, 0xe0, 0x5c, 0x0e, 0x21, 0x4a, 0x02, 0xd2,
  0xf0, 0x33, 0x2c, 0x37, 0x64, 0x29, 0x20, 0x5c, 0x2c, 0x61, 0xef, 0xc2,
  0xf9, 0x60, 0xb6, 0x2f, 0x02, 0x4a, 0x27, 0x00, 0x26, 0xda, 0xff, 0xff,
  0x04, 0x00, 0x00, 0x00, 0xc0, 0x00, 0x00, 0x00, 0xbe, 0x07, 0x00, 0x00,
  0xce, 0xfa, 0xff, 0xff, 0xc8, 0x12, 0x00, 0x00, 0xf8, 0x0b, 0x00, 0x00,
  0x9d, 0x0f, 0x00, 0x00, 0xda, 0x00, 0x00, 0x00, 0xbc, 0x0e, 0x00, 0x00,
  0x9d, 0x0f, 0x00, 0x00, 0xfe, 0xef, 0xff, 0xff, 0xc9, 0xf8, 0xff, 0xff,
  0xf4, 0xfb, 0xff, 0xff, 0xdd, 0x2c, 0x00, 0x00, 0x8c, 0x0f, 0x00, 0x00,
  0x34, 0x11, 0x00, 0x00, 0x87, 0x22, 0x00, 0x00, 0x56, 0xec, 0xff, 0xff,
  0xcf, 0xf3, 0xff, 0xff, 0xb1, 0x32, 0x00, 0x00, 0x56, 0x0d, 0x00, 0x00,
  0x6e, 0x17, 0x00, 0x00, 0xfc, 0x13, 0x00, 0x00, 0xd4, 0x7a, 0x00, 0x00,
  0x4c, 0x57, 0x00, 0x00, 0xb8, 0x02, 0x00, 0x00, 0x9e, 0xf7, 0xff, 0xff,
  0x40, 0x08, 0x00, 0x00, 0x76, 0xff, 0xff, 0xff, 0x45, 0xfb, 0xff, 0xff,
  0x68, 0x0c, 0x00, 0x00, 0xf8, 0x09, 0x00, 0x00, 0x75, 0x13, 0x00, 0x00,
  0xaa, 0x2a, 0x00, 0x00, 0x22, 0xfc, 0xff, 0xff, 0xfc, 0x01, 0x00, 0x00,
  0x38, 0x39, 0x00, 0x00, 0x71, 0x12, 0x00, 0x00, 0xfc, 0x2d, 0x00, 0x00,
  0x8c, 0x0a, 0x00, 0x00, 0x33, 0x06, 0x00, 0x00, 0xc0, 0xf7, 0xff, 0xff,
  0x85, 0x10, 0x00, 0x00, 0x68, 0xf7, 0xff, 0xff, 0xe8, 0x36, 0x00, 0x00,
  0x7e, 0xfe, 0xff, 0xff, 0xac, 0x01, 0x00, 0x00, 0x6e, 0x09, 0x00, 0x00,
  0x92, 0xf6, 0xff, 0xff, 0x73, 0x1d, 0x00, 0x00, 0xf2, 0xda, 0xff, 0xff,
  0x04, 0x00, 0x00, 0x00, 0x80, 0x01, 0x00, 0x00, 0xf1, 0x09, 0x7f, 0xeb,
  0xff, 0x33, 0xf8, 0xaa, 0x5b, 0xce, 0x32, 0xc0, 0xeb, 0xbb, 0x7f, 0x0e,
  0x42, 0x3a, 0x54, 0xab, 0xbd, 0x1d, 0x7f, 0xea, 0x05, 0x21, 0x05, 0xf2,
  0x0d, 0xc3, 0x7f, 0x09, 0x7f, 0xda, 0xc3, 0xe0, 0x9e, 0xc1, 0xeb, 0x44,
  0x22, 0x54, 0x7f, 0x03, 0x15, 0xd2, 0x20, 0xda, 0x73, 0x75, 0xee, 0x7f,
  0xad, 0x1e, 0x12, 0x5b, 0xea, 0x01, 0xf8, 0x2a, 0x1e, 0x83, 0x81, 0xdf,
  0x75, 0x4a, 0xd1, 0x54, 0xc0, 0x19, 0x81, 0xc2, 0x7f, 0xe7, 0xd4, 0x2d,
  0xff, 0xd2, 0x1c, 0xa8, 0x4d, 0x1d, 0xf4, 0x13, 0xde, 0x7f, 0x29, 0x06,
  0x72, 0xdf, 0xff, 0x81, 0x67, 0xc7, 0xbc, 0x4d, 0xbe, 0x66, 0x58, 0xd0,
  0x15, 0x4f, 0x9e, 0x7f, 0x7f, 0x07, 0xab, 0x12, 0x18, 0xb2, 0x21, 0x9e,
  0x6f, 0x22, 0xfb, 0xf1, 0x81, 0x19, 0xb7, 0xed, 0x1f, 0x19, 0xa1, 0xee,
  0x81, 0xcf, 0x7e, 0x53, 0x11, 0xe4, 0x60, 0xf1, 0x7f, 0xcc, 0xaf, 0xee,
  0x1b, 0xf4, 0x59, 0xfb, 0x7f, 0xcd, 0xb9, 0xf9, 0x74, 0xe1, 0x7f, 0x3d,
  0xd9, 0x1d, 0xdb, 0x05, 0x49, 0x35, 0x3b, 0xc0, 0xd5, 0x81, 0x12, 0xd0,
  0x26, 0xd3, 0x41, 0x7f, 0x10, 0xc2, 0xa6, 0x5a, 0x60, 0xf7, 0xb5, 0x81,
  0x32, 0xc3, 0x07, 0x74, 0xcc, 0x81, 0xd4, 0xc6, 0x36, 0xec, 0x62, 0xba,
  0xf9, 0x16, 0x1a, 0xd7, 0x9b, 0x81, 0x0a, 0xe2, 0x7f, 0x0a, 0x39, 0x35,
  0xf5, 0xe4, 0xa1, 0x46, 0x77, 0x37, 0xe0, 0xa8, 0xf0, 0xe5, 0xf5, 0x7f,
  0xc2, 0xe3, 0x0a, 0x81, 0x69, 0xf6, 0xc9, 0xc1, 0x65, 0x7f, 0xf7, 0xd3,
  0x06, 0x38, 0x1f, 0x01, 0x1e, 0x77, 0xfe, 0x01, 0x0a, 0xcb, 0xe6, 0x7f,
  0x7f, 0x0c, 0x5b, 0x61, 0x3d, 0xd5, 0x8c, 0x37, 0x7f, 0x9b, 0xb0, 0x6a,
  0x31, 0x03, 0xbd, 0x51, 0x6b, 0xb4, 0x16, 0x40, 0xa2, 0x90, 0x81, 0x3b,
  0xbe, 0xbb, 0x0c, 0x81, 0x55, 0xe6, 0xd0, 0xc2, 0x1d, 0x08, 0x15, 0x1e,
  0x1a, 0xc1, 0x7f, 0x20, 0xc6, 0x67, 0x7f, 0xb7, 0x73, 0xa8, 0xb0, 0x78,
  0xb3, 0x08, 0x19, 0x67, 0x05, 0x7f, 0x1f, 0xe3, 0x62, 0x26, 0xe2, 0x81,
  0x29, 0xfa, 0x18, 0x32, 0x32, 0x32, 0xf1, 0x0b, 0xb5, 0x7f, 0x40, 0x29,
  0xe7, 0xb8, 0x18, 0x67, 0x15, 0x30, 0x00, 0x7f, 0x0e, 0xff, 0x81, 0x2c,
  0xfc, 0xdd, 0xdb, 0x4a, 0x48, 0x19, 0x9e, 0x0c, 0xc7, 0x33, 0xcc, 0x7f,
  0x23, 0x00, 0x0e, 0xd4, 0x98, 0x81, 0xf8, 0xfd, 0xaf, 0x48, 0x9c, 0x7a,
  0xed, 0x5b, 0xe5, 0x81, 0xfd, 0x00, 0xe2, 0x81, 0xee, 0x02, 0xf2, 0xbe,
  0x48, 0x24, 0x16, 0x52, 0x13, 0x7f, 0xce, 0x2f, 0x05, 0x50, 0xe7, 0x16,
  0x7f, 0xe1, 0xb6, 0xf0, 0x46, 0x9e, 0xff, 0x7f, 0x5c, 0x1a, 0xc2, 0x67,
  0xe9, 0xa8, 0x31, 0xf9, 0x7f, 0x18, 0x35, 0x1d, 0x7e, 0xdc, 0xff, 0xff,
  0x04, 0x00, 0x00, 0x00, 0x20, 0x00, 0x00, 0x00, 0xab, 0xcd, 0xff, 0xff,
  0x18, 0xf1, 0xff, 0xff, 0xe5, 0xfd, 0xff, 0xff, 0xaf, 0xcf, 0xff, 0xff,
  0xa2, 0x09, 0x00, 0x00, 0x2f, 0xfb, 0xff, 0xff, 0x91, 0x32, 0x00, 0x00,
  0xdc, 0x33, 0x00, 0x00, 0xaa, 0xdc, 0xff, 0xff, 0x04, 0x00, 0x00, 0x00,
  0x80, 0x01, 0x00, 0x00, 0x7f, 0xea, 0x1b, 0xe8, 0x14, 0x37, 0x05, 0x23,
  0x76, 0xa8, 0x35, 0x0f, 0xda, 0x3e, 0x13, 0xd5, 0x12, 0xe1, 0xe4, 0xef,
  0x08, 0xc3, 0x08, 0xe8, 0xc5, 0xdc, 0xd0, 0xd5, 0xe0, 0x4a, 0xe4, 0x25,
  0x19, 0xd6, 0x0b, 0xdd, 0x43, 0xbc, 0xc9, 0x0c, 0x16, 0xed, 0xb2, 0x00,
  0x39, 0xe1, 0x3e, 0xd5, 0x2d, 0xff, 0xfb, 0x44, 0x2f, 0x3a, 0x10, 0x1f,
  0x49, 0xa6, 0xf9, 0x07, 0x2f, 0x12, 0xdb, 0xf5, 0xe0, 0xd4, 0xb6, 0xf7,
  0x05, 0xd3, 0x31, 0x4d, 0xfb, 0xc5, 0xf5, 0x25, 0xe7, 0x33, 0xc7, 0x7f,
  0xe7, 0x2c, 0xe8, 0xe3, 0xc4, 0xef, 0xf9, 0xeb, 0xc9, 0xed, 0xd7, 0x2a,
  0x14, 0xf9, 0x0a, 0xa4, 0xe2, 0xe1, 0xae, 0x1a, 0xb4, 0xde, 0xfa, 0x34,
  0x8c, 0xb3, 0xaf, 0xda, 0xd5, 0x36, 0x83, 0xf8, 0x45, 0xae, 0x20, 0xe9,
  0x7f, 0x59, 0xe8, 0x07, 0x30, 0x62, 0x18, 0xa7, 0xcf, 0x07, 0x42, 0x08,
  0xe8, 0x29, 0x4d, 0xc2, 0x43, 0xfd, 0x50, 0x58, 0xdc, 0x63, 0x33, 0xfb,
  0xb3, 0x46, 0xd1, 0x4d, 0xfe, 0xf1, 0xfa, 0x29, 0xe1, 0x04, 0xf6, 0x2d,
  0x4b, 0x5a, 0x81, 0xe1, 0x19, 0xe9, 0xe5, 0x50, 0xcc, 0xf2, 0xf8, 0x2b,
  0xeb, 0x07, 0x45, 0x13, 0x03, 0x10, 0xc6, 0x32, 0xdf, 0x17, 0xda, 0xe5,
  0x10, 0x1c, 0x20, 0x0e, 0x31, 0xfa, 0x26, 0x02, 0xc6, 0x51, 0x41, 0x15,
  0x1d, 0xf3, 0xe2, 0xd7, 0xeb, 0xbf, 0x0c, 0xc9, 0x05, 0x5c, 0xcd, 0xbd,
  0xf9, 0xd6, 0x4e, 0x26, 0xc0, 0xed, 0xef, 0x18, 0x43, 0x10, 0xed, 0x26,
  0xb7, 0xe3, 0x73, 0xeb, 0x9d, 0xe8, 0x00, 0x13, 0x13, 0xf0, 0xf7, 0x45,
  0xce, 0x2b, 0xec, 0x38, 0xdf, 0x27, 0xf6, 0x0f, 0xe2, 0x25, 0xe2, 0x2d,
  0x7f, 0x3b, 0xf4, 0x09, 0xbb, 0xba, 0x3b, 0x81, 0xeb, 0x16, 0xda, 0xc6,
  0xf9, 0x42, 0xcb, 0x41, 0xb6, 0x16, 0x2d, 0x05, 0x4a, 0x33, 0x40, 0x0d,
  0x1d, 0x04, 0xf3, 0xc3, 0x2e, 0xba, 0x04, 0xd5, 0xf2, 0xd9, 0x22, 0xad,
  0xf9, 0xd8, 0x3a, 0xff, 0xe8, 0x1c, 0x27, 0x39, 0x57, 0x0e, 0x14, 0xe2,
  0xf8, 0xf2, 0xdf, 0x20, 0xbd, 0xba, 0x2f, 0x27, 0xc7, 0xc1, 0xf7, 0xc4,
  0xac, 0x0e, 0x81, 0x27, 0x17, 0xcc, 0x35, 0x10, 0xd6, 0x15, 0x02, 0x7c,
  0xee, 0x00, 0x4b, 0x35, 0xc2, 0xf4, 0x31, 0x0c, 0x15, 0xd4, 0xe3, 0xb8,
  0xdd, 0x3e, 0x3c, 0xa6, 0xe1, 0x48, 0x35, 0xe3, 0xb9, 0x38, 0x47, 0xbd,
  0xff, 0xd1, 0xe3, 0x06, 0x14, 0x02, 0x12, 0xf7, 0x02, 0x17, 0xd1, 0xd2,
  0x81, 0xdc, 0x62, 0x1a, 0x0c, 0xe1, 0x21, 0x08, 0x15, 0x2a, 0x03, 0xe6,
  0xcf, 0x0b, 0xf0, 0xd4, 0x22, 0x07, 0xd1, 0x0a, 0xf6, 0xe5, 0xe5, 0xd0,
  0x97, 0xc9, 0xda, 0x01, 0x3b, 0xde, 0xe4, 0x03, 0x37, 0x05, 0x2d, 0xed,
  0x11, 0xd4, 0x2d, 0x10, 0x36, 0xde, 0xff, 0xff, 0x04, 0x00, 0x00, 0x00,
  0xc0, 0x00, 0x00, 0x00, 0xe7, 0xf6, 0xff, 0xff, 0xd9, 0x0a, 0x00, 0x00,
  0xce, 0x31, 0x00, 0x00, 0x3d, 0x05, 0x00, 0x00, 0x07, 0xf7, 0xff, 0xff,
  0xb7, 0xdd, 0xff, 0xff, 0xd7, 0xfc, 0xff, 0xff, 0x0b, 0x34, 0x00, 0x00,
  0xa1, 0x17, 0x00, 0x00, 0xa6, 0xef, 0xff, 0xff, 0x92, 0xee, 0xff, 0xff,
  0xa3, 0xe0, 0xff, 0xff, 0x36, 0xfd, 0xff, 0xff, 0x4c, 0x49, 0x00, 0x00,
  0xda, 0x3d, 0x00, 0x00, 0x9d, 0xfb, 0xff, 0xff, 0x08, 0x16, 0x00, 0x00,
  0x25, 0xe6, 0xff, 0xff, 0x12, 0x1a, 0x00, 0x00, 0x24, 0xf9, 0xff, 0xff,
  0x66, 0x45, 0x00, 0x00, 0x5e, 0xf2, 0xff, 0xff, 0x46, 0xf5, 0xff, 0xff,
  0x23, 0xfb, 0xff, 0xff, 0x7f, 0x10, 0x00, 0x00, 0x22, 0xf3, 0xff, 0xff,
  0x20, 0xff, 0xff, 0xff, 0x6e, 0xf3, 0xff, 0xff, 0x7e, 0x2a, 0x00, 0x00,
  0x05, 0x9e, 0xff, 0xff, 0x1c, 0xf5, 0xff, 0xff, 0xc8, 0xfd, 0xff, 0xff,
  0x0c, 0xee, 0xff, 0xff, 0x14, 0xf8, 0xff, 0xff, 0x16, 0xf7, 0xff, 0xff,
  0xaf, 0xf8, 0xff, 0xff, 0x0f, 0x2c, 0x00, 0x00, 0x9b, 0xe3, 0xff, 0xff,
  0xdf, 0xfe, 0xff, 0xff, 0x5e, 0xc2, 0xff, 0xff, 0x7b, 0xf1, 0xff, 0xff,
  0xdf, 0x1c, 0x00, 0x00, 0xc5, 0xed, 0xff, 0xff, 0x8d, 0xf9, 0xff, 0xff,
  0x94, 0x09, 0x00, 0x00, 0x60, 0x02, 0x00, 0x00, 0xfa, 0x23, 0x00, 0x00,
  0x7f, 0xf1, 0xff, 0xff, 0x02, 0xdf, 0xff, 0xff, 0x04, 0x00, 0x00, 0x00,
  0xb0, 0x01, 0x00, 0x00, 0x4c, 0x49, 0xd3, 0x32, 0x03, 0xff, 0xc1, 0x0f,
  0x26, 0xb8, 0x22, 0x03, 0x08, 0x8e, 0xda, 0x29, 0x77, 0x26, 0xae, 0x08,
  0x49, 0x06, 0xee, 0xf2, 0x43, 0x13, 0x16, 0x01, 0xb8, 0x0e, 0xf4, 0xcb,
  0x7f, 0x0c, 0x72, 0x23, 0xde, 0x22, 0x7f, 0x2c, 0xba, 0x52, 0x9a, 0xd6,
  0x21, 0x9f, 0xe1, 0xfb, 0x5e, 0x7f, 0x96, 0x55, 0x18, 0x52, 0xaa, 0x81,
  0x35, 0x31, 0x7f, 0x1b, 0xec, 0xfa, 0xeb, 0x00, 0xc2, 0x7f, 0xa1, 0x2b,
  0x2f, 0x7f, 0x2d, 0xe7, 0x17, 0x01, 0x0d, 0x7f, 0x81, 0x37, 0xe1, 0x81,
  0x08, 0xe0, 0x22, 0x54, 0xb0, 0x7f, 0x74, 0x28, 0x81, 0xb4, 0x4a, 0x01,
  0x10, 0x0d, 0x81, 0x5e, 0x35, 0x2e, 0xf3, 0x20, 0x09, 0xf0, 0xd6, 0x16,
  0x20, 0xa1, 0x21, 0x0e, 0x06, 0xa3, 0xde, 0xf0, 0x6f, 0xec, 0xd2, 0xf3,
  0x41, 0x0e, 0xe9, 0x2e, 0x2f, 0x33, 0x10, 0xf9, 0xf8, 0x09, 0xed, 0xe3,
  0x63, 0x0e, 0x5c, 0x20, 0xf5, 0x0f, 0x5c, 0x05, 0xdb, 0x54, 0x34, 0x46,
  0x22, 0x4e, 0x1a, 0xeb, 0xef, 0xc4, 0x81, 0x54, 0x18, 0x3f, 0x44, 0xe4,
  0x24, 0x3c, 0xd2, 0x7f, 0x7f, 0x00, 0xdb, 0xc0, 0xe5, 0x57, 0x4a, 0xef,
  0x91, 0x0c, 0x1d, 0x99, 0x1c, 0x33, 0x18, 0x0e, 0xfa, 0x4e, 0x18, 0x33,
  0x3b, 0x7f, 0x19, 0x2a, 0xae, 0x00, 0xd6, 0x63, 0x5a, 0x09, 0x53, 0x96,
  0x0d, 0x92, 0xfb, 0x7f, 0x26, 0x93, 0xd6, 0x81, 0x7f, 0x0e, 0x7f, 0xa6,
  0x81, 0x7f, 0x01, 0x46, 0x93, 0x7f, 0x7f, 0xf7, 0x81, 0x41, 0x0b, 0x7f,
  0x1a, 0xf6, 0x7f, 0xf8, 0x81, 0x7f, 0x22, 0xb6, 0x99, 0x2b, 0x81, 0x63,
  0x5f, 0xa7, 0x14, 0x7f, 0x7f, 0x36, 0xe9, 0x7f, 0x75, 0xb9, 0xe2, 0xff,
  0x7c, 0xb4, 0xfe, 0x2b, 0xf0, 0xca, 0x81, 0x34, 0xf5, 0x7f, 0x36, 0xed,
  0x22, 0x2b, 0xd8, 0x50, 0xef, 0x11, 0xd7, 0xf3, 0xbc, 0x57, 0x7f, 0xd1,
  0x81, 0x0f, 0xc4, 0x7f, 0x07, 0x13, 0x1a, 0x1e, 0x33, 0x40, 0x29, 0x28,
  0xfd, 0xfb, 0xdc, 0x99, 0xd3, 0xf3, 0xfc, 0x1a, 0x3b, 0x4f, 0xf3, 0x7f,
  0xf5, 0x69, 0xe6, 0x5d, 0xe2, 0xdd, 0x1a, 0x13, 0xf7, 0x12, 0xf3, 0x05,
  0x20, 0xe8, 0x05, 0x13, 0x1c, 0xa4, 0xd3, 0x21, 0x6d, 0x0b, 0x07, 0x03,
  0xbf, 0x22, 0x02, 0xfa, 0x18, 0xec, 0xf9, 0xfd, 0xf9, 0x1d, 0x27, 0x08,
  0x17, 0x0a, 0x7f, 0xf6, 0xf1, 0x45, 0x4c, 0x36, 0x14, 0x59, 0x7d, 0xeb,
  0xcc, 0x81, 0xf6, 0xeb, 0x81, 0xf1, 0xa9, 0x29, 0x85, 0x04, 0xbb, 0xf6,
  0x1c, 0x7a, 0xb3, 0x47, 0xe8, 0xdc, 0xe8, 0x7f, 0xa6, 0x2c, 0x92, 0xda,
  0xc5, 0x25, 0x0a, 0xe0, 0xf2, 0x31, 0x81, 0xe4, 0xa2, 0x7f, 0x3b, 0x19,
  0x1e, 0xe6, 0x20, 0x24, 0xe3, 0x3e, 0xcf, 0x37, 0xc9, 0x81, 0x81, 0xdf,
  0x81, 0x36, 0x91, 0x62, 0xe7, 0xda, 0x11, 0x0e, 0x0d, 0x01, 0xf7, 0x03,
  0x17, 0xc6, 0xf8, 0xf8, 0xf4, 0xaf, 0xdf, 0x05, 0x71, 0xe0, 0x5c, 0x0e,
  0xbb, 0x04, 0x0a, 0x21, 0x11, 0xf2, 0xfa, 0xf5, 0x05, 0x11, 0x23, 0x09,
  0x22, 0x07, 0x56, 0x0f, 0xfb, 0x3e, 0x4e, 0xff, 0x17, 0x5b, 0xc8, 0x34,
  0xdf, 0x58, 0xf6, 0xcf, 0xbe, 0xe0, 0xff, 0xff, 0x04, 0x00, 0x00, 0x00,
  0xc0, 0x00, 0x00, 0x00, 0xc4, 0x96, 0x00, 0x00, 0xce, 0x20, 0x00, 0x00,
  0xbc, 0x05, 0x00, 0x00, 0x6d, 0x05, 0x00, 0x00, 0xe2, 0x1a, 0x00, 0x00,
  0x4a, 0x0c, 0x00, 0x00, 0xa9, 0x16, 0x00, 0x00, 0xc5, 0x14, 0x00, 0x00,
  0xb5, 0x10, 0x00, 0x00, 0xf2, 0xe8, 0xff, 0xff, 0x21, 0x37, 0x00, 0x00,
  0xe8, 0x04, 0x00, 0x00, 0xcd, 0x2b, 0x00, 0x00, 0xb1, 0x0a, 0x00, 0x00,
  0xd6, 0x14, 0x00, 0x00, 0xe5, 0x05, 0x00, 0x00, 0x62, 0x26, 0x00, 0x00,
  0xae, 0xfc, 0xff, 0xff, 0x54, 0x2a, 0x00, 0x00, 0x7d, 0xff, 0xff, 0xff,
  0x9e, 0x11, 0x00, 0x00, 0x4e, 0xfd, 0xff, 0xff, 0x8b, 0x0c, 0x00, 0x00,
  0x77, 0x15, 0x00, 0x00, 0xb0, 0x06, 0x00, 0x00, 0x5b, 0xe9, 0xff, 0xff,
  0x11, 0x0a, 0x00, 0x00, 0xa6, 0x38, 0x00, 0x00, 0xee, 0x03, 0x00, 0x00,
  0x62, 0x2a, 0x00, 0x00, 0x91, 0x09, 0x00, 0x00, 0x19, 0x27, 0x00, 0x00,
  0xbd, 0x02, 0x00, 0x00, 0x61, 0x13, 0x00, 0x00, 0x95, 0xfe, 0xff, 0xff,
  0x02, 0xf9, 0xff, 0xff, 0x40, 0x0c, 0x00, 0x00, 0x75, 0x0d, 0x00, 0x00,
  0xc3, 0x00, 0x00, 0x00, 0x37, 0x09, 0x00, 0x00, 0x7a, 0x23, 0x00, 0x00,
  0x6f, 0xfc, 0xff, 0xff, 0x8f, 0x47, 0x00, 0x00, 0xd6, 0x0b, 0x00, 0x00,
  0x67, 0x03, 0x00, 0x00, 0xb1, 0x1d, 0x00, 0x00, 0x8d, 0x11, 0x00, 0x00,
  0x8b, 0xf6, 0xff, 0xff, 0x8a, 0xe1, 0xff, 0xff, 0x04, 0x00, 0x00, 0x00,
  0x80, 0x01, 0x00, 0x00, 0x81, 0x1d, 0xec, 0xed, 0x2d, 0x1b, 0x04, 0xd7,
  0xf3, 0xc9, 0xde, 0xeb, 0xd0, 0x81, 0x14, 0x1e, 0xad, 0x52, 0x08, 0xc5,
  0xcd, 0x36, 0xb4, 0x7f, 0x38, 0x29, 0x30, 0xec, 0xcb, 0x81, 0x32, 0xf0,
  0x0d, 0x37, 0x81, 0x17, 0x85, 0x5f, 0x23, 0x21, 0xe7, 0x2d, 0x19, 0xe2,
  0xa9, 0x81, 0xcb, 0xfd, 0xc8, 0x7f, 0x62, 0xdc, 0xb9, 0xe7, 0x0c, 0xd2,
  0xf5, 0xfa, 0x2a, 0x3d, 0x06, 0x81, 0xf7, 0x34, 0x7f, 0x13, 0xac, 0x4f,
  0xa8, 0xb8, 0x9e, 0xfe, 0x5f, 0xdf, 0xbb, 0xc1, 0x00, 0xe4, 0xdc, 0x7f,
  0x99, 0xf7, 0x11, 0x7f, 0x03, 0x45, 0x1a, 0x9e, 0x1f, 0x0e, 0x2e, 0xf0,
  0x06, 0x69, 0x7f, 0x59, 0xac, 0xa1, 0xcf, 0xa9, 0x7f, 0xd8, 0xf5, 0x31,
  0xd8, 0xf3, 0xf8, 0x2d, 0x17, 0x81, 0x22, 0x43, 0x54, 0x61, 0x7f, 0x10,
  0x4f, 0x87, 0x98, 0xd3, 0xd2, 0x3c, 0x7f, 0x30, 0xfe, 0x19, 0x25, 0xb3,
  0xa6, 0xdc, 0x27, 0xb3, 0x7f, 0x0f, 0xc2, 0xf9, 0x28, 0xce, 0xd1, 0x02,
  0xf5, 0x7f, 0xe2, 0x2a, 0xf0, 0x7f, 0x49, 0xd6, 0xb4, 0x2e, 0x58, 0x8f,
  0x12, 0x69, 0x53, 0x7f, 0xe8, 0x1a, 0x38, 0x14, 0x11, 0x11, 0x46, 0x81,
  0xb6, 0x08, 0x4e, 0xec, 0xa0, 0x58, 0x23, 0x88, 0x72, 0x42, 0x7f, 0x0b,
  0x49, 0xe5, 0xa3, 0x3f, 0x30, 0xd4, 0xbd, 0x7f, 0x1f, 0xa2, 0x81, 0xda,
  0x4a, 0xee, 0xba, 0x6d, 0x29, 0xf7, 0xad, 0x0e, 0xd1, 0x29, 0x81, 0x71,
  0xfb, 0xf2, 0x37, 0x01, 0x7f, 0xf6, 0xa9, 0xd6, 0x12, 0x73, 0x7f, 0xeb,
  0xe1, 0xec, 0x2f, 0xc8, 0xcf, 0x1d, 0x7f, 0xad, 0x0f, 0x08, 0x5d, 0x91,
  0x3f, 0xfd, 0x53, 0x7f, 0x41, 0xde, 0x26, 0x5d, 0x54, 0x4e, 0x63, 0x1b,
  0xbd, 0x1d, 0x81, 0x63, 0x2f, 0xf6, 0xa6, 0x34, 0x81, 0xe2, 0xd3, 0x31,
  0x1e, 0x7f, 0x54, 0xc8, 0xca, 0x2e, 0x52, 0xa2, 0x46, 0xf7, 0xed, 0x24,
  0x6d, 0x7f, 0x28, 0xdd, 0x1b, 0xe3, 0x81, 0x08, 0x0f, 0xf0, 0xd8, 0x47,
  0x13, 0xc5, 0x1b, 0x81, 0x00, 0x4e, 0xef, 0x08, 0xea, 0x1c, 0x5d, 0x04,
  0x11, 0x81, 0x01, 0xee, 0xf6, 0x12, 0xe5, 0x81, 0xf7, 0x0e, 0x05, 0xd5,
  0x39, 0xee, 0xef, 0xa5, 0xb2, 0x7f, 0xc0, 0xb1, 0x52, 0xc0, 0xeb, 0x62,
  0x44, 0x23, 0xdc, 0x7f, 0x7f, 0x57, 0x29, 0x4a, 0xfa, 0x69, 0xcc, 0xf6,
  0x21, 0x90, 0x81, 0xea, 0xff, 0x05, 0xd5, 0x61, 0xf9, 0xca, 0x81, 0x9a,
  0xfe, 0xb6, 0xd2, 0xe7, 0x38, 0x68, 0x5c, 0x7f, 0xaf, 0xd9, 0x23, 0x2b,
  0x79, 0xde, 0x9c, 0x81, 0xcf, 0xe7, 0x25, 0x48, 0xf8, 0x3d, 0x62, 0xaf,
  0xaf, 0xfe, 0x42, 0x81, 0x21, 0x0f, 0x81, 0x3c, 0xdd, 0x19, 0x0a, 0x40,
  0x28, 0xd0, 0xbf, 0x81, 0x16, 0xe8, 0xd9, 0x2a, 0x5e, 0x8c, 0x7f, 0xc1,
  0x4c, 0xe0, 0x0a, 0x0e, 0x16, 0xe3, 0xff, 0xff, 0x04, 0x00, 0x00, 0x00,
  0x20, 0x00, 0x00, 0x00, 0x23, 0xd3, 0xff, 0xff, 0x73, 0x84, 0xff, 0xff,
  0xae, 0x01, 0x00, 0x00, 0x86, 0x1d, 0x00, 0x00, 0xa8, 0xbc, 0xff, 0xff,
  0xd9, 0x06, 0x00, 0x00, 0xb1, 0x95, 0xff, 0xff, 0xcd, 0xfc, 0xff, 0xff,
  0x42, 0xe3, 0xff, 0xff, 0x04, 0x00, 0x00, 0x00, 0x80, 0x01, 0x00, 0x00,
  0x32, 0x2c, 0xad, 0x31, 0x0e, 0x1c, 0x9e, 0xdd, 0x09, 0xf0, 0xfd, 0xd5,
  0xec, 0xfe, 0x29, 0x01, 0x2f, 0xee, 0x2c, 0xe1, 0x19, 0xd7, 0x23, 0x06,
  0x0b, 0xe4, 0xed, 0x11, 0xef, 0x01, 0xe9, 0x02, 0x34, 0x18, 0x12, 0x0b,
  0x7f, 0x3f, 0x26, 0xe2, 0x0a, 0xf1, 0xfa, 0xe6, 0x51, 0x1c, 0x1a, 0xcc,
  0x3f, 0x0f, 0x07, 0xf9, 0x25, 0x5c, 0xec, 0xe2, 0x24, 0x42, 0xdc, 0xb2,
  0x65, 0xec, 0x08, 0x2b, 0x15, 0x19, 0x13, 0x9d, 0x7f, 0xe2, 0x1c, 0x34,
  0x26, 0x18, 0x2c, 0x14, 0x15, 0xc8, 0x34, 0x46, 0x3e, 0x63, 0x06, 0x69,
  0x3b, 0x18, 0x1d, 0x12, 0x57, 0x15, 0x26, 0x18, 0x0d, 0x2b, 0x75, 0xb6,
  0xed, 0x0e, 0x4f, 0x7f, 0xd0, 0x12, 0xfc, 0x3c, 0x1f, 0x46, 0x14, 0xb7,
  0xdd, 0x70, 0x1f, 0x2a, 0xa8, 0xa7, 0x55, 0x0e, 0xfd, 0x41, 0xbd, 0xa5,
  0xe8, 0xde, 0x17, 0xfd, 0x95, 0x14, 0x02, 0xfb, 0xdc, 0xe3, 0xb0, 0xd7,
  0x1a, 0x1e, 0x9d, 0xee, 0xeb, 0xc3, 0xe0, 0x1e, 0x4a, 0xb5, 0xe6, 0x15,
  0xe2, 0x32, 0xb4, 0xfb, 0x19, 0xae, 0x01, 0x43, 0x71, 0xac, 0xd1, 0x0e,
  0xf7, 0xf0, 0x09, 0x3a, 0x1b, 0x06, 0xed, 0xdc, 0xfb, 0x17, 0xa9, 0x23,
  0xe4, 0xe8, 0x24, 0xf1, 0x42, 0xdd, 0x2a, 0xc3, 0x29, 0xf0, 0xe0, 0xc9,
  0x81, 0xf4, 0xad, 0x0f, 0xe5, 0xc0, 0x22, 0xf6, 0xc1, 0x11, 0xfb, 0xd8,
  0x2f, 0xf6, 0x18, 0xeb, 0xc5, 0x3e, 0x23, 0x4a, 0x81, 0xc3, 0x36, 0x36,
  0x40, 0xcf, 0xc4, 0xc9, 0x58, 0x48, 0x43, 0xf0, 0x07, 0xad, 0xf8, 0x21,
  0xe6, 0x07, 0xd2, 0x8b, 0xcd, 0xca, 0x62, 0x29, 0x48, 0x03, 0x72, 0x5b,
  0x46, 0x41, 0x2b, 0x26, 0x0d, 0x22, 0xd7, 0xed, 0x58, 0x46, 0x4e, 0xd8,
  0x1b, 0x4f, 0x08, 0x57, 0x16, 0x15, 0xd4, 0xa7, 0x9b, 0x16, 0xf9, 0x06,
  0x19, 0x3b, 0x28, 0xc4, 0x51, 0x5e, 0xec, 0x26, 0xec, 0xc5, 0xf5, 0xba,
  0xa3, 0xb0, 0xda, 0x3d, 0xfc, 0x28, 0xe9, 0x22, 0xf8, 0xb9, 0x44, 0x08,
  0xd9, 0x7f, 0xd9, 0x95, 0xee, 0xd7, 0xf8, 0xde, 0xfc, 0xf1, 0xd4, 0x5d,
  0x73, 0x2b, 0x09, 0x7f, 0x9e, 0x1f, 0x14, 0x40, 0x18, 0xab, 0x4d, 0x66,
  0x61, 0xd2, 0xe8, 0xcd, 0x4a, 0x0f, 0xb2, 0x1c, 0x4c, 0xdf, 0xdf, 0xff,
  0x07, 0x41, 0xd6, 0xd9, 0x16, 0xd1, 0x45, 0x43, 0x0f, 0xda, 0x04, 0x65,
  0x6e, 0xb5, 0xf8, 0x0b, 0x9a, 0x4a, 0x93, 0x43, 0x41, 0x64, 0x76, 0xc2,
  0x14, 0x07, 0x7f, 0x24, 0xdc, 0x3f, 0xb1, 0x06, 0xde, 0x61, 0xfc, 0xf3,
  0x2f, 0x37, 0x0c, 0xf9, 0xce, 0xf4, 0xc1, 0xfd, 0xfc, 0x1d, 0x01, 0xdf,
  0xf9, 0x27, 0x2b, 0xed, 0x04, 0x03, 0x15, 0xf1, 0xac, 0xf3, 0x38, 0x1b,
  0x50, 0x02, 0x29, 0xf2, 0xf4, 0xe5, 0xe3, 0xd0, 0x00, 0xe3, 0x0a, 0x18,
  0xce, 0xe4, 0xff, 0xff, 0x04, 0x00, 0x00, 0x00, 0xc0, 0x00, 0x00, 0x00,
  0xba, 0x40, 0x00, 0x00, 0xb4, 0xaa, 0xff, 0xff, 0xe1, 0xfb, 0xff, 0xff,
  0xdc, 0x09, 0x00, 0x00, 0x69, 0x0a, 0x00, 0x00, 0xa2, 0x30, 0x00, 0x00,
  0xf0, 0x0e, 0x00, 0x00, 0xd5, 0xfb, 0xff, 0xff, 0x6c, 0xd0, 0xff, 0xff,
  0x3f, 0x0a, 0x00, 0x00, 0xe8, 0xf4, 0xff, 0xff, 0x60, 0xf0, 0xff, 0xff,
  0x99, 0xde, 0xff, 0xff, 0xfc, 0xc6, 0xff, 0xff, 0x20, 0x0f, 0x00, 0x00,
  0x62, 0x02, 0x00, 0x00, 0x18, 0xd7, 0xff, 0xff, 0xdb, 0x7c, 0x00, 0x00,
  0x0d, 0xfd, 0xff, 0xff, 0x55, 0xbc, 0xff, 0xff, 0xdb, 0x3d, 0x00, 0x00,
  0x23, 0x02, 0x00, 0x00, 0xfa, 0xfc, 0xff, 0xff, 0xb2, 0xfd, 0xff, 0xff,
  0xff, 0x00, 0x00, 0x00, 0xb3, 0xfc, 0xff, 0xff, 0xc3, 0xef, 0xff, 0xff,
  0x27, 0xf9, 0xff, 0xff, 0xf3, 0xf8, 0xff, 0xff, 0x12, 0x0a, 0x00, 0x00,
  0xcc, 0x01, 0x00, 0x00, 0xc6, 0x54, 0x00, 0x00, 0xbd, 0x51, 0x00, 0x00,
  0x1c, 0xfe, 0xff, 0xff, 0x6b, 0x15, 0x00, 0x00, 0x9b, 0x49, 0x00, 0x00,
  0xaa, 0xfe, 0xff, 0xff, 0xcc, 0x42, 0x00, 0x00, 0x35, 0xf9, 0xff, 0xff,
  0x70, 0x05, 0x00, 0x00, 0x7e, 0xf0, 0xff, 0xff, 0x8b, 0xde, 0xff, 0xff,
  0xda, 0xfa, 0xff, 0xff, 0x3d, 0x09, 0x00, 0x00, 0x9f, 0x0b, 0x00, 0x00,
  0xf2, 0x59, 0x00, 0x00, 0xca, 0x43, 0x00, 0x00, 0xbb, 0xef, 0xff, 0xff,
  0x9a, 0xe5, 0xff, 0xff, 0x04, 0x00, 0x00, 0x00, 0xb0, 0x01, 0x00, 0x00,
  0xce, 0x06, 0x1c, 0x0d, 0x7f, 0xd5, 0x22, 0x0b, 0x0d, 0x1a, 0x16, 0xf9,
  0x04, 0x14, 0xc1, 0x05, 0x4c, 0xc8, 0xe9, 0x62, 0xe6, 0x09, 0xd0, 0xf8,
  0xe8, 0x02, 0x1b, 0xd9, 0xec, 0x7f, 0x27, 0xc4, 0xd2, 0x6f, 0x7f, 0xcc,
  0x08, 0xd1, 0x81, 0xe2, 0x14, 0xf3, 0xfc, 0xba, 0xfb, 0xe2, 0x8d, 0x11,
  0xc3, 0x60, 0xf0, 0x28, 0xe7, 0xa5, 0x7f, 0xee, 0x4c, 0x0a, 0x1c, 0x7f,
  0x47, 0x7f, 0xf3, 0x18, 0x75, 0xc2, 0x02, 0x62, 0xea, 0xdf, 0x70, 0x8d,
  0xfd, 0x31, 0x8e, 0x19, 0xec, 0x9a, 0x7f, 0x81, 0x81, 0xaa, 0x13, 0xf3,
  0xbe, 0xd5, 0x8b, 0x17, 0xd0, 0xee, 0x1c, 0x81, 0x10, 0xc0, 0x1f, 0x38,
  0xec, 0xf0, 0xfc, 0x02, 0x2b, 0xd7, 0x23, 0x03, 0x0f, 0x13, 0xe5, 0xde,
  0xf9, 0xfc, 0xcc, 0x1d, 0x31, 0xe6, 0xf2, 0x75, 0xed, 0x06, 0xc4, 0x00,
  0x0f, 0x00, 0x19, 0xa1, 0xe2, 0x2d, 0xdf, 0xce, 0xf6, 0x03, 0x75, 0xd6,
  0x0c, 0xe9, 0xa7, 0x07, 0x18, 0x02, 0x0a, 0xcf, 0xf2, 0xc0, 0x81, 0xf3,
  0x81, 0x7f, 0xf5, 0xc6, 0xfd, 0xbb, 0x19, 0xf5, 0x27, 0x10, 0x58, 0x39,
  0x48, 0x5f, 0xcf, 0x17, 0x7f, 0x89, 0x09, 0x6d, 0xee, 0xbd, 0x9a, 0xdd,
  0x81, 0xf6, 0xe1, 0x12, 0xfc, 0xfb, 0x5a, 0xb6, 0xba, 0x7f, 0x94, 0xba,
  0x25, 0xbb, 0x30, 0x3a, 0xa4, 0x1b, 0xa4, 0x41, 0xf4, 0x81, 0xfa, 0xd5,
  0xf7, 0x7c, 0x7f, 0x7f, 0xc5, 0x50, 0x84, 0x7f, 0x7f, 0x81, 0xb7, 0x4a,
  0x7f, 0x5c, 0x7f, 0x8f, 0xc5, 0x81, 0x7f, 0xfe, 0x81, 0x7f, 0x7f, 0xfe,
  0x5c, 0x7e, 0x46, 0x7f, 0x7f, 0xa8, 0x71, 0xfb, 0xb1, 0x94, 0xea, 0x81,
  0x7f, 0x7f, 0x74, 0x3a, 0xcf, 0x7f, 0xe4, 0x57, 0x7f, 0x41, 0xee, 0x81,
  0xb3, 0x39, 0xe0, 0xd3, 0xb1, 0x93, 0x22, 0xe8, 0xfd, 0x02, 0x7f, 0x35,
  0x23, 0x5b, 0xd9, 0x7f, 0x74, 0xa3, 0xf5, 0x7f, 0x28, 0xae, 0x9b, 0xda,
  0x14, 0xee, 0xe8, 0x17, 0xff, 0x0c, 0x5b, 0xc6, 0xe4, 0xe1, 0x8c, 0xbc,
  0x18, 0xb9, 0x2f, 0x81, 0xc4, 0x1b, 0x7f, 0x50, 0xe5, 0x8a, 0xe4, 0x75,
  0xf7, 0x06, 0x01, 0xf5, 0x14, 0xf2, 0x15, 0x00, 0x2f, 0x1b, 0x79, 0x34,
  0xff, 0xfa, 0xec, 0x4e, 0x38, 0xd2, 0xc5, 0x06, 0xe1, 0x02, 0xbf, 0x31,
  0xfa, 0xf4, 0xe7, 0xef, 0x0d, 0x3c, 0xfa, 0x00, 0xdc, 0x1e, 0xa8, 0x06,
  0xd8, 0xce, 0x47, 0xd5, 0x55, 0xf2, 0xf2, 0x04, 0xf1, 0x1b, 0xf9, 0xd9,
  0xa9, 0x65, 0x06, 0x09, 0x94, 0x81, 0x4d, 0xb2, 0x34, 0x16, 0x20, 0xd2,
  0xd9, 0x20, 0xe0, 0x5f, 0x4a, 0x13, 0xf2, 0x65, 0xb4, 0x0f, 0x52, 0x7f,
  0x0e, 0x81, 0x7f, 0x0b, 0x15, 0xca, 0xd4, 0xa6, 0xf2, 0xc4, 0xbb, 0xab,
  0xbb, 0xcb, 0x32, 0x1e, 0x7f, 0x28, 0xce, 0x31, 0xf0, 0xa2, 0x98, 0xef,
  0x35, 0xf7, 0x14, 0xfc, 0xe6, 0xee, 0x10, 0x08, 0x2f, 0x16, 0x44, 0x1f,
  0x16, 0xf9, 0xea, 0x30, 0x23, 0xe1, 0xbf, 0x20, 0xdf, 0xf6, 0xc4, 0x2d,
  0x0e, 0xed, 0xee, 0xcb, 0x06, 0xf9, 0xf3, 0x02, 0xeb, 0xfc, 0xe0, 0x16,
  0xdf, 0xd7, 0x49, 0xfd, 0x39, 0xf6, 0x1e, 0xfe, 0xf0, 0xdf, 0x01, 0x17,
  0x56, 0xe7, 0xff, 0xff, 0x04, 0x00, 0x00, 0x00, 0xc0, 0x00, 0x00, 0x00,
  0x9c, 0x02, 0x00, 0x00, 0x59, 0x27, 0x00, 0x00, 0xd6, 0xdc, 0xff, 0xff,
  0x5a, 0x12, 0x00, 0x00, 0x30, 0x11, 0x00, 0x00, 0x96, 0x17, 0x00, 0x00,
  0x47, 0x08, 0x00, 0x00, 0x4c, 0x4a, 0x00, 0x00, 0x55, 0x2f, 0x00, 0x00,
  0x28, 0x28, 0x00, 0x00, 0xc5, 0xf1, 0xff, 0xff, 0x9f, 0xfd, 0xff, 0xff,
  0xe2, 0x05, 0x00, 0x00, 0x2a, 0x0d, 0x00, 0x00, 0x4c, 0x0c, 0x00, 0x00,
  0x84, 0xfa, 0xff, 0xff, 0xef, 0xff, 0xff, 0xff, 0xba, 0x1f, 0x00, 0x00,
  0xa4, 0x37, 0x00, 0x00, 0xbb, 0x01, 0x00, 0x00, 0x39, 0x0d, 0x00, 0x00,
  0x48, 0x30, 0x00, 0x00, 0x8c, 0x0c, 0x00, 0x00, 0xa2, 0x1b, 0x00, 0x00,
  0x6d, 0x31, 0x00, 0x00, 0x03, 0x1c, 0x00, 0x00, 0x06, 0x0c, 0x00, 0x00,
  0x82, 0x2d, 0x00, 0x00, 0x9a, 0x0a, 0x00, 0x00, 0x80, 0x19, 0x00, 0x00,
  0xde, 0xf8, 0xff, 0xff, 0x51, 0x32, 0x00, 0x00, 0x3b, 0x08, 0x00, 0x00,
  0xc4, 0x21, 0x00, 0x00, 0xbe, 0x1a, 0x00, 0x00, 0xbc, 0x19, 0x00, 0x00,
  0x35, 0x07, 0x02, 0x00, 0x5e, 0x30, 0x00, 0x00, 0xa7, 0x0f, 0x00, 0x00,
  0xae, 0x44, 0x00, 0x00, 0x03, 0x0c, 0x00, 0x00, 0x80, 0x03, 0x00, 0x00,
  0x13, 0x19, 0x00, 0x00, 0x30, 0x05, 0x00, 0x00, 0xf9, 0x14, 0x00, 0x00,
  0x74, 0x09, 0x00, 0x00, 0xaf, 0x06, 0x00, 0x00, 0xbd, 0x14, 0x00, 0x00,
  0x22, 0xe8, 0xff, 0xff, 0x04, 0x00, 0x00, 0x00, 0x80, 0x01, 0x00, 0x00,
  0xae, 0x81, 0xe1, 0x17, 0xe2, 0xfa, 0x2d, 0xcd, 0xf8, 0x7f, 0x29, 0xa8,
  0x03, 0xa0, 0xb9, 0x65, 0x81, 0xbc, 0x26, 0x0b, 0x4b, 0x09, 0x21, 0xec,
  0x09, 0xe3, 0x81, 0xd3, 0x1b, 0xd4, 0xe1, 0x32, 0xcc, 0x86, 0x58, 0xe2,
  0x7f, 0xc3, 0x32, 0x07, 0xe3, 0x4e, 0x32, 0xa4, 0x70, 0x26, 0xc2, 0x7f,
  0x81, 0x59, 0x3a, 0x3c, 0xd6, 0x07, 0x20, 0x88, 0x32, 0xf5, 0x33, 0x22,
  0x2d, 0x81, 0x05, 0x68, 0x02, 0x40, 0xf2, 0xe3, 0x0e, 0x68, 0x7f, 0xc1,
  0x53, 0x7f, 0x08, 0xab, 0xa1, 0xb0, 0xcd, 0x7d, 0x15, 0xf2, 0x1e, 0xf9,
  0xec, 0x25, 0x81, 0xba, 0xbc, 0x14, 0x8d, 0xba, 0x7f, 0x0b, 0x2b, 0x40,
  0x58, 0x24, 0xde, 0xf9, 0x7f, 0x56, 0x11, 0x03, 0x81, 0x88, 0xfb, 0x31,
  0xa5, 0x30, 0x3d, 0x04, 0xf5, 0x6a, 0xb4, 0x6c, 0xd1, 0x7f, 0xe8, 0x17,
  0xf8, 0x9f, 0xdd, 0xa5, 0x7f, 0x49, 0xeb, 0x3d, 0x4c, 0xad, 0xf9, 0x34,
  0x21, 0xe6, 0x2c, 0x81, 0xbb, 0xb8, 0x81, 0x67, 0x00, 0x62, 0x4d, 0xa3,
  0x4d, 0xf0, 0x7f, 0x0b, 0xdc, 0x8c, 0xa9, 0xdf, 0xf2, 0x7f, 0x18, 0x22,
  0x4e, 0x8d, 0xcc, 0xe5, 0xb5, 0xef, 0x81, 0xd1, 0x27, 0xfc, 0xfa, 0xf5,
  0x81, 0xdd, 0x21, 0x3e, 0xb5, 0x88, 0x73, 0xd3, 0x39, 0xfc, 0x81, 0xc3,
  0xe4, 0xfa, 0x01, 0x29, 0xec, 0x2e, 0x7f, 0xf4, 0x99, 0x35, 0xf3, 0x9d,
  0xab, 0x60, 0x47, 0x69, 0x7f, 0x5f, 0xf4, 0xe1, 0xd1, 0x81, 0xbb, 0x1e,
  0xcd, 0x2b, 0x30, 0xf9, 0x71, 0x7f, 0x8c, 0xd6, 0x83, 0xef, 0xc5, 0x26,
  0x44, 0x3f, 0xbf, 0x13, 0x81, 0x1a, 0xdd, 0xeb, 0xe0, 0x40, 0x12, 0xb0,
  0x57, 0x5a, 0x81, 0x92, 0x25, 0x02, 0x01, 0xc1, 0x81, 0x0c, 0x05, 0xd0,
  0xb7, 0x06, 0x25, 0x7f, 0x28, 0x0a, 0xe6, 0xf7, 0x0b, 0x93, 0x07, 0xae,
  0x81, 0x45, 0xba, 0x8e, 0x81, 0xfe, 0x1f, 0xf4, 0x0b, 0xe4, 0xfd, 0x13,
  0x26, 0xa7, 0x88, 0x81, 0x05, 0x0a, 0xc1, 0x0b, 0x2d, 0x4e, 0x7f, 0xfc,
  0x8e, 0xcc, 0x3b, 0xb2, 0x71, 0x1e, 0x0c, 0x0f, 0x8d, 0xce, 0x81, 0xd2,
  0x7f, 0x04, 0x58, 0xd1, 0x0f, 0xeb, 0x4b, 0x54, 0x7b, 0x78, 0xfa, 0xf5,
  0x55, 0x54, 0x81, 0x20, 0xd3, 0x5a, 0x6f, 0x7f, 0xd8, 0x46, 0x09, 0xc9,
  0x1a, 0x2b, 0x7f, 0xd7, 0x5e, 0xca, 0xdc, 0x11, 0x6a, 0x43, 0x20, 0x1d,
  0xb2, 0x81, 0x07, 0xba, 0x19, 0xd0, 0x0f, 0x7f, 0xea, 0x3f, 0x08, 0x52,
  0xfd, 0x85, 0x45, 0xce, 0x7f, 0xd9, 0x72, 0x21, 0xf1, 0xe0, 0x98, 0xd4,
  0x69, 0x2d, 0xb4, 0x7f, 0x6f, 0xf0, 0x7f, 0x02, 0x02, 0x28, 0xcd, 0x09,
  0xd4, 0x15, 0x23, 0xd4, 0xa1, 0x81, 0xe0, 0x62, 0xbd, 0x4d, 0x51, 0x1b,
  0xff, 0xe6, 0x25, 0x81, 0x2b, 0xfd, 0x16, 0x7f, 0xf1, 0x92, 0x4a, 0x3c,
  0xae, 0xe9, 0xff, 0xff, 0x04, 0x00, 0x00, 0x00, 0x20, 0x00, 0x00, 0x00,
  0x5c, 0x0c, 0x00, 0x00, 0xe7, 0xfc, 0xff, 0xff, 0x49, 0x31, 0x00, 0x00,
  0xe7, 0xe3, 0xff, 0xff, 0xfe, 0xca, 0xff, 0xff, 0xb5, 0xc8, 0xff, 0xff,
  0xf0, 0xe2, 0xff, 0xff, 0xb6, 0xfa, 0xff, 0xff, 0xda, 0xe9, 0xff, 0xff,
  0x04, 0x00, 0x00, 0x00, 0x80, 0x01, 0x00, 0x00, 0xf1, 0xe1, 0x32, 0xc6,
  0x35, 0x55, 0x4d, 0x63, 0x73, 0xd4, 0xe3, 0x3b, 0xdf, 0xec, 0x0a, 0xed,
  0x2f, 0x2d, 0x09, 0xc5, 0xde, 0x15, 0xa4, 0xde, 0x20, 0xf4, 0x13, 0xb8,
  0xdd, 0x19, 0x30, 0x19, 0x1b, 0x2d, 0x44, 0x12, 0x76, 0xcd, 0xb5, 0x06,
  0xc5, 0xb5, 0xdf, 0xfb, 0xb4, 0xaa, 0x81, 0x3b, 0xef, 0xfe, 0xdb, 0x31,
  0xfe, 0x0d, 0xd9, 0xf2, 0xc4, 0x1a, 0x0e, 0x53, 0xde, 0x02, 0xe2, 0x7f,
  0x28, 0x3e, 0x0a, 0xdd, 0xd2, 0xe8, 0xb7, 0x13, 0x0e, 0xf4, 0xea, 0xa5,
  0x30, 0xf1, 0xca, 0xbe, 0x40, 0xda, 0xe2, 0xc7, 0x22, 0x21, 0x33, 0xd4,
  0x02, 0x43, 0x2f, 0xd2, 0xfb, 0xd7, 0xc9, 0xea, 0x07, 0xbb, 0xe2, 0xff,
  0xe2, 0x0b, 0x04, 0x07, 0x78, 0x10, 0xfd, 0xf0, 0xe7, 0xb7, 0x23, 0x04,
  0x00, 0xc0, 0xea, 0xf9, 0x99, 0x37, 0x07, 0x22, 0x0d, 0x33, 0xd9, 0xe8,
  0xed, 0xdd, 0x28, 0xcb, 0x95, 0x22, 0xd1, 0x38, 0xb8, 0x43, 0xeb, 0xeb,
  0x7f, 0xee, 0xfa, 0x30, 0x20, 0x2e, 0xcb, 0xd6, 0xe1, 0x90, 0x5f, 0x40,
  0x17, 0x96, 0xea, 0xf0, 0x81, 0x7e, 0x3e, 0xc8, 0x36, 0x08, 0xe5, 0x16,
  0x3e, 0x24, 0xe2, 0x2f, 0x4c, 0x50, 0x24, 0xc0, 0x0b, 0x51, 0x3d, 0x1e,
  0xdf, 0xb8, 0x0b, 0x11, 0xe8, 0x01, 0x35, 0x0d, 0xf1, 0xac, 0xd4, 0x2c,
  0xdf, 0xf2, 0x12, 0xb7, 0xb1, 0x10, 0xfe, 0x19, 0xf6, 0x39, 0xea, 0x4c,
  0x27, 0x04, 0x03, 0xfb, 0xce, 0x50, 0x36, 0x42, 0x05, 0x1a, 0x44, 0x0f,
  0x08, 0x9c, 0xfd, 0xfa, 0x57, 0xf7, 0xa4, 0x3d, 0x41, 0xed, 0x22, 0x1d,
  0x35, 0x1e, 0xf1, 0xca, 0xc9, 0x7f, 0xff, 0x10, 0x3a, 0xea, 0x15, 0x1a,
  0xea, 0x31, 0x05, 0xe9, 0x07, 0xd1, 0xe4, 0x0e, 0xe6, 0x02, 0xf7, 0xb6,
  0x84, 0x22, 0x7f, 0x1f, 0x08, 0x37, 0xde, 0xe7, 0x95, 0xf7, 0x42, 0xd9,
  0xa3, 0x26, 0xcc, 0xb0, 0x04, 0x6d, 0xf9, 0x28, 0x70, 0x21, 0xfc, 0x12,
  0xec, 0xec, 0x7b, 0xc3, 0xf0, 0x6e, 0x4d, 0x5b, 0xe6, 0x33, 0x61, 0x27,
  0xec, 0xd7, 0xe4, 0x2a, 0xc5, 0x30, 0x15, 0x37, 0x03, 0xef, 0xf9, 0x1d,
  0xc6, 0xcf, 0x17, 0x05, 0x16, 0xed, 0x25, 0x0c, 0xd0, 0xe5, 0x1f, 0x35,
  0x08, 0xc0, 0x06, 0xc0, 0x4b, 0xe3, 0xfc, 0xe5, 0x0e, 0xfc, 0x0b, 0x2d,
  0x25, 0x02, 0x0e, 0x7f, 0x32, 0xf6, 0xf7, 0x19, 0x04, 0xf3, 0x14, 0x0e,
  0xfd, 0x1f, 0xe0, 0xd3, 0xfe, 0xe8, 0xe8, 0x28, 0xe2, 0xeb, 0xd5, 0xf9,
  0x08, 0xe8, 0x04, 0x0d, 0x26, 0x08, 0x17, 0xfe, 0xf6, 0x0b, 0x03, 0x01,
  0x21, 0xfb, 0xff, 0xfc, 0xc2, 0x0b, 0x0a, 0xe2, 0xfd, 0xf9, 0xc8, 0xf1,
  0xf4, 0xeb, 0x14, 0x20, 0x14, 0xf4, 0x1c, 0x0d, 0xec, 0x7f, 0xf2, 0xd6,
  0xd9, 0xfe, 0xd1, 0xda, 0x16, 0x3e, 0xb6, 0xf7, 0x66, 0xeb, 0xff, 0xff,
  0x04, 0x00, 0x00, 0x00, 0xc0, 0x00, 0x00, 0x00, 0x90, 0xfe, 0xff, 0xff,
  0x0e, 0x76, 0x00, 0x00, 0x68, 0x6b, 0x00, 0x00, 0x0b, 0xf9, 0xff, 0xff,
  0x4c, 0x09, 0x00, 0x00, 0x4b, 0xc2, 0xff, 0xff, 0x1d, 0x49, 0x00, 0x00,
  0x85, 0x4c, 0x00, 0x00, 0xf7, 0xde, 0xff, 0xff, 0x77, 0x15, 0x00, 0x00,
  0xfd, 0xf7, 0xff, 0xff, 0xcd, 0x3c, 0x00, 0x00, 0x74, 0x55, 0x00, 0x00,
  0x60, 0xc3, 0xff, 0xff, 0x7d, 0xd2, 0xff, 0xff, 0x3b, 0xf7, 0xff, 0xff,
  0x94, 0xfe, 0xff, 0xff, 0x06, 0x6a, 0x00, 0x00, 0xb1, 0xfc, 0xff, 0xff,
  0x23, 0xfd, 0xff, 0xff, 0x12, 0xa8, 0x00, 0x00, 0x33, 0x34, 0x00, 0x00,
  0xa8, 0xda, 0xff, 0xff, 0x29, 0xe0, 0xff, 0xff, 0x2a, 0x39, 0x00, 0x00,
  0xd2, 0x30, 0x00, 0x00, 0xef, 0xf5, 0xff, 0xff, 0x10, 0xf7, 0xff, 0xff,
  0xe4, 0xee, 0xff, 0xff, 0x1f, 0xff, 0xff, 0xff, 0x11, 0x66, 0x00, 0x00,
  0x11, 0xfb, 0xff, 0xff, 0x3f, 0xea, 0xff, 0xff, 0xd2, 0x2d, 0x00, 0x00,
  0x2d, 0x2f, 0x00, 0x00, 0xe4, 0x41, 0x00, 0x00, 0xdf, 0xf9, 0xff, 0xff,
  0x47, 0x99, 0x00, 0x00, 0xe5, 0xea, 0xff, 0xff, 0xff, 0xf6, 0xff, 0xff,
  0xf6, 0x6e, 0x00, 0x00, 0x31, 0x01, 0x00, 0x00, 0x69, 0xf5, 0xff, 0xff,
  0xda, 0x3e, 0x00, 0x00, 0xc7, 0x00, 0x00, 0x00, 0x82, 0xfd, 0xff, 0xff,
  0x0f, 0xf1, 0xff, 0xff, 0x00, 0x3b, 0x00, 0x00, 0x32, 0xec, 0xff, 0xff,
  0x04, 0x00, 0x00, 0x00, 0xb0, 0x01, 0x00, 0x00, 0x40, 0xbb, 0xea, 0x29,
  0x52, 0x2e, 0xbe, 0x9b, 0x01, 0x42, 0x7b, 0xbb, 0xdb, 0x43, 0x6c, 0x35,
  0x4c, 0xa4, 0x3b, 0x58, 0xb5, 0x93, 0x30, 0x59, 0xce, 0xe8, 0x4f, 0x5b,
  0x6f, 0x5b, 0xd5, 0x41, 0x42, 0xa3, 0xa2, 0xac, 0x4c, 0xcf, 0x59, 0x14,
  0xa0, 0x67, 0x36, 0xb2, 0x4d, 0x74, 0x38, 0xb4, 0x53, 0x9b, 0xc8, 0x3e,
  0x78, 0x3e, 0xbf, 0x8c, 0x13, 0x50, 0x7f, 0xa1, 0xb3, 0x60, 0x69, 0x55,
  0x4b, 0x97, 0x38, 0x62, 0xbc, 0x83, 0x41, 0x69, 0xc3, 0xc1, 0x74, 0x75,
  0x72, 0x7f, 0xc1, 0x59, 0x51, 0x8f, 0x81, 0xa4, 0x59, 0xb9, 0x5c, 0x2d,
  0x8b, 0x69, 0x31, 0xa3, 0x69, 0x7f, 0x3d, 0x9c, 0x1f, 0xd2, 0xcd, 0x13,
  0x27, 0x07, 0xf4, 0xce, 0x1c, 0x21, 0x25, 0xe6, 0xc2, 0x2d, 0x2e, 0x19,
  0x09, 0xf7, 0x16, 0x24, 0xf2, 0xb1, 0x1c, 0x2c, 0xee, 0xf4, 0x2e, 0x1f,
  0x2e, 0x3c, 0xf5, 0x0b, 0x19, 0xb3, 0xcd, 0xd3, 0x23, 0xdc, 0x16, 0x1a,
  0xd7, 0x3c, 0x0e, 0xda, 0x1f, 0x23, 0x09, 0xd5, 0x2b, 0x9f, 0xc5, 0x57,
  0x64, 0x53, 0x8f, 0x85, 0x54, 0x64, 0x7a, 0xac, 0x8d, 0x5a, 0x7f, 0x49,
  0x79, 0x93, 0x3e, 0x78, 0x98, 0x81, 0x5c, 0x68, 0x8c, 0xb5, 0x71, 0x68,
  0x69, 0x3f, 0xab, 0x6b, 0x5f, 0x88, 0xb1, 0x81, 0x56, 0xa7, 0x7a, 0x56,
  0x9b, 0x67, 0x6c, 0x81, 0x60, 0x6e, 0x2c, 0xa8, 0x2c, 0x81, 0x81, 0x7f,
  0x7f, 0x7f, 0x81, 0x81, 0x7f, 0x7f, 0x77, 0x81, 0x81, 0x7f, 0x74, 0x7f,
  0x7f, 0x81, 0x3f, 0x7f, 0x81, 0x88, 0x7f, 0x7f, 0x81, 0x81, 0x7f, 0x7f,
  0x7f, 0x52, 0x81, 0x7f, 0x7f, 0x81, 0xa0, 0x84, 0x7f, 0x81, 0x7f, 0x7f,
  0x81, 0x7f, 0x7f, 0x86, 0x7f, 0x72, 0x30, 0x81, 0xf1, 0xbd, 0x9f, 0x2d,
  0x32, 0x2e, 0xcc, 0xd2, 0x4d, 0x2d, 0x25, 0xd0, 0xad, 0x26, 0x45, 0x34,
  0x28, 0xed, 0x12, 0x22, 0xdf, 0xaa, 0x36, 0x3c, 0xc9, 0xe1, 0x20, 0x33,
  0x33, 0x0a, 0xe1, 0x1e, 0x3d, 0x85, 0xc4, 0xca, 0x31, 0xd1, 0x1b, 0x31,
  0xdf, 0x33, 0x2f, 0xbf, 0x29, 0xf9, 0x0c, 0xa9, 0xcf, 0xbf, 0xd8, 0x33,
  0x0d, 0x34, 0xd0, 0xd4, 0x8c, 0x31, 0x34, 0xc1, 0xaf, 0x22, 0x3e, 0x3b,
  0x48, 0xef, 0xb5, 0x3d, 0xdf, 0xce, 0x3a, 0x23, 0xb4, 0xcc, 0x3e, 0x3c,
  0x25, 0xfa, 0xcf, 0x24, 0x3b, 0xb2, 0xe9, 0xbe, 0x2c, 0xe1, 0x2a, 0x5f,
  0xdf, 0x1a, 0x48, 0xb7, 0x2c, 0x15, 0x97, 0xd9, 0x81, 0x9c, 0xa6, 0x49,
  0x22, 0x51, 0xcb, 0xdc, 0xa6, 0x3a, 0x42, 0xbb, 0xa0, 0x2f, 0x2f, 0x54,
  0x55, 0xe8, 0x81, 0x47, 0xd4, 0xbb, 0x4c, 0x21, 0xb2, 0xe1, 0x33, 0x41,
  0x2e, 0x02, 0xc0, 0x2b, 0x50, 0x8c, 0xed, 0xbf, 0x3d, 0xd2, 0x28, 0x78,
  0xe4, 0x20, 0x61, 0xa7, 0x3f, 0xe9, 0x81, 0xb3, 0xc2, 0xe2, 0xb5, 0x20,
  0x07, 0x1f, 0x0f, 0xfb, 0x95, 0x13, 0x25, 0xf4, 0xde, 0x1c, 0x2c, 0x31,
  0x1b, 0x03, 0xb2, 0x0d, 0xe7, 0x11, 0x11, 0x1c, 0xe6, 0xff, 0x15, 0x19,
  0x0e, 0xf7, 0xf1, 0x10, 0x1f, 0xdb, 0x00, 0xe7, 0x13, 0xe8, 0xf8, 0x26,
  0xf7, 0x08, 0x1b, 0xed, 0x07, 0xf0, 0xc7, 0xe0, 0xee, 0xed, 0xff, 0xff,
  0x04, 0x00, 0x00, 0x00, 0xc0, 0x00, 0x00, 0x00, 0xd0, 0xf7, 0xff, 0xff,
  0x75, 0x1a, 0x00, 0x00, 0x10, 0x12, 0x00, 0x00, 0xb7, 0xfc, 0xff, 0xff,
  0x56, 0x00, 0x00, 0x00, 0xa8, 0x2c, 0x00, 0x00, 0xdc, 0x10, 0x00, 0x00,
  0x4f, 0x07, 0x00, 0x00, 0xdf, 0x44, 0x00, 0x00, 0xf2, 0x06, 0x00, 0x00,
  0xa2, 0xf3, 0xff, 0xff, 0x9d, 0x07, 0x00, 0x00, 0x59, 0x11, 0x00, 0x00,
  0xd7, 0x06, 0x00, 0x00, 0xe8, 0xfe, 0xff, 0xff, 0x51, 0x05, 0x00, 0x00,
  0x24, 0xf8, 0xff, 0xff, 0x5c, 0x17, 0x00, 0x00, 0x96, 0xef, 0xff, 0xff,
  0xc2, 0xfc, 0xff, 0xff, 0x9d, 0x05, 0x00, 0x00, 0x72, 0x04, 0x00, 0x00,
  0xcb, 0x01, 0x00, 0x00, 0x96, 0xfe, 0xff, 0xff, 0x92, 0x00, 0x00, 0x00,
  0xe5, 0x0a, 0x00, 0x00, 0x8c, 0xf5, 0xff, 0xff, 0x2f, 0xf9, 0xff, 0xff,
  0x5f, 0xfc, 0xff, 0xff, 0x16, 0xf4, 0xff, 0xff, 0xa0, 0x29, 0x00, 0x00,
  0x76, 0x0b, 0x00, 0x00, 0x90, 0x02, 0x00, 0x00, 0x9d, 0x04, 0x00, 0x00,
  0x60, 0x01, 0x00, 0x00, 0x52, 0x07, 0x00, 0x00, 0xaf, 0x07, 0x00, 0x00,
  0xea, 0x23, 0x00, 0x00, 0xcb, 0x06, 0x00, 0x00, 0xef, 0x02, 0x00, 0x00,
  0x95, 0x20, 0x00, 0x00, 0x71, 0xf5, 0xff, 0xff, 0x55, 0x02, 0x00, 0x00,
  0x5e, 0x06, 0x00, 0x00, 0x1a, 0xfa, 0xff, 0xff, 0xa9, 0xf5, 0xff, 0xff,
  0xf4, 0x34, 0x00, 0x00, 0x9c, 0x0d, 0x00, 0x00, 0xba, 0xee, 0xff, 0xff,
  0x04, 0x00, 0x00, 0x00, 0x80, 0x01, 0x00, 0x00, 0x25, 0x1b, 0xcd, 0x08,
  0xe2, 0x2b, 0x81, 0x1f, 0x05, 0xc0, 0x88, 0x02, 0xf5, 0xe7, 0x7f, 0x94,
  0x81, 0xc9, 0xbd, 0xd3, 0xdc, 0x34, 0x81, 0xf7, 0xc4, 0xd5, 0x1e, 0xf1,
  0xec, 0x81, 0x8f, 0xea, 0xcf, 0x81, 0xce, 0x15, 0x38, 0x16, 0xde, 0xd8,
  0x42, 0xdd, 0x4e, 0x3d, 0x81, 0x41, 0xbd, 0x9c, 0x23, 0x81, 0xb7, 0xd7,
  0xf6, 0x40, 0xcc, 0xb0, 0xe4, 0xa7, 0xc9, 0xbb, 0x49, 0x81, 0xfe, 0x13,
  0x1e, 0x36, 0x30, 0x34, 0x18, 0xcb, 0xf4, 0x7f, 0xe4, 0xc1, 0xc7, 0x04,
  0x2b, 0xf3, 0x7f, 0xf2, 0xe2, 0x0e, 0x81, 0x18, 0x16, 0x1c, 0x6d, 0x87,
  0x01, 0xde, 0xda, 0x01, 0x81, 0x15, 0xfe, 0x36, 0x4e, 0x3c, 0xe7, 0x27,
  0xb9, 0x7f, 0x56, 0xfa, 0xd3, 0xf9, 0x15, 0xed, 0x28, 0x81, 0xfe, 0x41,
  0x9f, 0xd0, 0x07, 0x26, 0x09, 0x41, 0x94, 0x81, 0x3d, 0x4f, 0x37, 0x0b,
  0x81, 0x25, 0x7c, 0xc7, 0xfb, 0xc8, 0x09, 0x56, 0xf5, 0xb4, 0x0d, 0x81,
  0xad, 0x7f, 0x1b, 0xf1, 0xbd, 0xce, 0xa1, 0xa9, 0x54, 0x7f, 0x9f, 0x9b,
  0x5c, 0x64, 0x9a, 0xb8, 0xea, 0x54, 0xec, 0x0a, 0x81, 0x07, 0xc3, 0x97,
  0x81, 0x02, 0x07, 0x10, 0x1e, 0x11, 0x72, 0x31, 0xe2, 0x00, 0x36, 0x11,
  0xb0, 0x93, 0x81, 0x19, 0xfd, 0xdc, 0xd5, 0xf9, 0x81, 0x04, 0x08, 0x37,
  0x41, 0x04, 0xf1, 0xf6, 0x7f, 0x41, 0xab, 0x4c, 0x7f, 0x0d, 0xd0, 0x1a,
  0xa7, 0x08, 0x08, 0xf8, 0x21, 0xcb, 0x3d, 0x6e, 0xd0, 0x81, 0x18, 0x69,
  0x13, 0x7f, 0x03, 0x34, 0x51, 0xef, 0x0f, 0xf3, 0x87, 0x75, 0x3c, 0xf0,
  0x7f, 0xb5, 0xfe, 0x5b, 0xb4, 0xb4, 0xcd, 0xde, 0x4e, 0x81, 0x14, 0xee,
  0xc5, 0xec, 0x27, 0x28, 0x7f, 0xa9, 0xb1, 0x4c, 0x7f, 0x27, 0x90, 0x8f,
  0xa9, 0xa2, 0xb7, 0xbd, 0x22, 0x04, 0x31, 0x48, 0x81, 0x04, 0x22, 0x00,
  0x7f, 0x18, 0x3a, 0x31, 0xe1, 0xc2, 0x60, 0x40, 0x7f, 0x1e, 0xd6, 0x06,
  0x87, 0xb8, 0x1d, 0x34, 0x28, 0xf6, 0xea, 0x11, 0xd7, 0x7f, 0x0b, 0xb9,
  0x76, 0x1f, 0xf2, 0xda, 0x1f, 0x9d, 0x23, 0x7f, 0xda, 0xd1, 0x4a, 0xa5,
  0xe1, 0xed, 0x56, 0x81, 0x50, 0xbd, 0x3e, 0x2d, 0x74, 0xf3, 0x20, 0x81,
  0x47, 0x7f, 0x0e, 0xe7, 0xe8, 0x16, 0x18, 0x4b, 0x17, 0x06, 0xb7, 0x41,
  0xec, 0xc4, 0xab, 0x7f, 0xf6, 0xe1, 0x00, 0xe4, 0x17, 0x81, 0x17, 0x27,
  0xe6, 0x2d, 0x81, 0xc3, 0x5c, 0x7d, 0x4a, 0x83, 0x18, 0xd3, 0xda, 0x07,
  0x46, 0x7f, 0x20, 0x33, 0x00, 0x29, 0xe9, 0x13, 0x81, 0xad, 0x34, 0xcb,
  0x81, 0xc9, 0xf4, 0xe3, 0x32, 0x31, 0x98, 0xb6, 0xc0, 0x3d, 0xc3, 0x16,
  0x23, 0xf7, 0xbe, 0x7f, 0xed, 0x2d, 0x7f, 0x01, 0xc3, 0xc6, 0xd7, 0x23,
  0x81, 0x8f, 0xcb, 0xc2, 0x6b, 0x6b, 0xd7, 0x50, 0x46, 0xf0, 0xff, 0xff,
  0x04, 0x00, 0x00, 0x00, 0x20, 0x00, 0x00, 0x00, 0x62, 0x2a, 0x00, 0x00,
  0x08, 0x40, 0x00, 0x00, 0xc6, 0x16, 0x00, 0x00, 0x89, 0x17, 0x00, 0x00,
  0x71, 0x0d, 0x00, 0x00, 0xb5, 0xcc, 0xff, 0xff, 0x56, 0x1d, 0x00, 0x00,
  0x6f, 0xed, 0xff, 0xff, 0x72, 0xf0, 0xff, 0xff, 0x04, 0x00, 0x00, 0x00,
  0x80, 0x01, 0x00, 0x00, 0x2a, 0xd6, 0x63, 0x41, 0x21, 0xd3, 0x14, 0x08,
  0xf8, 0x3c, 0xda, 0x0b, 0xd0, 0xac, 0x2c, 0x07, 0x8d, 0x46, 0xd8, 0x40,
  0xcd, 0x4c, 0x02, 0xe6, 0xfa, 0xc9, 0x3f, 0xe7, 0xe3, 0x17, 0xde, 0x70,
  0xbd, 0xf8, 0xda, 0xb1, 0xba, 0xd3, 0xdc, 0xee, 0xed, 0x37, 0x81, 0x05,
  0x31, 0x15, 0x16, 0x3a, 0xc6, 0xd9, 0x40, 0xfb, 0xe5, 0x24, 0xdc, 0xe0,
  0x2e, 0xf4, 0xff, 0xe1, 0xf3, 0x0c, 0xff, 0x12, 0xfe, 0x14, 0x0d, 0xfa,
  0xc4, 0xec, 0xb1, 0xeb, 0x1d, 0xd5, 0xe9, 0xdd, 0x1a, 0xb2, 0xf7, 0x81,
  0xfc, 0xc2, 0xb7, 0xb5, 0xd2, 0xa9, 0xe4, 0x16, 0x2e, 0xf1, 0x53, 0x9a,
  0xd2, 0xf0, 0xe6, 0xfc, 0xc6, 0x63, 0xf4, 0x29, 0x11, 0x08, 0x14, 0xd5,
  0x43, 0xd7, 0x3e, 0x4a, 0x5e, 0x0e, 0x1e, 0xc5, 0x5a, 0x00, 0x04, 0x16,
  0xee, 0x14, 0x12, 0x7f, 0x94, 0xd8, 0x05, 0xe9, 0xfc, 0x49, 0xed, 0xa8,
  0xea, 0x04, 0x05, 0xb1, 0xe6, 0x07, 0xe0, 0xea, 0x4f, 0xa7, 0x1a, 0xf7,
  0x15, 0x88, 0x01, 0xf6, 0x39, 0xf7, 0xba, 0x23, 0x56, 0xac, 0x01, 0x82,
  0xda, 0xf9, 0xc0, 0xa2, 0xe4, 0x7f, 0xfa, 0x12, 0xd1, 0xf0, 0xb9, 0xc8,
  0x18, 0x59, 0xf8, 0xd0, 0x67, 0x23, 0x2e, 0xbb, 0x17, 0x9b, 0x32, 0xbf,
  0x32, 0x3c, 0x69, 0xb8, 0xcc, 0x0e, 0xe6, 0x26, 0x0f, 0x4c, 0xba, 0x18,
  0xf3, 0x1f, 0x02, 0x28, 0xcd, 0x1c, 0xdb, 0x41, 0x5c, 0xe3, 0x1b, 0xd0,
  0xdf, 0xfa, 0xc3, 0x29, 0xcd, 0xf0, 0x00, 0xc1, 0x10, 0x3c, 0xe3, 0xd3,
  0xd5, 0x20, 0xb9, 0xbb, 0x1a, 0xff, 0x14, 0xd7, 0x22, 0xdd, 0xe0, 0x3d,
  0xf9, 0x4b, 0xb6, 0xb1, 0xc2, 0xbb, 0xd8, 0x02, 0x49, 0xcc, 0x7f, 0x1a,
  0x08, 0x5b, 0xc9, 0xca, 0x37, 0x03, 0x52, 0xf4, 0xf9, 0x10, 0x33, 0x1b,
  0x7f, 0xff, 0x48, 0x01, 0x44, 0x31, 0x17, 0xc6, 0xf7, 0x1e, 0x21, 0xd5,
  0xca, 0xb9, 0x0f, 0x27, 0x16, 0xf3, 0x15, 0x2a, 0xd9, 0xdf, 0x11, 0xf0,
  0xea, 0x2e, 0xe9, 0x3c, 0x2c, 0xfd, 0xe0, 0xd4, 0xf6, 0x49, 0x23, 0x2c,
  0xef, 0xfe, 0x43, 0x08, 0xfb, 0xc7, 0xe7, 0x0d, 0x28, 0xf6, 0xfd, 0x09,
  0xc8, 0xf0, 0x64, 0x34, 0x62, 0x45, 0xe0, 0x35, 0x72, 0x81, 0xe7, 0xf8,
  0xed, 0xda, 0x9a, 0x26, 0xac, 0x44, 0xd4, 0x01, 0xe6, 0xc6, 0x4a, 0xcb,
  0x5b, 0x12, 0xb1, 0xef, 0xcd, 0x06, 0x3d, 0x03, 0x45, 0xb1, 0xff, 0xad,
  0x87, 0x2e, 0xd1, 0x1e, 0xf2, 0xea, 0xcb, 0xe2, 0x0e, 0x64, 0xfd, 0xfb,
  0xfd, 0xcc, 0x81, 0x9d, 0x2b, 0x2f, 0xc7, 0xcf, 0xdb, 0x1a, 0x5d, 0x11,
  0xee, 0xb7, 0x34, 0xf3, 0x6b, 0xe9, 0xba, 0x52, 0xdc, 0xf7, 0xe5, 0xb0,
  0xd1, 0x3d, 0x2d, 0x6a, 0x53, 0xc6, 0xec, 0xd6, 0xe8, 0xf4, 0x22, 0xf1,
  0xff, 0xe6, 0x02, 0xcf, 0xfe, 0xf1, 0xff, 0xff, 0x04, 0x00, 0x00, 0x00,
  0xc0, 0x00, 0x00, 0x00, 0xad, 0xfb, 0xff, 0xff, 0x4e, 0x03, 0x00, 0x00,
  0x19, 0x06, 0x00, 0x00, 0x51, 0x00, 0x00, 0x00, 0x7e, 0x00, 0x00, 0x00,
  0x71, 0x23, 0x00, 0x00, 0xd5, 0x03, 0x00, 0x00, 0x48, 0xf0, 0xff, 0xff,
  0x1c, 0xeb, 0xff, 0xff, 0xd6, 0xfa, 0xff, 0xff, 0x1a, 0xe6, 0xff, 0xff,
  0x42, 0xfe, 0xff, 0xff, 0xf7, 0xf2, 0xff, 0xff, 0x6f, 0xe6, 0xff, 0xff,
  0x8f, 0xfd, 0xff, 0xff, 0x7c, 0x03, 0x00, 0x00, 0xb5, 0xdd, 0xff, 0xff,
  0x53, 0x3b, 0x00, 0x00, 0x51, 0xf2, 0xff, 0xff, 0x2e, 0xfd, 0xff, 0xff,
  0xc8, 0xfc, 0xff, 0xff, 0x96, 0xff, 0xff, 0xff, 0xf8, 0xfe, 0xff, 0xff,
  0xf9, 0xfd, 0xff, 0xff, 0x41, 0x5b, 0x00, 0x00, 0x23, 0x01, 0x00, 0x00,
  0x9d, 0xfa, 0xff, 0xff, 0x28, 0xfb, 0xff, 0xff, 0xbf, 0xff, 0xff, 0xff,
  0x9c, 0xfc, 0xff, 0xff, 0x80, 0xfe, 0xff, 0xff, 0x08, 0xe1, 0xff, 0xff,
  0x4c, 0x03, 0x00, 0x00, 0x28, 0x24, 0x00, 0x00, 0x0d, 0x02, 0x00, 0x00,
  0xae, 0x1e, 0x00, 0x00, 0xa2, 0x00, 0x00, 0x00, 0xf4, 0xf0, 0xff, 0xff,
  0x15, 0xf9, 0xff, 0xff, 0xd9, 0xfc, 0xff, 0xff, 0x78, 0xf2, 0xff, 0xff,
  0xbb, 0xfc, 0xff, 0xff, 0x07, 0x0b, 0x00, 0x00, 0xcd, 0x13, 0x00, 0x00,
  0x58, 0x03, 0x00, 0x00, 0x1d, 0x23, 0x00, 0x00, 0x51, 0x00, 0x00, 0x00,
  0x50, 0xf9, 0xff, 0xff, 0xca, 0xf2, 0xff, 0xff, 0x04, 0x00, 0x00, 0x00,
  0xb0, 0x01, 0x00, 0x00, 0xfe, 0xd3, 0x29, 0xdc, 0x7f, 0xfc, 0xf5, 0xef,
  0xe3, 0x32, 0xf3, 0x09, 0x42, 0x11, 0x7f, 0xd5, 0x05, 0xfb, 0xdf, 0xf3,
  0xdd, 0xef, 0xb7, 0x1a, 0x81, 0x2e, 0x20, 0xcb, 0xf3, 0x18, 0xf0, 0xfd,
  0xe1, 0x27, 0x12, 0x01, 0x56, 0x3a, 0x21, 0xfb, 0x3b, 0x10, 0xf5, 0xfd,
  0x9b, 0xf1, 0xda, 0xd1, 0x05, 0xa2, 0xb9, 0xdf, 0xcc, 0x00, 0x1d, 0x14,
  0x15, 0xff, 0x3e, 0x7f, 0xfe, 0x37, 0xb4, 0x7f, 0xf7, 0xcc, 0x1d, 0xcf,
  0xbc, 0x81, 0xa4, 0x50, 0x86, 0xab, 0x19, 0x7f, 0x0d, 0x28, 0x7b, 0x0a,
  0x81, 0x81, 0xce, 0x25, 0x7f, 0xa4, 0x7a, 0x0c, 0x32, 0xf7, 0xeb, 0xf2,
  0xca, 0xe9, 0x46, 0x00, 0x0f, 0xed, 0xef, 0x7f, 0x2c, 0x06, 0x9d, 0xff,
  0xea, 0xda, 0xe8, 0xef, 0x37, 0xfe, 0xc3, 0xcd, 0x13, 0x1b, 0x03, 0xf6,
  0x05, 0xff, 0xdc, 0x0f, 0xc6, 0xbd, 0xe6, 0x2c, 0xfc, 0x21, 0xad, 0xfa,
  0x0b, 0x66, 0x16, 0x13, 0x08, 0x57, 0x88, 0x03, 0x1a, 0xfb, 0xfa, 0x1c,
  0x81, 0xf3, 0xc9, 0x2e, 0x95, 0xc6, 0x7f, 0xf1, 0xca, 0xdc, 0x54, 0x14,
  0x11, 0x68, 0x05, 0x13, 0x21, 0x1c, 0x70, 0x1c, 0x1f, 0x81, 0x58, 0x2c,
  0x49, 0xf9, 0x30, 0xda, 0xee, 0xe8, 0x23, 0xc6, 0x1b, 0x36, 0x24, 0x38,
  0x23, 0x9c, 0x02, 0x7f, 0x0a, 0x33, 0xda, 0x8e, 0x12, 0x5d, 0xef, 0xac,
  0x1c, 0xad, 0xc8, 0x0d, 0x7f, 0xc8, 0xb4, 0xb1, 0xf4, 0x81, 0x7f, 0x7f,
  0x7f, 0x15, 0x7f, 0xdc, 0x81, 0x18, 0xd7, 0xd0, 0x7f, 0xa0, 0x7f, 0x7f,
  0x7f, 0x4c, 0x7f, 0x81, 0xfb, 0xe7, 0x73, 0xe5, 0x7f, 0x7f, 0x81, 0x7f,
  0x18, 0x8b, 0x7f, 0x9c, 0xc0, 0x7f, 0xa3, 0x7f, 0x81, 0x81, 0x7f, 0x81,
  0x63, 0x81, 0x7f, 0x86, 0xf9, 0xa0, 0x0a, 0x42, 0xdb, 0xf4, 0xc0, 0x0f,
  0xf6, 0x81, 0xdd, 0x33, 0x4a, 0x06, 0xc7, 0x2b, 0x1b, 0xf7, 0x05, 0x12,
  0x06, 0xe7, 0x26, 0xe7, 0xf7, 0x07, 0x81, 0x56, 0xc1, 0x0e, 0x59, 0x13,
  0xee, 0xa0, 0xee, 0xd5, 0x3d, 0x19, 0x7f, 0x0d, 0x17, 0x37, 0xd7, 0x09,
  0x35, 0xdc, 0xc7, 0x7f, 0xf5, 0x75, 0x19, 0xdc, 0x4a, 0x0e, 0xd3, 0xf6,
  0xe1, 0x17, 0xfa, 0x05, 0x26, 0x11, 0x5b, 0x05, 0xf8, 0xf5, 0xf6, 0xd8,
  0xe9, 0x0e, 0xfc, 0x10, 0xe1, 0xef, 0x1c, 0xfb, 0xcd, 0x9a, 0xf2, 0xfb,
  0xf9, 0x41, 0xea, 0x1d, 0xc3, 0x25, 0x0e, 0x6b, 0x06, 0x13, 0x00, 0x08,
  0x13, 0x05, 0xee, 0xcf, 0x04, 0x5d, 0xcd, 0x15, 0x10, 0xe1, 0xf3, 0x25,
  0x1e, 0x15, 0x1b, 0xe4, 0x16, 0x7f, 0xab, 0xad, 0x04, 0xd2, 0x66, 0xb9,
  0xd2, 0x4f, 0xfe, 0x38, 0x44, 0x7f, 0x0a, 0x6f, 0xbe, 0x9a, 0xeb, 0xfe,
  0x54, 0x83, 0xa6, 0xfd, 0xb7, 0xd2, 0xe6, 0x81, 0x2d, 0xe9, 0xcb, 0x4e,
  0x30, 0x1b, 0x0c, 0x02, 0x14, 0x7f, 0xee, 0x25, 0x18, 0x07, 0xb1, 0x04,
  0xeb, 0xf0, 0xfe, 0xfe, 0x2b, 0xf9, 0xb1, 0xfb, 0xfd, 0xf4, 0xe9, 0xea,
  0xfe, 0x0b, 0xfb, 0x04, 0xc9, 0x1c, 0xdb, 0x0a, 0x25, 0xb8, 0x17, 0x03,
  0x01, 0x4b, 0xfe, 0xea, 0xd1, 0x3e, 0x0f, 0x02, 0xdf, 0xfa, 0x04, 0xf1,
  0x0a, 0x06, 0xf7, 0x19, 0x86, 0xf4, 0xff, 0xff, 0x04, 0x00, 0x00, 0x00,
  0xc0, 0x00, 0x00, 0x00, 0x70, 0x13, 0x00, 0x00, 0x40, 0x07, 0x00, 0x00,
  0x4a, 0x63, 0x00, 0x00, 0xfa, 0xf7, 0xff, 0xff, 0xea, 0xfb, 0xff, 0xff,
  0xfd, 0x14, 0x00, 0x00, 0x0f, 0xfe, 0xff, 0xff, 0xbc, 0x02, 0x00, 0x00,
  0x84, 0x08, 0x00, 0x00, 0xf7, 0xff, 0xff, 0xff, 0x12, 0x15, 0x00, 0x00,
  0xc0, 0x01, 0x00, 0x00, 0x8e, 0x09, 0x00, 0x00, 0xa7, 0x0d, 0x00, 0x00,
  0x6a, 0x08, 0x00, 0x00, 0x56, 0x0d, 0x00, 0x00, 0x3d, 0x09, 0x00, 0x00,
  0x7b, 0x08, 0x00, 0x00, 0xd2, 0xfc, 0xff, 0xff, 0x3c, 0x0d, 0x00, 0x00,
  0xfb, 0x04, 0x00, 0x00, 0x1a, 0x01, 0x00, 0x00, 0xbf, 0x04, 0x00, 0x00,
  0x37, 0x21, 0x00, 0x00, 0x66, 0x7c, 0x00, 0x00, 0xba, 0x0e, 0x00, 0x00,
  0xaf, 0x0c, 0x00, 0x00, 0xbb, 0xfb, 0xff, 0xff, 0x84, 0xff, 0xff, 0xff,
  0x6a, 0x13, 0x00, 0x00, 0x4c, 0x18, 0x00, 0x00, 0x01, 0x23, 0x00, 0x00,
  0x74, 0x29, 0x00, 0x00, 0xeb, 0x0d, 0x00, 0x00, 0x53, 0x1a, 0x00, 0x00,
  0xa5, 0xfb, 0xff, 0xff, 0x4a, 0x01, 0x00, 0x00, 0xb5, 0x08, 0x00, 0x00,
  0x5e, 0x19, 0x00, 0x00, 0xfa, 0x1a, 0x00, 0x00, 0x7c, 0x02, 0x00, 0x00,
  0xb1, 0x2a, 0x00, 0x00, 0x8c, 0x2d, 0x00, 0x00, 0x7b, 0x0b, 0x00, 0x00,
  0x7c, 0x18, 0x00, 0x00, 0x01, 0x06, 0x00, 0x00, 0x5a, 0x0d, 0x00, 0x00,
  0x77, 0x02, 0x00, 0x00, 0x52, 0xf5, 0xff, 0xff, 0x04, 0x00, 0x00, 0x00,
  0x80, 0x01, 0x00, 0x00, 0xeb, 0x28, 0x10, 0x81, 0xa1, 0x04, 0x1a, 0x78,
  0x6b, 0xfd, 0xf3, 0x09, 0xac, 0x3b, 0x7f, 0x1f, 0x02, 0x64, 0xd4, 0xe6,
  0xe6, 0x56, 0xd1, 0x81, 0x46, 0xb9, 0xad, 0x79, 0x81, 0xd9, 0xfa, 0xe9,
  0x2a, 0xc3, 0x2f, 0xec, 0x81, 0xff, 0x2f, 0x1b, 0xf2, 0x33, 0xf2, 0xa5,
  0x81, 0xfe, 0xe4, 0x0b, 0x37, 0xf1, 0x18, 0x16, 0x7f, 0xe7, 0xed, 0x85,
  0x08, 0x1b, 0x15, 0x7f, 0x13, 0xf7, 0xff, 0x18, 0x18, 0x19, 0x0e, 0xd1,
  0x1b, 0x7f, 0x0c, 0xe0, 0x7f, 0x17, 0xfa, 0x16, 0xcd, 0xc3, 0x78, 0x43,
  0x04, 0x40, 0xb5, 0xe2, 0x01, 0x7f, 0x5c, 0xbd, 0xf2, 0xd8, 0x81, 0x68,
  0xbc, 0x1a, 0xf1, 0x50, 0xa5, 0xb1, 0x39, 0x2f, 0x17, 0x81, 0xdc, 0x07,
  0x28, 0x23, 0x1c, 0x2d, 0xca, 0x7f, 0x0c, 0xd6, 0x09, 0xa3, 0xfd, 0xfc,
  0xca, 0xc3, 0x81, 0x5d, 0xac, 0x21, 0xf8, 0x04, 0x5c, 0xfe, 0x81, 0xd9,
  0x5a, 0x4a, 0x96, 0x81, 0x35, 0x73, 0x6e, 0x26, 0x98, 0x76, 0x81, 0x2d,
  0xf1, 0xe3, 0x1b, 0x8b, 0x21, 0xfc, 0xa1, 0x7f, 0xf8, 0xde, 0xd3, 0xc0,
  0x6c, 0x0a, 0x12, 0x21, 0xd6, 0x07, 0x7f, 0x2e, 0x21, 0xb4, 0xb0, 0x7f,
  0x26, 0xdb, 0xf1, 0xc5, 0x18, 0x3c, 0x7f, 0x97, 0x27, 0xe6, 0x1f, 0x98,
  0xaa, 0xdd, 0x81, 0x3e, 0xdd, 0x20, 0x0a, 0x76, 0x43, 0x0e, 0x24, 0x2f,
  0x81, 0x5c, 0x39, 0xd5, 0xf9, 0xfb, 0x81, 0x55, 0xd4, 0x1a, 0x30, 0x45,
  0x2a, 0xde, 0xb4, 0x7f, 0x2f, 0x04, 0xe5, 0xf4, 0xb5, 0x1d, 0x7f, 0x9b,
  0xe8, 0x1b, 0x3a, 0xf7, 0xb9, 0x53, 0x7f, 0x01, 0x15, 0xf7, 0x49, 0x16,
  0xc9, 0x94, 0x26, 0x81, 0xef, 0x08, 0x02, 0xe3, 0xb6, 0xba, 0xf3, 0x4c,
  0xfd, 0x81, 0xf2, 0x29, 0x83, 0x2f, 0x7f, 0xe9, 0x35, 0x2d, 0x3e, 0x1a,
  0xc3, 0x32, 0x59, 0x81, 0xd0, 0x11, 0x24, 0x42, 0xaf, 0x5e, 0x58, 0x94,
  0x06, 0x04, 0x15, 0x7f, 0x04, 0x74, 0xd5, 0x38, 0x13, 0x13, 0x81, 0xe6,
  0x5a, 0x0b, 0x7f, 0x8c, 0x95, 0x89, 0x30, 0xd2, 0x50, 0xfe, 0x19, 0x61,
  0x4f, 0xc1, 0x17, 0x81, 0x16, 0x4c, 0x7f, 0x8e, 0x20, 0xeb, 0x2f, 0x89,
  0xcc, 0xd2, 0x5f, 0x46, 0xfd, 0x81, 0x66, 0xf2, 0x52, 0x04, 0x44, 0x21,
  0xe3, 0xd2, 0x7f, 0x0c, 0x3a, 0xa5, 0xdf, 0x10, 0x81, 0x05, 0x53, 0x3d,
  0xd2, 0x22, 0x81, 0x78, 0xc5, 0x2a, 0xa4, 0x7d, 0x98, 0xe7, 0xcc, 0x02,
  0x7f, 0x0a, 0xa1, 0x13, 0xb6, 0x38, 0xed, 0xdd, 0x7f, 0x21, 0x9b, 0xca,
  0x7c, 0x70, 0xe5, 0x7f, 0x02, 0x98, 0x34, 0x48, 0xf3, 0x0e, 0x59, 0x0b,
  0x25, 0x81, 0x1a, 0xee, 0xfd, 0xb6, 0x7f, 0x4d, 0xe0, 0xe9, 0x8b, 0x0f,
  0x29, 0x98, 0x81, 0x2f, 0xab, 0x24, 0xf7, 0xef, 0x8b, 0xe0, 0x32, 0xfe,
  0x45, 0x23, 0x81, 0xe5, 0xde, 0xf6, 0xff, 0xff, 0x04, 0x00, 0x00, 0x00,
  0x20, 0x00, 0x00, 0x00, 0x77, 0xd1, 0xff, 0xff, 0x32, 0x02, 0x00, 0x00,
  0x69, 0xbf, 0xff, 0xff, 0x6d, 0x02, 0x00, 0x00, 0x6f, 0x08, 0x00, 0x00,
  0x20, 0xf5, 0xff, 0xff, 0x4c, 0x2e, 0x00, 0x00, 0x69, 0x05, 0x00, 0x00,
  0x0a, 0xf7, 0xff, 0xff, 0x04, 0x00, 0x00, 0x00, 0x80, 0x01, 0x00, 0x00,
  0x2f, 0x68, 0xd9, 0x47, 0xfe, 0xfb, 0xec, 0x0a, 0x3b, 0xc4, 0x02, 0xe4,
  0x0b, 0x0a, 0xdf, 0xcf, 0x03, 0xef, 0x1a, 0x11, 0xc8, 0xe2, 0xdc, 0x06,
  0x0c, 0x0d, 0x18, 0xfb, 0x0e, 0x08, 0xe8, 0x17, 0xc1, 0x09, 0x6e, 0x81,
  0xe9, 0x16, 0xf0, 0x70, 0xe1, 0x0f, 0x0b, 0xfc, 0xee, 0x22, 0x1b, 0xd4,
  0xfe, 0xcf, 0x23, 0x31, 0xf0, 0xf2, 0xef, 0xed, 0x2b, 0xdc, 0x61, 0x2b,
  0x0f, 0x0b, 0xd5, 0xb4, 0x7f, 0x24, 0x11, 0x0a, 0xbe, 0x1f, 0x25, 0xf7,
  0xcf, 0xa2, 0xde, 0xcf, 0xf4, 0xc4, 0x2b, 0xdb, 0xf3, 0xe6, 0xe6, 0x0c,
  0x05, 0xf1, 0x57, 0xd4, 0xf4, 0x20, 0xc3, 0x23, 0x52, 0x3e, 0x13, 0x31,
  0x53, 0xe1, 0xf5, 0xf5, 0x6b, 0x6b, 0x3c, 0x4b, 0xe3, 0xf6, 0xfb, 0xe0,
  0xfb, 0x31, 0x3a, 0x21, 0xeb, 0xdd, 0x3c, 0xbc, 0xd0, 0xcd, 0xd4, 0x3c,
  0x9f, 0x99, 0x76, 0x14, 0x3a, 0xbb, 0xc1, 0x0d, 0x81, 0x55, 0x71, 0x15,
  0xf8, 0xfd, 0xfa, 0x0f, 0x20, 0x4a, 0x12, 0xbc, 0xe4, 0x14, 0x3d, 0xd2,
  0x52, 0xde, 0x10, 0xf3, 0x7b, 0x7f, 0x1e, 0x2e, 0xdd, 0xe6, 0x1e, 0x36,
  0x88, 0x2b, 0x43, 0x16, 0x02, 0x0b, 0x46, 0x91, 0xa8, 0x12, 0x21, 0x59,
  0x09, 0xe2, 0x39, 0x19, 0x2e, 0xc3, 0xff, 0xf7, 0x90, 0x40, 0xc4, 0x8d,
  0x16, 0xd6, 0x3e, 0xca, 0x2e, 0xa4, 0x99, 0xe2, 0xbe, 0x23, 0xf1, 0x3b,
  0x24, 0x2a, 0xe4, 0xd7, 0xf2, 0xf3, 0xed, 0xed, 0x03, 0xfa, 0xfc, 0xf2,
  0xe1, 0xeb, 0x43, 0x37, 0xd9, 0xeb, 0xdf, 0x2e, 0x22, 0xf2, 0xf3, 0x03,
  0xd1, 0xd7, 0xf9, 0x37, 0xf3, 0x10, 0xeb, 0x1e, 0xdd, 0xef, 0x1a, 0x81,
  0xf2, 0x1b, 0x0e, 0x36, 0x07, 0xf4, 0xf3, 0xe7, 0x30, 0x04, 0x59, 0xeb,
  0x41, 0x3c, 0xa6, 0x2e, 0x09, 0x02, 0xf8, 0x1e, 0xae, 0xc8, 0xc6, 0xec,
  0x22, 0x15, 0x2b, 0x19, 0x25, 0xc2, 0x2a, 0x7f, 0xbd, 0xd1, 0xc7, 0x2f,
  0x1e, 0xeb, 0xda, 0x42, 0x23, 0x1f, 0xc8, 0x01, 0xfc, 0x00, 0xc6, 0x00,
  0xf8, 0x10, 0xe8, 0x43, 0x12, 0x4d, 0xfb, 0xd7, 0x76, 0x1a, 0x12, 0xc3,
  0xe1, 0xb8, 0x13, 0xd6, 0xd8, 0xd8, 0xb1, 0xb5, 0xdf, 0xc3, 0x89, 0x2a,
  0xc9, 0xce, 0x5c, 0x57, 0x81, 0x0c, 0x15, 0xeb, 0x0c, 0x3a, 0x46, 0x0b,
  0xf3, 0xf6, 0xbb, 0x56, 0xae, 0xd8, 0x29, 0x48, 0x0e, 0xc6, 0x56, 0x22,
  0x1b, 0x2b, 0xf1, 0xac, 0xf3, 0xc5, 0xe2, 0x0f, 0xcf, 0xea, 0xf5, 0x40,
  0x48, 0x13, 0xf1, 0x27, 0x11, 0x10, 0x0c, 0x03, 0x4e, 0xf6, 0xf5, 0xec,
  0x3b, 0x08, 0xf6, 0xed, 0xcd, 0xfb, 0xe0, 0x02, 0x03, 0xe9, 0xe8, 0xe2,
  0x43, 0x81, 0x0f, 0xfc, 0xff, 0x5b, 0xec, 0x13, 0xb4, 0x14, 0xc4, 0xd1,
  0xf0, 0x17, 0x19, 0x18, 0x13, 0x44, 0xdc, 0xed, 0xd8, 0x1b, 0x28, 0xe5,
  0x96, 0xf8, 0xff, 0xff, 0x04, 0x00, 0x00, 0x00, 0xc0, 0x00, 0x00, 0x00,
  0x79, 0x04, 0x00, 0x00, 0x16, 0x23, 0x00, 0x00, 0x52, 0x03, 0x00, 0x00,
  0x15, 0xfd, 0xff, 0xff, 0x26, 0xfe, 0xff, 0xff, 0xa2, 0xfe, 0xff, 0xff,
  0x5e, 0x1a, 0x00, 0x00, 0xc3, 0x1d, 0x00, 0x00, 0x2a, 0x05, 0x00, 0x00,
  0x82, 0xe2, 0xff, 0xff, 0x7a, 0xfc, 0xff, 0xff, 0xd3, 0xfb, 0xff, 0xff,
  0x93, 0x1a, 0x00, 0x00, 0x74, 0x10, 0x00, 0x00, 0x1e, 0x51, 0x00, 0x00,
  0xa0, 0x3f, 0x00, 0x00, 0x8d, 0xfc, 0xff, 0xff, 0xca, 0xf9, 0xff, 0xff,
  0xd1, 0x0a, 0x00, 0x00, 0x33, 0x1d, 0x00, 0x00, 0x69, 0x40, 0x00, 0x00,
  0x5f, 0xfc, 0xff, 0xff, 0x46, 0x01, 0x00, 0x00, 0xe2, 0xfc, 0xff, 0xff,
  0xaf, 0x19, 0x00, 0x00, 0xb9, 0x06, 0x00, 0x00, 0xe8, 0x10, 0x00, 0x00,
  0x8c, 0x48, 0x00, 0x00, 0x2e, 0x1c, 0x00, 0x00, 0x50, 0x31, 0x00, 0x00,
  0x0a, 0xfe, 0xff, 0xff, 0xda, 0x07, 0x00, 0x00, 0x4b, 0x00, 0x00, 0x00,
  0x4d, 0xea, 0xff, 0xff, 0xc5, 0xef, 0xff, 0xff, 0x8f, 0x04, 0x00, 0x00,
  0x11, 0x00, 0x00, 0x00, 0xd0, 0xff, 0xff, 0xff, 0xb8, 0x00, 0x00, 0x00,
  0xfb, 0x0f, 0x00, 0x00, 0xa7, 0x0e, 0x00, 0x00, 0x23, 0x12, 0x00, 0x00,
  0x5a, 0xe5, 0xff, 0xff, 0x18, 0x00, 0x00, 0x00, 0x56, 0x1b, 0x00, 0x00,
  0x4e, 0xfc, 0xff, 0xff, 0xe5, 0x27, 0x00, 0x00, 0xd3, 0xfc, 0xff, 0xff,
  0x62, 0xf9, 0xff, 0xff, 0x04, 0x00, 0x00, 0x00, 0xb0, 0x01, 0x00, 0x00,
  0xee, 0xa9, 0x95, 0x45, 0xab, 0x07, 0xab, 0xb3, 0x3a, 0x4c, 0x75, 0xdb,
  0xff, 0x05, 0xb4, 0xc5, 0x69, 0xab, 0x17, 0xce, 0xec, 0x9b, 0xd7, 0xb3,
  0x5a, 0x61, 0xfe, 0x8c, 0x01, 0xd4, 0x3e, 0x58, 0x37, 0x4d, 0x3f, 0x16,
  0x5a, 0x5a, 0x22, 0x09, 0x8c, 0xee, 0x26, 0x2e, 0xc9, 0x3f, 0xdb, 0xa1,
  0x54, 0xfa, 0x25, 0x46, 0x81, 0x2e, 0xc5, 0x07, 0x62, 0x7d, 0x70, 0x4a,
  0xf5, 0xb6, 0x81, 0x99, 0x7f, 0xdb, 0x61, 0xaf, 0x96, 0x7f, 0x7f, 0x23,
  0x7f, 0x5f, 0x2a, 0x99, 0xb2, 0xd4, 0x9e, 0x7f, 0x69, 0x7f, 0x60, 0x63,
  0xf0, 0x5e, 0x44, 0xb7, 0xb3, 0xae, 0x16, 0xce, 0xb5, 0x7d, 0xd0, 0x6a,
  0x64, 0x00, 0x3f, 0x35, 0xaf, 0x0c, 0xe2, 0xf6, 0x17, 0x45, 0x0d, 0xe3,
  0xbb, 0x05, 0xd0, 0xd1, 0x2a, 0x53, 0x35, 0xec, 0xbf, 0xeb, 0xa9, 0x51,
  0x25, 0x16, 0x15, 0xdf, 0xfd, 0xd8, 0x1b, 0x2d, 0x35, 0x5c, 0x0a, 0x3a,
  0xfd, 0x14, 0x34, 0xf8, 0xd1, 0xfe, 0x0e, 0x0f, 0xe1, 0x60, 0xef, 0xfd,
  0x26, 0x81, 0x79, 0x5f, 0x5d, 0xb9, 0x81, 0x81, 0x6d, 0x4b, 0x79, 0xd4,
  0x03, 0xf8, 0xa8, 0xac, 0x5d, 0x7f, 0x26, 0x94, 0xdb, 0x6d, 0x1c, 0x81,
  0x59, 0x7a, 0x6f, 0x81, 0xf7, 0x87, 0xbc, 0x60, 0x6e, 0x03, 0x67, 0x38,
  0x20, 0x7f, 0x3c, 0xfe, 0xf4, 0xe4, 0x67, 0x63, 0x94, 0x74, 0x8a, 0x74,
  0x7f, 0xf6, 0x05, 0x7f, 0x7e, 0x81, 0xa0, 0x02, 0x7f, 0x7f, 0x7f, 0x46,
  0xe0, 0x81, 0x9a, 0x81, 0x78, 0x3d, 0x7f, 0x81, 0x81, 0x8a, 0x91, 0x33,
  0x5e, 0x7f, 0x7f, 0x8a, 0x81, 0x81, 0x7f, 0x7e, 0x7f, 0x0b, 0x7f, 0x7f,
  0xfb, 0x7f, 0x7f, 0x81, 0x10, 0x81, 0x7f, 0xb2, 0x85, 0x7f, 0x81, 0x81,
  0x68, 0xfb, 0x81, 0x44, 0x58, 0xc2, 0xdb, 0xf8, 0x15, 0x3f, 0x14, 0xf2,
  0x81, 0x00, 0xe6, 0xe0, 0x26, 0xa0, 0x47, 0xd5, 0xba, 0x0a, 0x4e, 0x4f,
  0x2b, 0x33, 0x01, 0xd0, 0xf1, 0xad, 0xde, 0x18, 0x27, 0x02, 0x1f, 0x41,
  0x01, 0x18, 0x46, 0xfe, 0xed, 0xfa, 0x31, 0xfa, 0xc4, 0x3e, 0xc9, 0x11,
  0x31, 0xb0, 0xff, 0x1f, 0x03, 0x44, 0xad, 0xb0, 0x23, 0x0f, 0x3a, 0x3f,
  0x08, 0x05, 0xdf, 0xed, 0x09, 0xdb, 0x11, 0xb1, 0xf6, 0x03, 0x0b, 0xb1,
  0x0b, 0x1b, 0x49, 0xed, 0x04, 0x91, 0x0b, 0x0d, 0x4c, 0xba, 0x47, 0x15,
  0x81, 0x1f, 0x09, 0xfd, 0x19, 0xf7, 0x66, 0x81, 0xa1, 0x1f, 0xb2, 0xf7,
  0x2e, 0x05, 0xff, 0x3d, 0x0c, 0x5f, 0xe0, 0xfd, 0x1f, 0x35, 0x30, 0x81,
  0xed, 0xa8, 0xe3, 0xe3, 0x1c, 0xf6, 0x2e, 0x96, 0xe3, 0xf7, 0xe3, 0x23,
  0x0e, 0x29, 0x4d, 0xd8, 0xa9, 0x8c, 0xe5, 0x0d, 0x44, 0xb5, 0x45, 0x1e,
  0x14, 0x21, 0x3d, 0xcd, 0x7f, 0xc0, 0x7f, 0x66, 0x81, 0x26, 0x81, 0x15,
  0xe5, 0xf7, 0xfb, 0x25, 0xed, 0x27, 0xee, 0xfb, 0x0c, 0x0b, 0xe6, 0x32,
  0xbd, 0xfe, 0xfa, 0x05, 0xf9, 0x18, 0x21, 0xef, 0xe9, 0x19, 0x0e, 0x29,
  0x0f, 0x19, 0x14, 0x01, 0xfc, 0xc3, 0x0d, 0xec, 0x05, 0xdc, 0x12, 0x0e,
  0x07, 0xeb, 0x2a, 0x09, 0x3d, 0x01, 0x22, 0xf5, 0xd7, 0x16, 0xe4, 0xff,
  0x1e, 0xfb, 0xff, 0xff, 0x04, 0x00, 0x00, 0x00, 0xc0, 0x00, 0x00, 0x00,
  0x14, 0x2e, 0x00, 0x00, 0x6a, 0x13, 0x00, 0x00, 0x16, 0x2b, 0x00, 0x00,
  0x99, 0x0a, 0x00, 0x00, 0x8e, 0x0f, 0x00, 0x00, 0xd9, 0x0f, 0x00, 0x00,
  0xcf, 0xee, 0xff, 0xff, 0xdb, 0x10, 0x00, 0x00, 0xcb, 0x0a, 0x00, 0x00,
  0x02, 0xf5, 0xff, 0xff, 0x4c, 0xf4, 0xff, 0xff, 0xaa, 0x13, 0x00, 0x00,
  0x8e, 0xf2, 0xff, 0xff, 0x5c, 0xec, 0xff, 0xff, 0x8b, 0x22, 0x00, 0x00,
  0xbf, 0x06, 0x00, 0x00, 0x8c, 0xf7, 0xff, 0xff, 0xe3, 0x08, 0x00, 0x00,
  0xc1, 0xf9, 0xff, 0xff, 0xda, 0x0c, 0x00, 0x00, 0x04, 0x01, 0x00, 0x00,
  0x46, 0x13, 0x00, 0x00, 0xc1, 0x03, 0x00, 0x00, 0xa2, 0xf7, 0xff, 0xff,
  0x9b, 0xfd, 0xff, 0xff, 0xeb, 0xeb, 0xff, 0xff, 0x17, 0x0c, 0x00, 0x00,
  0x4e, 0xf2, 0xff, 0xff, 0xf1, 0x0e, 0x00, 0x00, 0xff, 0x1f, 0x00, 0x00,
  0x63, 0xfe, 0xff, 0xff, 0xa4, 0x01, 0x00, 0x00, 0xcb, 0x1d, 0x00, 0x00,
  0x8c, 0x2b, 0x00, 0x00, 0x9d, 0x24, 0x00, 0x00, 0x33, 0x12, 0x00, 0x00,
  0x7c, 0x17, 0x00, 0x00, 0x88, 0xed, 0xff, 0xff, 0x2f, 0x01, 0x00, 0x00,
  0xba, 0x12, 0x00, 0x00, 0x5a, 0xfa, 0xff, 0xff, 0x0f, 0xee, 0xff, 0xff,
  0x6a, 0x11, 0x00, 0x00, 0x1f, 0x07, 0x00, 0x00, 0x43, 0x01, 0x00, 0x00,
  0xa3, 0xe6, 0xff, 0xff, 0x8f, 0xd0, 0xff, 0xff, 0x39, 0x07, 0x00, 0x00,
  0xea, 0xfb, 0xff, 0xff, 0x04, 0x00, 0x00, 0x00, 0x80, 0x01, 0x00, 0x00,
  0x97, 0x92, 0x16, 0x81, 0xbe, 0x01, 0xfd, 0x01, 0x81, 0xf3, 0x5f, 0xff,
  0xd1, 0x14, 0x05, 0x0d, 0x0f, 0xf4, 0x17, 0x7f, 0x14, 0xeb, 0xeb, 0x00,
  0x97, 0xb2, 0xe6, 0xee, 0x26, 0x7f, 0xcf, 0xdf, 0xf7, 0xe3, 0xf8, 0xfb,
  0xf9, 0x0b, 0x81, 0xb5, 0xff, 0xdd, 0xf1, 0xff, 0xf6, 0x0c, 0x81, 0xb7,
  0x7f, 0x08, 0x0f, 0xf6, 0xc0, 0x13, 0x03, 0xfa, 0x81, 0xe7, 0xf1, 0x05,
  0x46, 0x0d, 0x00, 0x08, 0x16, 0x2c, 0xf2, 0xf5, 0xe1, 0x81, 0x28, 0x14,
  0x4b, 0x19, 0xf1, 0xf6, 0xe9, 0xff, 0xf8, 0x7f, 0x73, 0xf7, 0x86, 0x06,
  0xa5, 0xfa, 0x30, 0x7f, 0x81, 0x60, 0x05, 0xe2, 0x55, 0xc3, 0x09, 0x17,
  0x7f, 0xde, 0x97, 0x0d, 0x39, 0xfb, 0xfc, 0xe6, 0x7f, 0x0e, 0x0e, 0xf2,
  0xe1, 0x1b, 0x0b, 0xf0, 0x82, 0xa1, 0x69, 0xe8, 0x4c, 0xe9, 0xd3, 0x81,
  0x1f, 0x49, 0x02, 0xfc, 0xf5, 0x81, 0xed, 0x0b, 0xf6, 0xc1, 0x0a, 0x04,
  0x0b, 0x7f, 0x0c, 0x06, 0x1f, 0x88, 0xbb, 0xfd, 0xda, 0x7f, 0xc7, 0xf3,
  0x29, 0xeb, 0xef, 0xea, 0xed, 0x18, 0x7f, 0xf0, 0xfb, 0x17, 0xfd, 0x81,
  0xf3, 0x24, 0xfc, 0xf6, 0xb4, 0xe1, 0x49, 0x08, 0x39, 0x5f, 0xf7, 0x81,
  0xeb, 0xf9, 0x23, 0xe7, 0xec, 0x0e, 0x81, 0xa9, 0x4d, 0xf6, 0x0d, 0x7f,
  0xf3, 0xf2, 0x3b, 0x27, 0x7f, 0xee, 0x8f, 0xee, 0x23, 0xe1, 0x09, 0x05,
  0xe3, 0x17, 0x1a, 0x23, 0x0b, 0x04, 0x81, 0xaf, 0x7f, 0x0b, 0xad, 0x09,
  0x10, 0xf8, 0x08, 0x18, 0xfe, 0x32, 0xe2, 0x81, 0xe1, 0x14, 0x00, 0x02,
  0x7f, 0x0a, 0x9c, 0xfc, 0x9a, 0x29, 0x11, 0x54, 0x81, 0xec, 0xeb, 0x10,
  0x37, 0x0a, 0x00, 0x1e, 0xf6, 0x85, 0xf2, 0x81, 0xf6, 0x18, 0xec, 0xeb,
  0x04, 0x5e, 0x7f, 0x2b, 0x26, 0x9d, 0x73, 0x23, 0xb9, 0xfe, 0x81, 0x2a,
  0x03, 0xe9, 0x58, 0x64, 0xfe, 0x8c, 0x02, 0x81, 0xf7, 0x09, 0xf7, 0xed,
  0x0d, 0x81, 0x00, 0x8c, 0x06, 0x0b, 0x04, 0xe8, 0xe1, 0xcc, 0x1e, 0x9e,
  0x24, 0xc7, 0x7f, 0x4f, 0x81, 0x0a, 0x3a, 0x06, 0x97, 0xe5, 0x1a, 0x5e,
  0x81, 0x10, 0x75, 0xfc, 0xd9, 0x0e, 0xdd, 0x28, 0x7f, 0x0c, 0xfa, 0xf9,
  0xb7, 0x13, 0x00, 0x10, 0xac, 0x0c, 0x5c, 0x2b, 0x44, 0xcc, 0x3f, 0x7f,
  0x81, 0xfc, 0x49, 0xfe, 0xbe, 0x0b, 0xf8, 0x03, 0xfa, 0x1f, 0x2c, 0xf8,
  0x14, 0x00, 0x7f, 0x32, 0x7f, 0xf4, 0xb3, 0x02, 0x35, 0x0e, 0x06, 0xf7,
  0xf0, 0x81, 0x22, 0xf6, 0x12, 0x03, 0xff, 0xea, 0x06, 0x79, 0x7f, 0xf9,
  0x2e, 0xa7, 0x4a, 0x08, 0x05, 0xee, 0xfc, 0x7b, 0xff, 0x81, 0xfb, 0x06,
  0x7f, 0xdd, 0x21, 0xf7, 0xbf, 0x6c, 0x07, 0x04, 0x0d, 0x7f, 0xee, 0x64,
  0x02, 0x7a, 0x16, 0x24, 0xef, 0x22, 0x0c, 0xe3, 0x1d, 0xdf, 0x7f, 0x48,
  0x76, 0xfd, 0xff, 0xff, 0x04, 0x00, 0x00, 0x00, 0x20, 0x00, 0x00, 0x00,
  0xb7, 0x11, 0x00, 0x00, 0xb5, 0xed, 0xff, 0xff, 0xac, 0xff, 0xff, 0xff,
  0x6f, 0x0c, 0x00, 0x00, 0xed, 0x08, 0x00, 0x00, 0x29, 0x02, 0x00, 0x00,
  0x18, 0xf2, 0xff, 0xff, 0x19, 0x0b, 0x00, 0x00, 0xa2, 0xfd, 0xff, 0xff,
  0x04, 0x00, 0x00, 0x00, 0x40, 0x00, 0x00, 0x00, 0xe9, 0xfe, 0xd0, 0xdb,
  0xee, 0x25, 0x81, 0xf6, 0x0f, 0x59, 0xfd, 0x7f, 0x09, 0xf8, 0xf6, 0xdc,
  0x7f, 0xf7, 0xdd, 0xc3, 0xb9, 0x2e, 0x62, 0xc8, 0x0c, 0x81, 0x24, 0xb4,
  0x10, 0xab, 0x19, 0x37, 0x7f, 0xfc, 0xc7, 0xfa, 0x1f, 0xfe, 0x82, 0xd5,
  0x03, 0xe0, 0x03, 0x24, 0x02, 0x81, 0x00, 0x09, 0x7f, 0xe6, 0x77, 0x03,
  0x70, 0xe4, 0xfc, 0x0b, 0x81, 0xfd, 0xa4, 0xff, 0xa0, 0x07, 0x22, 0x08,
  0xee, 0xfd, 0xff, 0xff, 0x04, 0x00, 0x00, 0x00, 0x20, 0x00, 0x00, 0x00,
  0xde, 0xd4, 0xff, 0xff, 0x0e, 0x29, 0x00, 0x00, 0x9e, 0x00, 0x00, 0x00,
  0xb8, 0xd0, 0xff, 0xff, 0x68, 0xfe, 0xff, 0xff, 0x84, 0xcb, 0xff, 0xff,
  0xeb, 0x00, 0x00, 0x00, 0x5e, 0x00, 0x00, 0x00, 0x1a, 0xfe, 0xff, 0xff,
  0x04, 0x00, 0x00, 0x00, 0x48, 0x00, 0x00, 0x00, 0x01, 0x01, 0x0b, 0x12,
  0x09, 0x01, 0x09, 0x20, 0x08, 0x04, 0xda, 0x7f, 0xeb, 0xff, 0xfc, 0x1f,
  0xfe, 0x03, 0xfb, 0x11, 0xfd, 0x00, 0xfa, 0x1a, 0xfc, 0xfe, 0x7f, 0xe6,
  0x7f, 0x01, 0x91, 0x2f, 0x7f, 0x81, 0x99, 0x06, 0xa2, 0x7f, 0xf2, 0x81,
  0xe8, 0x03, 0x13, 0xe8, 0xfe, 0x01, 0x7f, 0x29, 0x00, 0x02, 0x0b, 0x05,
  0x09, 0x00, 0x10, 0x26, 0x02, 0x04, 0xd4, 0xfd, 0xef, 0x02, 0xf7, 0x9a,
  0xfc, 0x00, 0xfa, 0xfe, 0xfd, 0xfe, 0xfa, 0x2b, 0x6e, 0xfe, 0xff, 0xff,
  0x04, 0x00, 0x00, 0x00, 0x20, 0x00, 0x00, 0x00, 0x45, 0x2a, 0x00, 0x00,
  0x9d, 0x1c, 0x00, 0x00, 0xc9, 0xff, 0xff, 0xff, 0x47, 0x48, 0x00, 0x00,
  0xe6, 0x03, 0x00, 0x00, 0x29, 0x13, 0x00, 0x00, 0xac, 0xce, 0x00, 0x00,
  0xd4, 0x04, 0x00, 0x00, 0x9a, 0xfe, 0xff, 0xff, 0x04, 0x00, 0x00, 0x00,
  0x48, 0x00, 0x00, 0x00, 0xc7, 0x32, 0x09, 0x81, 0x79, 0x00, 0xd6, 0x2e,
  0x00, 0x3a, 0x7f, 0x23, 0xbd, 0xb1, 0xd4, 0x08, 0xd7, 0x06, 0x1f, 0x1c,
  0xd2, 0x35, 0x46, 0x81, 0x15, 0x20, 0xc6, 0x29, 0x33, 0x13, 0x33, 0x48,
  0x18, 0xaf, 0x81, 0xc6, 0x04, 0xcb, 0x30, 0x10, 0x81, 0x70, 0x05, 0xdb,
  0x20, 0x02, 0xc8, 0x00, 0xff, 0x7f, 0x02, 0x01, 0xb5, 0x00, 0xef, 0xa9,
  0x03, 0xe5, 0x81, 0xff, 0xef, 0xcc, 0x0a, 0x2c, 0x81, 0x1e, 0xed, 0xfc,
  0xf4, 0xe7, 0x49, 0xf3, 0xee, 0xfe, 0xff, 0xff, 0x04, 0x00, 0x00, 0x00,
  0x20, 0x00, 0x00, 0x00, 0x00, 0x00, 0x00, 0x00, 0x00, 0x00, 0x00, 0x00,
  0x00, 0x00, 0x00, 0x00, 0x01, 0x00, 0x00, 0x00, 0x00, 0x00, 0x00, 0x00,
  0x01, 0x00, 0x00, 0x00, 0x00, 0x00, 0x00, 0x00, 0x00, 0x00, 0x00, 0x00,
  0x78, 0x90, 0xff, 0xff, 0x7c, 0x90, 0xff, 0xff, 0x0f, 0x00, 0x00, 0x00,
  0x4d, 0x4c, 0x49, 0x52, 0x20, 0x43, 0x6f, 0x6e, 0x76, 0x65, 0x72, 0x74,
  0x65, 0x64, 0x2e, 0x00, 0x01, 0x00, 0x00, 0x00, 0x14, 0x00, 0x00, 0x00,
  0x00, 0x00, 0x0e, 0x00, 0x18, 0x00, 0x14, 0x00, 0x10, 0x00, 0x0c, 0x00,
  0x08, 0x00, 0x04, 0x00, 0x0e, 0x00, 0x00, 0x00, 0x14, 0x00, 0x00, 0x00,
  0x1c, 0x00, 0x00, 0x00, 0x64, 0x07, 0x00, 0x00, 0x68, 0x07, 0x00, 0x00,
  0x6c, 0x07, 0x00, 0x00, 0x04, 0x00, 0x00, 0x00, 0x6d, 0x61, 0x69, 0x6e,
  0x00, 0x00, 0x00, 0x00, 0x1c, 0x00, 0x00, 0x00, 0x00, 0x07, 0x00, 0x00,
  0x98, 0x06, 0x00, 0x00, 0x40, 0x06, 0x00, 0x00, 0x0c, 0x06, 0x00, 0x00,
  0xcc, 0x05, 0x00, 0x00, 0x98, 0x05, 0x00, 0x00, 0x3c, 0x05, 0x00, 0x00,
  0x00, 0x05, 0x00, 0x00, 0xc0, 0x04, 0x00, 0x00, 0x78, 0x04, 0x00, 0x00,
  0x3c, 0x04, 0x00, 0x00, 0x08, 0x04, 0x00, 0x00, 0xc8, 0x03, 0x00, 0x00,
  0x94, 0x03, 0x00, 0x00, 0x48, 0x03, 0x00, 0x00, 0x0c, 0x03, 0x00, 0x00,
  0xcc, 0x02, 0x00, 0x00, 0x84, 0x02, 0x00, 0x00, 0x48, 0x02, 0x00, 0x00,
  0x14, 0x02, 0x00, 0x00, 0xd4, 0x01, 0x00, 0x00, 0x8c, 0x01, 0x00, 0x00,
  0x50, 0x01, 0x00, 0x00, 0x1c, 0x01, 0x00, 0x00, 0xdc, 0x00, 0x00, 0x00,
  0x8c, 0x00, 0x00, 0x00, 0x40, 0x00, 0x00, 0x00, 0x04, 0x00, 0x00, 0x00,
  0xe2, 0xf9, 0xff, 0xff, 0x1c, 0x00, 0x00, 0x00, 0x00, 0x00, 0x00, 0x09,
  0x1c, 0x00, 0x00, 0x00, 0x20, 0x00, 0x00, 0x00, 0x04, 0x00, 0x00, 0x00,
  0x00, 0x00, 0x06, 0x00, 0x08, 0x00, 0x04, 0x00, 0x06, 0x00, 0x00, 0x00,
  0x00, 0x00, 0x80, 0x3f, 0x01, 0x00, 0x00, 0x00, 0x47, 0x00, 0x00, 0x00,
  0x01, 0x00, 0x00, 0x00, 0x46, 0x00, 0x00, 0x00, 0xb6, 0xf9, 0xff, 0xff,
  0x1c, 0x00, 0x00, 0x00, 0x00, 0x00, 0x00, 0x01, 0x24, 0x00, 0x00, 0x00,
  0x28, 0x00, 0x00, 0x00, 0x00, 0x00, 0x0a, 0x00, 0x10, 0x00, 0x0f, 0x00,
  0x08, 0x00, 0x04, 0x00, 0x0a, 0x00, 0x00, 0x00, 0x01, 0x00, 0x00, 0x00,
  0x01, 0x00, 0x00, 0x00, 0x00, 0x00, 0x00, 0x01, 0x01, 0x00, 0x00, 0x00,
  0x46, 0x00, 0x00, 0x00, 0x03, 0x00, 0x00, 0x00, 0x45, 0x00, 0x00, 0x00,
  0x2a, 0x00, 0x00, 0x00, 0x2b, 0x00, 0x00, 0x00, 0xfe, 0xf9, 0xff, 0xff,
  0x1c, 0x00, 0x00, 0x00, 0x00, 0x00, 0x00, 0x01, 0x28, 0x00, 0x00, 0x00,
  0x2c, 0x00, 0x00, 0x00, 0x0c, 0x00, 0x14, 0x00, 0x13, 0x00, 0x0c, 0x00,
  0x08, 0x00, 0x07, 0x00, 0x0c, 0x00, 0x00, 0x00, 0x00, 0x00, 0x00, 0x01,
  0x01, 0x00, 0x00, 0x00, 0x01, 0x00, 0x00, 0x00, 0x00, 0x00, 0x00, 0x01,
  0x01, 0x00, 0x00, 0x00, 0x45, 0x00, 0x00, 0x00, 0x03, 0x00, 0x00, 0x00,
  0x44, 0x00, 0x00, 0x00, 0x28, 0x00, 0x00, 0x00, 0x29, 0x00, 0x00, 0x00,
  0x4a, 0xfa, 0xff, 0xff, 0x10, 0x00, 0x00, 0x00, 0x00, 0x00, 0x00, 0x01,
  0x18, 0x00, 0x00, 0x00, 0x1c, 0x00, 0x00, 0x00, 0x3c, 0xfa, 0xff, 0xff,
  0x00, 0x00, 0x00, 0x03, 0x01, 0x00, 0x00, 0x00, 0x01, 0x00, 0x00, 0x00,
  0x01, 0x00, 0x00, 0x00, 0x44, 0x00, 0x00, 0x00, 0x03, 0x00, 0x00, 0x00,
  0x43, 0x00, 0x00, 0x00, 0x26, 0x00, 0x00, 0x00, 0x27, 0x00, 0x00, 0x00,
  0xea, 0xfa, 0xff, 0xff, 0x14, 0x00, 0x00, 0x00, 0x00, 0x00, 0x00, 0x0b,
  0x10, 0x00, 0x00, 0x00, 0x14, 0x00, 0x00, 0x00, 0x02, 0x00, 0x00, 0x00,
  0x64, 0x92, 0xff, 0xff, 0x01, 0x00, 0x00, 0x00, 0x43, 0x00, 0x00, 0x00,
  0x02, 0x00, 0x00, 0x00, 0x3f, 0x00, 0x00, 0x00, 0x42, 0x00, 0x00, 0x00,
  0xb6, 0xfa, 0xff, 0xff, 0x10, 0x00, 0x00, 0x00, 0x00, 0x00, 0x00, 0x01,
  0x14, 0x00, 0x00, 0x00, 0x18, 0x00, 0x00, 0x00, 0x5e, 0xfb, 0xff, 0xff,
  0x01, 0x00, 0x00, 0x00, 0x01, 0x00, 0x00, 0x00, 0x01, 0x00, 0x00, 0x00,
  0x42, 0x00, 0x00, 0x00, 0x03, 0x00, 0x00, 0x00, 0x41, 0x00, 0x00, 0x00,
  0x24, 0x00, 0x00, 0x00, 0x25, 0x00, 0x00, 0x00, 0x52, 0xfb, 0xff, 0xff,
  0x14, 0x00, 0x00, 0x00, 0x00, 0x00, 0x00, 0x02, 0x20, 0x00, 0x00, 0x00,
  0x24, 0x00, 0x00, 0x00, 0x01, 0x00, 0x00, 0x00, 0x42, 0xfb, 0xff, 0xff,
  0x00, 0x00, 0x00, 0x03, 0x01, 0x00, 0x00, 0x00, 0x01, 0x00, 0x00, 0x00,
  0x01, 0x00, 0x00, 0x00, 0x01, 0x00, 0x00, 0x00, 0x41, 0x00, 0x00, 0x00,
  0x03, 0x00, 0x00, 0x00, 0x40, 0x00, 0x00, 0x00, 0x22, 0x00, 0x00, 0x00,
  0x23, 0x00, 0x00, 0x00, 0x32, 0xfb, 0xff, 0xff, 0x10, 0x00, 0x00, 0x00,
  0x00, 0x00, 0x00, 0x01, 0x18, 0x00, 0x00, 0x00, 0x1c, 0x00, 0x00, 0x00,
  0x24, 0xfb, 0xff, 0xff, 0x00, 0x00, 0x00, 0x03, 0x01, 0x00, 0x00, 0x00,
  0x01, 0x00, 0x00, 0x00, 0x01, 0x00, 0x00, 0x00, 0x40, 0x00, 0x00, 0x00,
  0x03, 0x00, 0x00, 0x00, 0x3f, 0x00, 0x00, 0x00, 0x20, 0x00, 0x00, 0x00,
  0x21, 0x00, 0x00, 0x00, 0xd2, 0xfb, 0xff, 0xff, 0x14, 0x00, 0x00, 0x00,
  0x00, 0x00, 0x00, 0x0b, 0x10, 0x00, 0x00, 0x00, 0x14, 0x00, 0x00, 0x00,
  0x02, 0x00, 0x00, 0x00, 0x4c, 0x93, 0xff, 0xff, 0x01, 0x00, 0x00, 0x00,
  0x3f, 0x00, 0x00, 0x00, 0x02, 0x00, 0x00, 0x00, 0x3b, 0x00, 0x00, 0x00,
  0x3e, 0x00, 0x00, 0x00, 0x9e, 0xfb, 0xff, 0xff, 0x10, 0x00, 0x00, 0x00,
  0x00, 0x00, 0x00, 0x01, 0x14, 0x00, 0x00, 0x00, 0x18, 0x00, 0x00, 0x00,
  0x46, 0xfc, 0xff, 0xff, 0x01, 0x00, 0x00, 0x00, 0x01, 0x00, 0x00, 0x00,
  0x01, 0x00, 0x00, 0x00, 0x3e, 0x00, 0x00, 0x00, 0x03, 0x00, 0x00, 0x00,
  0x3d, 0x00, 0x00, 0x00, 0x1e, 0x00, 0x00, 0x00, 0x1f, 0x00, 0x00, 0x00,
  0x3a, 0xfc, 0xff, 0xff, 0x14, 0x00, 0x00, 0x00, 0x00, 0x00, 0x00, 0x02,
  0x20, 0x00, 0x00, 0x00, 0x24, 0x00, 0x00, 0x00, 0x01, 0x00, 0x00, 0x00,
  0x2a, 0xfc, 0xff, 0xff, 0x00, 0x00, 0x00, 0x03, 0x01, 0x00, 0x00, 0x00,
  0x01, 0x00, 0x00, 0x00, 0x01, 0x00, 0x00, 0x00, 0x01, 0x00, 0x00, 0x00,
  0x3d, 0x00, 0x00, 0x00, 0x03, 0x00, 0x00, 0x00, 0x3c, 0x00, 0x00, 0x00,
  0x1c, 0x00, 0x00, 0x00, 0x1d, 0x00, 0x00, 0x00, 0x1a, 0xfc, 0xff, 0xff,
  0x10, 0x00, 0x00, 0x00, 0x00, 0x00, 0x00, 0x01, 0x18, 0x00, 0x00, 0x00,
  0x1c, 0x00, 0x00, 0x00, 0x0c, 0xfc, 0xff, 0xff, 0x00, 0x00, 0x00, 0x03,
  0x01, 0x00, 0x00, 0x00, 0x01, 0x00, 0x00, 0x00, 0x01, 0x00, 0x00, 0x00,
  0x3c, 0x00, 0x00, 0x00, 0x03, 0x00, 0x00, 0x00, 0x3b, 0x00, 0x00, 0x00,
  0x1a, 0x00, 0x00, 0x00, 0x1b, 0x00, 0x00, 0x00, 0x56, 0xfc, 0xff, 0xff,
  0x10, 0x00, 0x00, 0x00, 0x00, 0x00, 0x00, 0x01, 0x14, 0x00, 0x00, 0x00,
  0x18, 0x00, 0x00, 0x00, 0xfe, 0xfc, 0xff, 0xff, 0x01, 0x00, 0x00, 0x00,
  0x01, 0x00, 0x00, 0x00, 0x01, 0x00, 0x00, 0x00, 0x3b, 0x00, 0x00, 0x00,
  0x03, 0x00, 0x00, 0x00, 0x3a, 0x00, 0x00, 0x00, 0x18, 0x00, 0x00, 0x00,
  0x19, 0x00, 0x00, 0x00, 0xf2, 0xfc, 0xff, 0xff, 0x14, 0x00, 0x00, 0x00,
  0x00, 0x00, 0x00, 0x02, 0x24, 0x00, 0x00, 0x00, 0x28, 0x00, 0x00, 0x00,
  0x01, 0x00, 0x00, 0x00, 0x2a, 0xfe, 0xff, 0xff, 0x00, 0x00, 0x00, 0x03,
  0x01, 0x00, 0x00, 0x00, 0x02, 0x00, 0x00, 0x00, 0x02, 0x00, 0x00, 0x00,
  0x00, 0x00, 0x00, 0x01, 0x01, 0x00, 0x00, 0x00, 0x3a, 0x00, 0x00, 0x00,
  0x03, 0x00, 0x00, 0x00, 0x39, 0x00, 0x00, 0x00, 0x16, 0x00, 0x00, 0x00,
  0x17, 0x00, 0x00, 0x00, 0x3a, 0xfd, 0xff, 0xff, 0x14, 0x00, 0x00, 0x00,
  0x00, 0x00, 0x00, 0x16, 0x10, 0x00, 0x00, 0x00, 0x14, 0x00, 0x00, 0x00,
  0x03, 0x00, 0x00, 0x00, 0xb4, 0x94, 0xff, 0xff, 0x01, 0x00, 0x00, 0x00,
  0x39, 0x00, 0x00, 0x00, 0x02, 0x00, 0x00, 0x00, 0x38, 0x00, 0x00, 0x00,
  0x01, 0x00, 0x00, 0x00, 0x06, 0xfd, 0xff, 0xff, 0x10, 0x00, 0x00, 0x00,
  0x00, 0x00, 0x00, 0x01, 0x18, 0x00, 0x00, 0x00, 0x1c, 0x00, 0x00, 0x00,
  0xf8, 0xfc, 0xff, 0xff, 0x00, 0x00, 0x00, 0x03, 0x01, 0x00, 0x00, 0x00,
  0x01, 0x00, 0x00, 0x00, 0x01, 0x00, 0x00, 0x00, 0x38, 0x00, 0x00, 0x00,
  0x03, 0x00, 0x00, 0x00, 0x37, 0x00, 0x00, 0x00, 0x14, 0x00, 0x00, 0x00,
  0x15, 0x00, 0x00, 0x00, 0xa6, 0xfd, 0xff, 0xff, 0x14, 0x00, 0x00, 0x00,
  0x00, 0x00, 0x00, 0x0b, 0x10, 0x00, 0x00, 0x00, 0x14, 0x00, 0x00, 0x00,
  0x02, 0x00, 0x00, 0x00, 0x20, 0x95, 0xff, 0xff, 0x01, 0x00, 0x00, 0x00,
  0x37, 0x00, 0x00, 0x00, 0x02, 0x00, 0x00, 0x00, 0x33, 0x00, 0x00, 0x00,
  0x36, 0x00, 0x00, 0x00, 0x72, 0xfd, 0xff, 0xff, 0x10, 0x00, 0x00, 0x00,
  0x00, 0x00, 0x00, 0x01, 0x14, 0x00, 0x00, 0x00, 0x18, 0x00, 0x00, 0x00,
  0x1a, 0xfe, 0xff, 0xff, 0x01, 0x00, 0x00, 0x00, 0x01, 0x00, 0x00, 0x00,
  0x01, 0x00, 0x00, 0x00, 0x36, 0x00, 0x00, 0x00, 0x03, 0x00, 0x00, 0x00,
  0x35, 0x00, 0x00, 0x00, 0x12, 0x00, 0x00, 0x00, 0x13, 0x00, 0x00, 0x00,
  0x0e, 0xfe, 0xff, 0xff, 0x14, 0x00, 0x00, 0x00, 0x00, 0x00, 0x00, 0x02,
  0x20, 0x00, 0x00, 0x00, 0x24, 0x00, 0x00, 0x00, 0x01, 0x00, 0x00, 0x00,
  0xfe, 0xfd, 0xff, 0xff, 0x00, 0x00, 0x00, 0x03, 0x01, 0x00, 0x00, 0x00,
  0x01, 0x00, 0x00, 0x00, 0x01, 0x00, 0x00, 0x00, 0x01, 0x00, 0x00, 0x00,
  0x35, 0x00, 0x00, 0x00, 0x03, 0x00, 0x00, 0x00, 0x34, 0x00, 0x00, 0x00,
  0x10, 0x00, 0x00, 0x00, 0x11, 0x00, 0x00, 0x00, 0xee, 0xfd, 0xff, 0xff,
  0x10, 0x00, 0x00, 0x00, 0x00, 0x00, 0x00, 0x01, 0x18, 0x00, 0x00, 0x00,
  0x1c, 0x00, 0x00, 0x00, 0xe0, 0xfd, 0xff, 0xff, 0x00, 0x00, 0x00, 0x03,
  0x01, 0x00, 0x00, 0x00, 0x01, 0x00, 0x00, 0x00, 0x01, 0x00, 0x00, 0x00,
  0x34, 0x00, 0x00, 0x00, 0x03, 0x00, 0x00, 0x00, 0x33, 0x00, 0x00, 0x00,
  0x0e, 0x00, 0x00, 0x00, 0x0f, 0x00, 0x00, 0x00, 0x2a, 0xfe, 0xff, 0xff,
  0x10, 0x00, 0x00, 0x00, 0x00, 0x00, 0x00, 0x01, 0x14, 0x00, 0x00, 0x00,
  0x18, 0x00, 0x00, 0x00, 0xd2, 0xfe, 0xff, 0xff, 0x01, 0x00, 0x00, 0x00,
  0x01, 0x00, 0x00, 0x00, 0x01, 0x00, 0x00, 0x00, 0x33, 0x00, 0x00, 0x00,
  0x03, 0x00, 0x00, 0x00, 0x32, 0x00, 0x00, 0x00, 0x0c, 0x00, 0x00, 0x00,
  0x0d, 0x00, 0x00, 0x00, 0xc6, 0xfe, 0xff, 0xff, 0x24, 0x00, 0x00, 0x00,
  0x00, 0x00, 0x00, 0x02, 0x34, 0x00, 0x00, 0x00, 0x38, 0x00, 0x00, 0x00,
  0x01, 0x00, 0x00, 0x00, 0x00, 0x00, 0x0e, 0x00, 0x18, 0x00, 0x17, 0x00,
  0x10, 0x00, 0x0c, 0x00, 0x08, 0x00, 0x07, 0x00, 0x0e, 0x00, 0x00, 0x00,
  0x00, 0x00, 0x00, 0x03, 0x01, 0x00, 0x00, 0x00, 0x02, 0x00, 0x00, 0x00,
  0x02, 0x00, 0x00, 0x00, 0x00, 0x00, 0x00, 0x01, 0x01, 0x00, 0x00, 0x00,
  0x32, 0x00, 0x00, 0x00, 0x03, 0x00, 0x00, 0x00, 0x31, 0x00, 0x00, 0x00,
  0x0a, 0x00, 0x00, 0x00, 0x0b, 0x00, 0x00, 0x00, 0x1e, 0xff, 0xff, 0xff,
  0x14, 0x00, 0x00, 0x00, 0x00, 0x00, 0x00, 0x16, 0x10, 0x00, 0x00, 0x00,
  0x14, 0x00, 0x00, 0x00, 0x03, 0x00, 0x00, 0x00, 0x98, 0x96, 0xff, 0xff,
  0x01, 0x00, 0x00, 0x00, 0x31, 0x00, 0x00, 0x00, 0x02, 0x00, 0x00, 0x00,
  0x30, 0x00, 0x00, 0x00, 0x01, 0x00, 0x00, 0x00, 0xea, 0xfe, 0xff, 0xff,
  0x10, 0x00, 0x00, 0x00, 0x00, 0x00, 0x00, 0x01, 0x18, 0x00, 0x00, 0x00,
  0x1c, 0x00, 0x00, 0x00, 0xdc, 0xfe, 0xff, 0xff, 0x00, 0x00, 0x00, 0x03,
  0x01, 0x00, 0x00, 0x00, 0x01, 0x00, 0x00, 0x00, 0x01, 0x00, 0x00, 0x00,
  0x30, 0x00, 0x00, 0x00, 0x03, 0x00, 0x00, 0x00, 0x2f, 0x00, 0x00, 0x00,
  0x08, 0x00, 0x00, 0x00, 0x09, 0x00, 0x00, 0x00, 0x8a, 0xff, 0xff, 0xff,
  0x14, 0x00, 0x00, 0x00, 0x00, 0x00, 0x00, 0x0b, 0x10, 0x00, 0x00, 0x00,
  0x14, 0x00, 0x00, 0x00, 0x02, 0x00, 0x00, 0x00, 0x04, 0x97, 0xff, 0xff,
  0x01, 0x00, 0x00, 0x00, 0x2f, 0x00, 0x00, 0x00, 0x02, 0x00, 0x00, 0x00,
  0x2c, 0x00, 0x00, 0x00, 0x2e, 0x00, 0x00, 0x00, 0x56, 0xff, 0xff, 0xff,
  0x1c, 0x00, 0x00, 0x00, 0x00, 0x00, 0x00, 0x01, 0x20, 0x00, 0x00, 0x00,
  0x24, 0x00, 0x00, 0x00, 0x00, 0x00, 0x0a, 0x00, 0x0c, 0x00, 0x00, 0x00,
  0x08, 0x00, 0x04, 0x00, 0x0a, 0x00, 0x00, 0x00, 0x01, 0x00, 0x00, 0x00,
  0x01, 0x00, 0x00, 0x00, 0x01, 0x00, 0x00, 0x00, 0x2e, 0x00, 0x00, 0x00,
  0x03, 0x00, 0x00, 0x00, 0x2d, 0x00, 0x00, 0x00, 0x06, 0x00, 0x00, 0x00,
  0x07, 0x00, 0x00, 0x00, 0x00, 0x00, 0x0e, 0x00, 0x1a, 0x00, 0x14, 0x00,
  0x10, 0x00, 0x0c, 0x00, 0x0b, 0x00, 0x04, 0x00, 0x0e, 0x00, 0x00, 0x00,
  0x24, 0x00, 0x00, 0x00, 0x00, 0x00, 0x00, 0x02, 0x30, 0x00, 0x00, 0x00,
  0x34, 0x00, 0x00, 0x00, 0x01, 0x00, 0x00, 0x00, 0x00, 0x00, 0x0e, 0x00,
  0x14, 0x00, 0x00, 0x00, 0x10, 0x00, 0x0c, 0x00, 0x08, 0x00, 0x07, 0x00,
  0x0e, 0x00, 0x00, 0x00, 0x00, 0x00, 0x00, 0x03, 0x01, 0x00, 0x00, 0x00,
  0x01, 0x00, 0x00, 0x00, 0x01, 0x00, 0x00, 0x00, 0x01, 0x00, 0x00, 0x00,
  0x2d, 0x00, 0x00, 0x00, 0x03, 0x00, 0x00, 0x00, 0x2c, 0x00, 0x00, 0x00,
  0x04, 0x00, 0x00, 0x00, 0x05, 0x00, 0x00, 0x00, 0x00, 0x00, 0x0e, 0x00,
  0x14, 0x00, 0x00, 0x00, 0x10, 0x00, 0x0c, 0x00, 0x0b, 0x00, 0x04, 0x00,
  0x0e, 0x00, 0x00, 0x00, 0x1c, 0x00, 0x00, 0x00, 0x00, 0x00, 0x00, 0x01,
  0x24, 0x00, 0x00, 0x00, 0x28, 0x00, 0x00, 0x00, 0x0c, 0x00, 0x10, 0x00,
  0x00, 0x00, 0x0c, 0x00, 0x08, 0x00, 0x07, 0x00, 0x0c, 0x00, 0x00, 0x00,
  0x00, 0x00, 0x00, 0x03, 0x02, 0x00, 0x00, 0x00, 0x02, 0x00, 0x00, 0x00,
  0x01, 0x00, 0x00, 0x00, 0x2c, 0x00, 0x00, 0x00, 0x03, 0x00, 0x00, 0x00,
  0x00, 0x00, 0x00, 0x00, 0x02, 0x00, 0x00, 0x00, 0x03, 0x00, 0x00, 0x00,
  0x01, 0x00, 0x00, 0x00, 0x47, 0x00, 0x00, 0x00, 0x01, 0x00, 0x00, 0x00,
  0x00, 0x00, 0x00, 0x00, 0x48, 0x00, 0x00, 0x00, 0x1c, 0x68, 0x00, 0x00,
  0xb4, 0x67, 0x00, 0x00, 0xf0, 0x66, 0x00, 0x00, 0x2c, 0x66, 0x00, 0x00,
  0xe8, 0x64, 0x00, 0x00, 0x14, 0x64, 0x00, 0x00, 0x40, 0x63, 0x00, 0x00,
  0x2c, 0x62, 0x00, 0x00, 0x80, 0x5f, 0x00, 0x00, 0xd4, 0x5c, 0x00, 0x00,
  0xd4, 0x59, 0x00, 0x00, 0x24, 0x57, 0x00, 0x00, 0x58, 0x56, 0x00, 0x00,
  0x4c, 0x55, 0x00, 0x00, 0xa0, 0x52, 0x00, 0x00, 0xf4, 0x4f, 0x00, 0x00,
  0xf4, 0x4c, 0x00, 0x00, 0x44, 0x4a, 0x00, 0x00, 0x78, 0x49, 0x00, 0x00,
  0x6c, 0x48, 0x00, 0x00, 0xc0, 0x45, 0x00, 0x00, 0x14, 0x43, 0x00, 0x00,
  0x14, 0x40, 0x00, 0x00, 0x64, 0x3d, 0x00, 0x00, 0x98, 0x3c, 0x00, 0x00,
  0x8c, 0x3b, 0x00, 0x00, 0xe0, 0x38, 0x00, 0x00, 0x34, 0x36, 0x00, 0x00,
  0x34, 0x33, 0x00, 0x00, 0x84, 0x30, 0x00, 0x00, 0xb8, 0x2f, 0x00, 0x00,
  0xac, 0x2e, 0x00, 0x00, 0x00, 0x2c, 0x00, 0x00, 0x54, 0x29, 0x00, 0x00,
  0x54, 0x26, 0x00, 0x00, 0xa4, 0x23, 0x00, 0x00, 0xd8, 0x22, 0x00, 0x00,
  0xec, 0x21, 0x00, 0x00, 0x40, 0x1f, 0x00, 0x00, 0x94, 0x1c, 0x00, 0x00,
  0xb8, 0x1a, 0x00, 0x00, 0xec, 0x18, 0x00, 0x00, 0x68, 0x18, 0x00, 0x00,
  0xcc, 0x17, 0x00, 0x00, 0xa8, 0x16, 0x00, 0x00, 0xac, 0x15, 0x00, 0x00,
  0xe0, 0x14, 0x00, 0x00, 0x6c, 0x14, 0x00, 0x00, 0x38, 0x13, 0x00, 0x00,
  0xcc, 0x12, 0x00, 0x00, 0x90, 0x11, 0x00, 0x00, 0xcc, 0x10, 0x00, 0x00,
  0x98, 0x0f, 0x00, 0x00, 0x5c, 0x0e, 0x00, 0x00, 0x98, 0x0d, 0x00, 0x00,
  0x2c, 0x0d, 0x00, 0x00, 0xf8, 0x0b, 0x00, 0x00, 0x8c, 0x0b, 0x00, 0x00,
  0x50, 0x0a, 0x00, 0x00, 0x8c, 0x09, 0x00, 0x00, 0x58, 0x08, 0x00, 0x00,
  0x1c, 0x07, 0x00, 0x00, 0x58, 0x06, 0x00, 0x00, 0xec, 0x05, 0x00, 0x00,
  0xb8, 0x04, 0x00, 0x00, 0xcc, 0x03, 0x00, 0x00, 0x28, 0x03, 0x00, 0x00,
  0xbc, 0x02, 0x00, 0x00, 0xa8, 0x01, 0x00, 0x00, 0x0c, 0x01, 0x00, 0x00,
  0x78, 0x00, 0x00, 0x00, 0x04, 0x00, 0x00, 0x00, 0x12, 0x99, 0xff, 0xff,
  0x14, 0x00, 0x00, 0x00, 0x34, 0x00, 0x00, 0x00, 0x48, 0x00, 0x00, 0x00,
  0x00, 0x00, 0x00, 0x09, 0x48, 0x00, 0x00, 0x00, 0x04, 0x99, 0xff, 0xff,
  0x08, 0x00, 0x00, 0x00, 0x14, 0x00, 0x00, 0x00, 0x01, 0x00, 0x00, 0x00,
  0x80, 0xff, 0xff, 0xff, 0xff, 0xff, 0xff, 0xff, 0x00, 0x00, 0x00, 0x00,
  0x01, 0x00, 0x00, 0x00, 0x00, 0x00, 0x80, 0x3b, 0x19, 0x00, 0x00, 0x00,
  0x53, 0x74, 0x61, 0x74, 0x65, 0x66, 0x75, 0x6c, 0x50, 0x61, 0x72, 0x74,
  0x69, 0x74, 0x69, 0x6f, 0x6e, 0x65, 0x64, 0x43, 0x61, 0x6c, 0x6c, 0x3a,
  0x30, 0x00, 0x00, 0x00, 0x04, 0x00, 0x00, 0x00, 0x01, 0x00, 0x00, 0x00,
  0x0c, 0x00, 0x00, 0x00, 0x0c, 0x00, 0x00, 0x00, 0x03, 0x00, 0x00, 0x00,
  0x82, 0x99, 0xff, 0xff, 0x14, 0x00, 0x00, 0x00, 0x34, 0x00, 0x00, 0x00,
  0x47, 0x00, 0x00, 0x00, 0x00, 0x00, 0x00, 0x09, 0x68, 0x00, 0x00, 0x00,
  0x74, 0x99, 0xff, 0xff, 0x08, 0x00, 0x00, 0x00, 0x14, 0x00, 0x00, 0x00,
  0x01, 0x00, 0x00, 0x00, 0x08, 0x00, 0x00, 0x00, 0x00, 0x00, 0x00, 0x00,
  0x00, 0x00, 0x00, 0x00, 0x01, 0x00, 0x00, 0x00, 0x89, 0x06, 0x89, 0x3d,
  0x39, 0x00, 0x00, 0x00, 0x6d, 0x6f, 0x64, 0x65, 0x6c, 0x5f, 0x31, 0x2f,
  0x6c, 0x6f, 0x67, 0x69, 0x74, 0x73, 0x2f, 0x42, 0x69, 0x61, 0x73, 0x41,
  0x64, 0x64, 0x3b, 0x6d, 0x6f, 0x64, 0x65, 0x6c, 0x5f, 0x31, 0x2f, 0x6c,
  0x6f, 0x67, 0x69, 0x74, 0x73, 0x2f, 0x43, 0x6f, 0x6e, 0x76, 0x32, 0x44,
  0x3b, 0x6c, 0x6f, 0x67, 0x69, 0x74, 0x73, 0x2f, 0x62, 0x69, 0x61, 0x73,
  0x31, 0x00, 0x00, 0x00, 0x04, 0x00, 0x00, 0x00, 0x01, 0x00, 0x00, 0x00,
  0x0c, 0x00, 0x00, 0x00, 0x0c, 0x00, 0x00, 0x00, 0x03, 0x00, 0x00, 0x00,
  0x12, 0x9a, 0xff, 0xff, 0x14, 0x00, 0x00, 0x00, 0x30, 0x00, 0x00, 0x00,
  0x46, 0x00, 0x00, 0x00, 0x00, 0x00, 0x00, 0x09, 0x70, 0x00, 0x00, 0x00,
  0x04, 0x9a, 0xff, 0xff, 0x08, 0x00, 0x00, 0x00, 0x10, 0x00, 0x00, 0x00,
  0x01, 0x00, 0x00, 0x00, 0x80, 0xff, 0xff, 0xff, 0xff, 0xff, 0xff, 0xff,
  0x01, 0x00, 0x00, 0x00, 0x85, 0x6c, 0xc0, 0x3c, 0x44, 0x00, 0x00, 0x00,
  0x6d, 0x6f, 0x64, 0x65, 0x6c, 0x5f, 0x31, 0x2f, 0x68, 0x65, 0x61, 0x64,
  0x2f, 0x52, 0x65, 0x6c, 0x75, 0x3b, 0x6d, 0x6f, 0x64, 0x65, 0x6c, 0x5f,
  0x31, 0x2f, 0x68, 0x65, 0x61, 0x64, 0x2f, 0x42, 0x69, 0x61, 0x73, 0x41,
  0x64, 0x64, 0x3b, 0x6d, 0x6f, 0x64, 0x65, 0x6c, 0x5f, 0x31, 0x2f, 0x68,
  0x65, 0x61, 0x64, 0x2f, 0x43, 0x6f, 0x6e, 0x76, 0x32, 0x44, 0x3b, 0x68,
  0x65, 0x61, 0x64, 0x2f, 0x62, 0x69, 0x61, 0x73, 0x00, 0x00, 0x00, 0x00,
  0x04, 0x00, 0x00, 0x00, 0x01, 0x00, 0x00, 0x00, 0x0c, 0x00, 0x00, 0x00,
  0x0c, 0x00, 0x00, 0x00, 0x20, 0x00, 0x00, 0x00, 0xaa, 0x9a, 0xff, 0xff,
  0x14, 0x00, 0x00, 0x00, 0x30, 0x00, 0x00, 0x00, 0x45, 0x00, 0x00, 0x00,
  0x00, 0x00, 0x00, 0x09, 0xe8, 0x00, 0x00, 0x00, 0x9c, 0x9a, 0xff, 0xff,
  0x08, 0x00, 0x00, 0x00, 0x10, 0x00, 0x00, 0x00, 0x01, 0x00, 0x00, 0x00,
  0x80, 0xff, 0xff, 0xff, 0xff, 0xff, 0xff, 0xff, 0x01, 0x00, 0x00, 0x00,
  0xbe, 0x94, 0x96, 0x3c, 0xbc, 0x00, 0x00, 0x00, 0x6d, 0x6f, 0x64, 0x65,
  0x6c, 0x5f, 0x31, 0x2f, 0x62, 0x6c, 0x6f, 0x63, 0x6b, 0x5f, 0x36, 0x5f,
  0x65, 0x78, 0x70, 0x61, 0x6e, 0x64, 0x5f, 0x72, 0x65, 0x6c, 0x75, 0x2f,
  0x52, 0x65, 0x6c, 0x75, 0x36, 0x3b, 0x6d, 0x6f, 0x64, 0x65, 0x6c, 0x5f,
  0x31, 0x2f, 0x62, 0x6c, 0x6f, 0x63, 0x6b, 0x5f, 0x36, 0x5f, 0x65, 0x78,
  0x70, 0x61, 0x6e, 0x64, 0x5f, 0x42, 0x4e, 0x2f, 0x46, 0x75, 0x73, 0x65,
  0x64, 0x42, 0x61, 0x74, 0x63, 0x68, 0x4e, 0x6f, 0x72, 0x6d, 0x56, 0x33,
  0x3b, 0x6d, 0x6f, 0x64, 0x65, 0x6c, 0x5f, 0x31, 0x2f, 0x62, 0x6c, 0x6f,
  0x63, 0x6b, 0x5f, 0x35, 0x5f, 0x64, 0x65, 0x70, 0x74, 0x68, 0x77, 0x69,
  0x73, 0x65, 0x5f, 0x42, 0x4e, 0x2f, 0x46, 0x75, 0x73, 0x65, 0x64, 0x42,
  0x61, 0x74, 0x63, 0x68, 0x4e, 0x6f, 0x72, 0x6d, 0x56, 0x33, 0x3b, 0x6d,
  0x6f, 0x64, 0x65, 0x6c, 0x5f, 0x31, 0x2f, 0x62, 0x6c, 0x6f, 0x63, 0x6b,
  0x5f, 0x35, 0x5f, 0x64, 0x65, 0x70, 0x74, 0x68, 0x77, 0x69, 0x73, 0x65,
  0x2f, 0x64, 0x65, 0x70, 0x74, 0x68, 0x77, 0x69, 0x73, 0x65, 0x3b, 0x6d,
  0x6f, 0x64, 0x65, 0x6c, 0x5f, 0x31, 0x2f, 0x62, 0x6c, 0x6f, 0x63, 0x6b,
  0x5f, 0x36, 0x5f, 0x65, 0x78, 0x70, 0x61, 0x6e, 0x64, 0x2f, 0x43, 0x6f,
  0x6e, 0x76, 0x32, 0x44, 0x00, 0x00, 0x00, 0x00, 0x04, 0x00, 0x00, 0x00,
  0x01, 0x00, 0x00, 0x00, 0x0c, 0x00, 0x00, 0x00, 0x0c, 0x00, 0x00, 0x00,
  0x30, 0x00, 0x00, 0x00, 0xba, 0x9b, 0xff, 0xff, 0x14, 0x00, 0x00, 0x00,
  0x30, 0x00, 0x00, 0x00, 0x44, 0x00, 0x00, 0x00, 0x00, 0x00, 0x00, 0x09,
  0x40, 0x00, 0x00, 0x00, 0xac, 0x9b, 0xff, 0xff, 0x08, 0x00, 0x00, 0x00,
  0x10, 0x00, 0x00, 0x00, 0x01, 0x00, 0x00, 0x00, 0x08, 0x00, 0x00, 0x00,
  0x00, 0x00, 0x00, 0x00, 0x01, 0x00, 0x00, 0x00, 0x9a, 0xc3, 0x85, 0x3d,
  0x17, 0x00, 0x00, 0x00, 0x6d, 0x6f, 0x64, 0x65, 0x6c, 0x5f, 0x31, 0x2f,
  0x62, 0x6c, 0x6f, 0x63, 0x6b, 0x5f, 0x35, 0x5f, 0x61, 0x64, 0x64, 0x2f,
  0x61, 0x64, 0x64, 0x00, 0x04, 0x00, 0x00, 0x00, 0x01, 0x00, 0x00, 0x00,
  0x0c, 0x00, 0x00, 0x00, 0x0c, 0x00, 0x00, 0x00, 0x08, 0x00, 0x00, 0x00,
  0x22, 0x9c, 0xff, 0xff, 0x14, 0x00, 0x00, 0x00, 0x34, 0x00, 0x00, 0x00,
  0x43, 0x00, 0x00, 0x00, 0x00, 0x00, 0x00, 0x09, 0x78, 0x00, 0x00, 0x00,
  0x14, 0x9c, 0xff, 0xff, 0x08, 0x00, 0x00, 0x00, 0x14, 0x00, 0x00, 0x00,
  0x01, 0x00, 0x00, 0x00, 0x09, 0x00, 0x00, 0x00, 0x00, 0x00, 0x00, 0x00,
  0x00, 0x00, 0x00, 0x00, 0x01, 0x00, 0x00, 0x00, 0x5c, 0x6c, 0x19, 0x3d,
  0x4b, 0x00, 0x00, 0x00, 0x6d, 0x6f, 0x64, 0x65, 0x6c, 0x5f, 0x31, 0x2f,
  0x62, 0x6c, 0x6f, 0x63, 0x6b, 0x5f, 0x35, 0x5f, 0x70, 0x72, 0x6f, 0x6a,
  0x65, 0x63, 0x74, 0x5f, 0x42, 0x4e, 0x2f, 0x46, 0x75, 0x73, 0x65, 0x64,
  0x42, 0x61, 0x74, 0x63, 0x68, 0x4e, 0x6f, 0x72, 0x6d, 0x56, 0x33, 0x3b,
  0x6d, 0x6f, 0x64, 0x65, 0x6c, 0x5f, 0x31, 0x2f, 0x62, 0x6c, 0x6f, 0x63,
  0x6b, 0x5f, 0x35, 0x5f, 0x70, 0x72, 0x6f, 0x6a, 0x65, 0x63, 0x74, 0x2f,
  0x43, 0x6f, 0x6e, 0x76, 0x32, 0x44, 0x31, 0x00, 0x04, 0x00, 0x00, 0x00,
  0x01, 0x00, 0x00, 0x00, 0x0c, 0x00, 0x00, 0x00, 0x0c, 0x00, 0x00, 0x00,
  0x08, 0x00, 0x00, 0x00, 0xc2, 0x9c, 0xff, 0xff, 0x14, 0x00, 0x00, 0x00,
  0x30, 0x00, 0x00, 0x00, 0x42, 0x00, 0x00, 0x00, 0x00, 0x00, 0x00, 0x09,
  0xc0, 0x00, 0x00, 0x00, 0xb4, 0x9c, 0xff, 0xff, 0x08, 0x00, 0x00, 0x00,
  0x10, 0x00, 0x00, 0x00, 0x01, 0x00, 0x00, 0x00, 0x80, 0xff, 0xff, 0xff,
  0xff, 0xff, 0xff, 0xff, 0x01, 0x00, 0x00, 0x00, 0xd5, 0x96, 0x94, 0x3c,
  0x94, 0x00, 0x00, 0x00, 0x6d, 0x6f, 0x64, 0x65, 0x6c, 0x5f, 0x31, 0x2f,
  0x62, 0x6c, 0x6f, 0x63, 0x6b, 0x5f, 0x35, 0x5f, 0x64, 0x65, 0x70, 0x74,
  0x68, 0x77, 0x69, 0x73, 0x65, 0x5f, 0x72, 0x65, 0x6c, 0x75, 0x2f, 0x52,
  0x65, 0x6c, 0x75, 0x36, 0x3b, 0x6d, 0x6f, 0x64, 0x65, 0x6c, 0x5f, 0x31,
  0x2f, 0x62, 0x6c, 0x6f, 0x63, 0x6b, 0x5f, 0x35, 0x5f, 0x64, 0x65, 0x70,
  0x74, 0x68, 0x77, 0x69, 0x73, 0x65, 0x5f, 0x42, 0x4e, 0x2f, 0x46, 0x75,
  0x73, 0x65, 0x64, 0x42, 0x61, 0x74, 0x63, 0x68, 0x4e, 0x6f, 0x72, 0x6d,
  0x56, 0x33, 0x3b, 0x6d, 0x6f, 0x64, 0x65, 0x6c, 0x5f, 0x31, 0x2f, 0x62,
  0x6c, 0x6f, 0x63, 0x6b, 0x5f, 0x35, 0x5f, 0x64, 0x65, 0x70, 0x74, 0x68,
  0x77, 0x69, 0x73, 0x65, 0x2f, 0x64, 0x65, 0x70, 0x74, 0x68, 0x77, 0x69,
  0x73, 0x65, 0x3b, 0x6d, 0x6f, 0x64, 0x65, 0x6c, 0x5f, 0x31, 0x2f, 0x62,
  0x6c, 0x6f, 0x63, 0x6b, 0x5f, 0x36, 0x5f, 0x65, 0x78, 0x70, 0x61, 0x6e,
  0x64, 0x2f, 0x43, 0x6f, 0x6e, 0x76, 0x32, 0x44, 0x00, 0x00, 0x00, 0x00,
  0x04, 0x00, 0x00, 0x00, 0x01, 0x00, 0x00, 0x00, 0x0c, 0x00, 0x00, 0x00,
  0x0c, 0x00, 0x00, 0x00, 0x30, 0x00, 0x00, 0x00, 0xaa, 0x9d, 0xff, 0xff,
  0x14, 0x00, 0x00, 0x00, 0x34, 0x00, 0x00, 0x00, 0x41, 0x00, 0x00, 0x00,
  0x00, 0x00, 0x00, 0x09, 0x08, 0x01, 0x00, 0x00, 0x9c, 0x9d, 0xff, 0xff,
  0x08, 0x00, 0x00, 0x00, 0x14, 0x00, 0x00, 0x00, 0x01, 0x00, 0x00, 0x00,
  0x80, 0xff, 0xff, 0xff, 0xff, 0xff, 0xff, 0xff, 0x00, 0x00, 0x00, 0x00,
  0x01, 0x00, 0x00, 0x00, 0xdc, 0x14, 0x94, 0x3c, 0xda, 0x00, 0x00, 0x00,
  0x6d, 0x6f, 0x64, 0x65, 0x6c, 0x5f, 0x31, 0x2f, 0x62, 0x6c, 0x6f, 0x63,
  0x6b, 0x5f, 0x35, 0x5f, 0x65, 0x78, 0x70, 0x61, 0x6e, 0x64, 0x5f, 0x72,
  0x65, 0x6c, 0x75, 0x2f, 0x52, 0x65, 0x6c, 0x75, 0x36, 0x3b, 0x6d, 0x6f,
  0x64, 0x65, 0x6c, 0x5f, 0x31, 0x2f, 0x62, 0x6c, 0x6f, 0x63, 0x6b, 0x5f,
  0x35, 0x5f, 0x65, 0x78, 0x70, 0x61, 0x6e, 0x64, 0x5f, 0x42, 0x4e, 0x2f,
  0x46, 0x75, 0x73, 0x65, 0x64, 0x42, 0x61, 0x74, 0x63, 0x68, 0x4e, 0x6f,
  0x72, 0x6d, 0x56, 0x33, 0x3b, 0x6d, 0x6f, 0x64, 0x65, 0x6c, 0x5f, 0x31,
  0x2f, 0x62, 0x6c, 0x6f, 0x63, 0x6b, 0x5f, 0x35, 0x5f, 0x64, 0x65, 0x70,
  0x74, 0x68, 0x77, 0x69, 0x73, 0x65, 0x5f, 0x42, 0x4e, 0x2f, 0x46, 0x75,
  0x73, 0x65, 0x64, 0x42, 0x61, 0x74, 0x63, 0x68, 0x4e, 0x6f, 0x72, 0x6d,
  0x56, 0x33, 0x3b, 0x6d, 0x6f, 0x64, 0x65, 0x6c, 0x5f, 0x31, 0x2f, 0x62,
  0x6c, 0x6f, 0x63, 0x6b, 0x5f, 0x35, 0x5f, 0x64, 0x65, 0x70, 0x74, 0x68,
  0x77, 0x69, 0x73, 0x65, 0x2f, 0x64, 0x65, 0x70, 0x74, 0x68, 0x77, 0x69,
  0x73, 0x65, 0x3b, 0x6d, 0x6f, 0x64, 0x65, 0x6c, 0x5f, 0x31, 0x2f, 0x62,
  0x6c, 0x6f, 0x63, 0x6b, 0x5f, 0x36, 0x5f, 0x65, 0x78, 0x70, 0x61, 0x6e,
  0x64, 0x2f, 0x43, 0x6f, 0x6e, 0x76, 0x32, 0x44, 0x3b, 0x6d, 0x6f, 0x64,
  0x65, 0x6c, 0x5f, 0x31, 0x2f, 0x62, 0x6c, 0x6f, 0x63, 0x6b, 0x5f, 0x35,
  0x5f, 0x65, 0x78, 0x70, 0x61, 0x6e, 0x64, 0x2f, 0x43, 0x6f, 0x6e, 0x76,
  0x32, 0x44, 0x00, 0x00, 0x04, 0x00, 0x00, 0x00, 0x01, 0x00, 0x00, 0x00,
  0x0c, 0x00, 0x00, 0x00, 0x0c, 0x00, 0x00, 0x00, 0x30, 0x00, 0x00, 0x00,
  0xda, 0x9e, 0xff, 0xff, 0x14, 0x00, 0x00, 0x00, 0x30, 0x00, 0x00, 0x00,
  0x40, 0x00, 0x00, 0x00, 0x00, 0x00, 0x00, 0x09, 0x40, 0x00, 0x00, 0x00,
  0xcc, 0x9e, 0xff, 0xff, 0x08, 0x00, 0x00, 0x00, 0x10, 0x00, 0x00, 0x00,
  0x01, 0x00, 0x00, 0x00, 0x0a, 0x00, 0x00, 0x00, 0x00, 0x00, 0x00, 0x00,
  0x01, 0x00, 0x00, 0x00, 0xf4, 0xc9, 0x4f, 0x3d, 0x17, 0x00, 0x00, 0x00,
  0x6d, 0x6f, 0x64, 0x65, 0x6c, 0x5f, 0x31, 0x2f, 0x62, 0x6c, 0x6f, 0x63,
  0x6b, 0x5f, 0x34, 0x5f, 0x61, 0x64, 0x64, 0x2f, 0x61, 0x64, 0x64, 0x00,
  0x04, 0x00, 0x00, 0x00, 0x01, 0x00, 0x00, 0x00, 0x0c, 0x00, 0x00, 0x00,
  0x0c, 0x00, 0x00, 0x00, 0x08, 0x00, 0x00, 0x00, 0x42, 0x9f, 0xff, 0xff,
  0x14, 0x00, 0x00, 0x00, 0x34, 0x00, 0x00, 0x00, 0x3f, 0x00, 0x00, 0x00,
  0x00, 0x00, 0x00, 0x09, 0x98, 0x00, 0x00, 0x00, 0x34, 0x9f, 0xff, 0xff,
  0x08, 0x00, 0x00, 0x00, 0x14, 0x00, 0x00, 0x00, 0x01, 0x00, 0x00, 0x00,
  0xee, 0xff, 0xff, 0xff, 0xff, 0xff, 0xff, 0xff, 0x00, 0x00, 0x00, 0x00,
  0x01, 0x00, 0x00, 0x00, 0x50, 0xaf, 0x23, 0x3d, 0x6a, 0x00, 0x00, 0x00,
  0x6d, 0x6f, 0x64, 0x65, 0x6c, 0x5f, 0x31, 0x2f, 0x62, 0x6c, 0x6f, 0x63,
  0x6b, 0x5f, 0x34, 0x5f, 0x70, 0x72, 0x6f, 0x6a, 0x65, 0x63, 0x74, 0x5f,
